{
  "version": "1.0",
  "truncation": null,
  "padding": null,
  "added_tokens": [
    {
      "id": 0,
      "content": "<pad>",
      "single_word": false,
      "lstrip": false,
      "rstrip": false,
      "normalized": false,
      "special": true
    },
    {
      "id": 1,
      "content": "<unk>",
      "single_word": false,
      "lstrip": false,
      "rstrip": false,
      "normalized": false,
      "special": true
    },
    {
      "id": 2,
      "content": "<bos>",
      "single_word": false,
      "lstrip": false,
      "rstrip": false,
      "normalized": false,
      "special": true
    },
    {
      "id": 3,
      "content": "<eos>",
      "single_word": false,
      "lstrip": false,
      "rstrip": false,
      "normalized": false,
      "special": true
    },
    {
      "id": 4,
      "content": "<|user|>",
      "single_word": false,
      "lstrip": false,
      "rstrip": false,
      "normalized": false,
      "special": true
    },
    {
      "id": 5,
      "content": "<|assistant|>",
      "single_word": false,
      "lstrip": false,
      "rstrip": false,
      "normalized": false,
      "special": true
    },
    {
      "id": 6,
      "content": "<|system|>",
      "single_word": false,
      "lstrip": false,
      "rstrip": false,
      "normalized": false,
      "special": true
    },
    {
      "id": 7,
      "content": "<|tool|>",
      "single_word": false,
      "lstrip": false,
      "rstrip": false,
      "normalized": false,
      "special": true
    },
    {
      "id": 8,
      "content": "<|tool_result|>",
      "single_word": false,
      "lstrip": false,
      "rstrip": false,
      "normalized": false,
      "special": true
    }
  ],
  "normalizer": null,
  "pre_tokenizer": {
    "type": "ByteLevel",
    "add_prefix_space": false,
    "trim_offsets": true,
    "use_regex": true
  },
  "post_processor": null,
  "decoder": {
    "type": "ByteLevel",
    "add_prefix_space": true,
    "trim_offsets": true,
    "use_regex": true
  },
  "model": {
    "type": "BPE",
    "dropout": null,
    "unk_token": "<unk>",
    "continuing_subword_prefix": null,
    "end_of_word_suffix": null,
    "fuse_unk": false,
    "byte_fallback": false,
    "ignore_merges": false,
    "vocab": {
      "<pad>": 0,
      "<unk>": 1,
      "<bos>": 2,
      "<eos>": 3,
      "<|user|>": 4,
      "<|assistant|>": 5,
      "<|system|>": 6,
      "<|tool|>": 7,
      "<|tool_result|>": 8,
      "!": 9,
      "\"": 10,
      "$": 11,
      "'": 12,
      ",": 13,
      "-": 14,
      ".": 15,
      "0": 16,
      "1": 17,
      "2": 18,
      "3": 19,
      "5": 20,
      "8": 21,
      ":": 22,
      ";": 23,
      "?": 24,
      "A": 25,
      "B": 26,
      "C": 27,
      "D": 28,
      "E": 29,
      "F": 30,
      "G": 31,
      "H": 32,
      "I": 33,
      "J": 34,
      "K": 35,
      "L": 36,
      "M": 37,
      "N": 38,
      "O": 39,
      "P": 40,
      "Q": 41,
      "R": 42,
      "S": 43,
      "T": 44,
      "U": 45,
      "V": 46,
      "W": 47,
      "X": 48,
      "Y": 49,
      "Z": 50,
      "a": 51,
      "b": 52,
      "c": 53,
      "d": 54,
      "e": 55,
      "f": 56,
      "g": 57,
      "h": 58,
      "i": 59,
      "j": 60,
      "k": 61,
      "l": 62,
      "m": 63,
      "n": 64,
      "o": 65,
      "p": 66,
      "q": 67,
      "r": 68,
      "s": 69,
      "t": 70,
      "u": 71,
      "v": 72,
      "w": 73,
      "x": 74,
      "y": 75,
      "z": 76,
      "¢": 77,
      "¬": 78,
      "Ã": 79,
      "Å": 80,
      "Ë": 81,
      "â": 82,
      "Ċ": 83,
      "Ġ": 84,
      "Ģ": 85,
      "Ĥ": 86,
      "Ħ": 87,
      "ĵ": 88,
      "ľ": 89,
      "Ŀ": 90,
      "he": 91,
      "Ġt": 92,
      "Ġa": 93,
      "Ġs": 94,
      "Ġw": 95,
      "nd": 96,
      "Ġthe": 97,
      "ed": 98,
      "Ġand": 99,
      "Ġb": 100,
      "Ġto": 101,
      "in": 102,
      "Ġh": 103,
      "re": 104,
      "Ġwa": 105,
      "Ġf": 106,
      "ou": 107,
      "it": 108,
      "Ġl": 109,
      "Ġc": 110,
      "er": 111,
      "Ġd": 112,
      "Ġhe": 113,
      "Ġm": 114,
      "Ġp": 115,
      "Ġwas": 116,
      "ĠT": 117,
      "om": 118,
      "on": 119,
      "ay": 120,
      "ar": 121,
      "is": 122,
      "ing": 123,
      "Ġg": 124,
      "il": 125,
      "id": 126,
      "en": 127,
      "at": 128,
      "ĠThe": 129,
      "Ġn": 130,
      "ĠS": 131,
      "Ġha": 132,
      "Ġsa": 133,
      "an": 134,
      "or": 135,
      "im": 136,
      "ll": 137,
      "Ġit": 138,
      "Ġth": 139,
      "Ġo": 140,
      "le": 141,
      "ĠH": 142,
      "et": 143,
      "ĠShe": 144,
      "Ġher": 145,
      "es": 146,
      "ir": 147,
      "ĠHe": 148,
      "ot": 149,
      "ver": 150,
      "ck": 151,
      "Ġin": 152,
      "ĠThey": 153,
      "ow": 154,
      "Ġe": 155,
      "ut": 156,
      "ld": 157,
      "oo": 158,
      "Ġu": 159,
      "Ġy": 160,
      "Ġr": 161,
      "Ġsaid": 162,
      "Ġbe": 163,
      "ĠI": 164,
      "ig": 165,
      "Ġst": 166,
      "Ġshe": 167,
      "Ġ\"": 168,
      "ke": 169,
      "ce": 170,
      "ith": 171,
      "Ġwith": 172,
      "ve": 173,
      "pp": 174,
      "ked": 175,
      "ily": 176,
      "Ġso": 177,
      "am": 178,
      "Ġon": 179,
      "Ġpl": 180,
      "ad": 181,
      "very": 182,
      "Ġyou": 183,
      "Ġof": 184,
      "ri": 185,
      "Ġhis": 186,
      "On": 187,
      "nt": 188,
      "Lily": 189,
      "Ġthat": 190,
      "Ġwe": 191,
      "Ġday": 192,
      "Ġup": 193,
      "The": 194,
      "Ġhad": 195,
      "Ġplay": 196,
      "st": 197,
      "el": 198,
      "Ġthey": 199,
      "Ġfor": 200,
      "Ġli": 201,
      "ĠB": 202,
      "ch": 203,
      "ent": 204,
      "ould": 205,
      "un": 206,
      "'s": 207,
      "my": 208,
      "Ġsh": 209,
      "itt": 210,
      "out": 211,
      "Ġwant": 212,
      "Ġhapp": 213,
      "her": 214,
      "ĠLily": 215,
      "Ġmom": 216,
      "ly": 217,
      "ome": 218,
      "end": 219,
      "Ġsm": 220,
      "ittle": 221,
      "all": 222,
      "ound": 223,
      "ack": 224,
      "Ġis": 225,
      "Ġvery": 226,
      "Ġnot": 227,
      "se": 228,
      "Ġwh": 229,
      "Ġdo": 230,
      "Ġlittle": 231,
      "ĠIt": 232,
      "ht": 233,
      "al": 234,
      "Ġtim": 235,
      "Ġk": 236,
      "Ġne": 237,
      "ĠĊ": 238,
      "Ġtime": 239,
      "Ġre": 240,
      "ug": 241,
      "Ġthere": 242,
      "ry": 243,
      "riend": 244,
      ".\"": 245,
      "Ġbig": 246,
      "Ġfriend": 247,
      "Ġhappy": 248,
      "Ġloo": 249,
      "ĠM": 250,
      "Ġse": 251,
      "Ġsaw": 252,
      "Ġbut": 253,
      "ake": 254,
      "Ġan": 255,
      "Ġwere": 256,
      "ter": 257,
      "Ġas": 258,
      "Ġbo": 259,
      "ra": 260,
      "'t": 261,
      "ide": 262,
      "Ġhim": 263,
      "ore": 264,
      "Ġare": 265,
      "!\"": 266,
      "One": 267,
      "Ġgo": 268,
      "irl": 269,
      "Ġthem": 270,
      "ays": 271,
      "Ġgirl": 272,
      "ec": 273,
      "Ġtoo": 274,
      "Once": 275,
      "ĠA": 276,
      "ved": 277,
      "Ġsp": 278,
      "Ġsmil": 279,
      "ill": 280,
      "Ġat": 281,
      "Ġwanted": 282,
      "fu": 283,
      "Ġlo": 284,
      "ard": 285,
      "Ġout": 286,
      "Ġtheir": 287,
      "ĠBen": 288,
      "Ġj": 289,
      "ur": 290,
      "Ġhave": 291,
      "ind": 292,
      "ain": 293,
      "ĠJ": 294,
      "Ġupon": 295,
      "Ġex": 296,
      "ic": 297,
      "Ġcan": 298,
      "ĠTim": 299,
      "hen": 300,
      "Ġcould": 301,
      "hing": 302,
      "Ġdid": 303,
      "ful": 304,
      "round": 305,
      "art": 306,
      "one": 307,
      "Ġfriends": 308,
      "Ġwent": 309,
      "Ġback": 310,
      "rom": 311,
      "ight": 312,
      "hed": 313,
      "um": 314,
      "Ġall": 315,
      "are": 316,
      "Ġlike": 317,
      "?\"": 318,
      "ood": 319,
      "You": 320,
      "Ġcl": 321,
      "ame": 322,
      "Ġle": 323,
      "Ġkn": 324,
      "Ġno": 325,
      "Ġsmiled": 326,
      "Ġfun": 327,
      "Ġfe": 328,
      "Ġlooked": 329,
      "Ġhel": 330,
      "omet": 331,
      "ick": 332,
      "ong": 333,
      "Ġme": 334,
      "Ġsays": 335,
      "Ġsee": 336,
      "Ġboy": 337,
      "op": 338,
      "ure": 339,
      "ark": 340,
      "ice": 341,
      "Ã¢": 342,
      "âĤ": 343,
      "Ġman": 344,
      "âĤ¬": 345,
      "as": 346,
      "Ġsome": 347,
      "Ġhelp": 348,
      "ĠTom": 349,
      ",\"": 350,
      "oug": 351,
      "Ġbr": 352,
      "Ġal": 353,
      "side": 354,
      "elt": 355,
      "Ġwould": 356,
      "Ġaround": 357,
      "Ġsomet": 358,
      "way": 359,
      "Ġfelt": 360,
      "ĠTimmy": 361,
      "Ġfa": 362,
      "dd": 363,
      "Ġasked": 364,
      "ĠW": 365,
      "ade": 366,
      "Ġtoy": 367,
      "Ġstart": 368,
      "ĠOne": 369,
      "ings": 370,
      "amed": 371,
      "ag": 372,
      "Ġaway": 373,
      "Ġch": 374,
      "Ġro": 375,
      "get": 376,
      "Ġag": 377,
      "Ġloved": 378,
      "Ġsc": 379,
      "Ġsomething": 380,
      "Ġwor": 381,
      "Ġran": 382,
      "ĠYou": 383,
      "Ġnamed": 384,
      "Ġwhat": 385,
      "Ġcar": 386,
      "Ġmake": 387,
      "ble": 388,
      "Ġmade": 389,
      "king": 390,
      "ited": 391,
      "Ġbir": 392,
      "ep": 393,
      "Ġstarted": 394,
      "Ġhug": 395,
      "Ġbl": 396,
      "Ġexc": 397,
      "Ġfrom": 398,
      "gether": 399,
      "ther": 400,
      "Ġfl": 401,
      "own": 402,
      "ĠL": 403,
      "oud": 404,
      "Ġother": 405,
      "ree": 406,
      "ara": 407,
      "Ġco": 408,
      "Ġagain": 409,
      "ĠE": 410,
      "Ġwhen": 411,
      "ell": 412,
      "Ġbird": 413,
      "Ġthen": 414,
      "Ġmu": 415,
      "Ġput": 416,
      "est": 417,
      "hat": 418,
      "Ġwho": 419,
      "Ġtogether": 420,
      "aug": 421,
      "ook": 422,
      "ared": 423,
      "if": 424,
      "uck": 425,
      "Ġevery": 426,
      "qu": 427,
      "Ġhome": 428,
      "Ġnew": 429,
      "Ġgood": 430,
      "Ġplaying": 431,
      "Ġfound": 432,
      "nn": 433,
      "Ġpr": 434,
      "Ġfeel": 435,
      "Ġmy": 436,
      "Ġsad": 437,
      "ĠBut": 438,
      "ous": 439,
      "ach": 440,
      "Ġv": 441,
      "Ġexcited": 442,
      "pl": 443,
      "ss": 444,
      "Ġdec": 445,
      "Ġthan": 446,
      "Ġwal": 447,
      "Ġpark": 448,
      "pped": 449,
      "Ġget": 450,
      "Ġthings": 451,
      "Ġyour": 452,
      "ite": 453,
      "nna": 454,
      "Ġliked": 455,
      "They": 456,
      "ought": 457,
      "Ġcare": 458,
      "ally": 459,
      "Ġta": 460,
      "Ġdecid": 461,
      "ried": 462,
      "our": 463,
      "Ġlook": 464,
      "Ġdecided": 465,
      "ave": 466,
      "ie": 467,
      "ro": 468,
      "Ġdad": 469,
      "ĠD": 470,
      "eci": 471,
      "Ġab": 472,
      "Ġgot": 473,
      "ue": 474,
      "Ġtake": 475,
      "nder": 476,
      "udd": 477,
      "Ġtr": 478,
      "ĠMom": 479,
      "ust": 480,
      "Ġgra": 481,
      "Ġone": 482,
      "Ġdog": 483,
      "ecial": 484,
      "us": 485,
      "lly": 486,
      "Ġold": 487,
      "Ġspecial": 488,
      "Ġdown": 489,
      "Ġabout": 490,
      "ouse": 491,
      "Ġtook": 492,
      "ist": 493,
      "ways": 494,
      "ret": 495,
      "Ġfind": 496,
      "Ġho": 497,
      "Ġalways": 498,
      "Ġball": 499,
      "ers": 500,
      "ened": 501,
      "Ġint": 502,
      "ise": 503,
      "Ġbec": 504,
      "Ġmore": 505,
      "orry": 506,
      "ny": 507,
      "ned": 508,
      "ged": 509,
      "Ġke": 510,
      "Ġscared": 511,
      "ac": 512,
      "bb": 513,
      "ia": 514,
      "Ġpe": 515,
      "Ġsk": 516,
      "Ġcame": 517,
      "ĠSara": 518,
      "Ġlot": 519,
      "Ġthought": 520,
      "Ġtoys": 521,
      "Ġoutside": 522,
      "udden": 523,
      "Ġsw": 524,
      "Ġstr": 525,
      "Ġknow": 526,
      "and": 527,
      "ant": 528,
      "Ġrun": 529,
      "ank": 530,
      "ess": 531,
      "uddenly": 532,
      "Ġlear": 533,
      "Ġmo": 534,
      "ĠF": 535,
      "Ġlaug": 536,
      "Ġpo": 537,
      "Ġsorry": 538,
      "ap": 539,
      "ive": 540,
      "Ġwill": 541,
      "Ġwater": 542,
      "ace": 543,
      "Ġdidn": 544,
      "Ġmuch": 545,
      "Ġtw": 546,
      "Ġkne": 547,
      "fter": 548,
      "But": 549,
      "Ġqu": 550,
      "reat": 551,
      "ĠEvery": 552,
      "Ġexpl": 553,
      "Ġtree": 554,
      "ĠAnna": 555,
      "Ġwat": 556,
      "Ġthis": 557,
      "Ġop": 558,
      "Ġinto": 559,
      "os": 560,
      "ink": 561,
      "Ġnever": 562,
      "Ġeach": 563,
      "ak": 564,
      "fe": 565,
      "ang": 566,
      "Ġany": 567,
      "Ġsl": 568,
      "Ġsun": 569,
      "Ġfo": 570,
      "Ġroom": 571,
      "Ġor": 572,
      "Ġcat": 573,
      "ma": 574,
      "oon": 575,
      "here": 576,
      "Ġsmall": 577,
      "Ġhow": 578,
      "Ġen": 579,
      "ĠJack": 580,
      "ine": 581,
      "ĠAnd": 582,
      "Ġcouldn": 583,
      "au": 584,
      "vent": 585,
      "ĠSam": 586,
      "Ġhugged": 587,
      "Ġtold": 588,
      "ish": 589,
      "Ġgave": 590,
      "ving": 591,
      "Ġbox": 592,
      "Ġnice": 593,
      "Ġmany": 594,
      "Ġproud": 595,
      "Ġad": 596,
      "Ġshow": 597,
      "ion": 598,
      "Ġlong": 599,
      "ull": 600,
      "ves": 601,
      "Ġte": 602,
      "Ġover": 603,
      "Ġinside": 604,
      "Ġeat": 605,
      "Ġbear": 606,
      "pt": 607,
      "ady": 608,
      "ĠMia": 609,
      "Ġknew": 610,
      "dy": 611,
      "Ġif": 612,
      "ate": 613,
      "ven": 614,
      "etter": 615,
      "Ġmommy": 616,
      "ĠWe": 617,
      "Mom": 618,
      "Ġpick": 619,
      "em": 620,
      "Ġhouse": 621,
      "Ġheard": 622,
      "Ġpret": 623,
      "ild": 624,
      "other": 625,
      "ump": 626,
      "Ġthanked": 627,
      "by": 628,
      "ax": 629,
      "Ġcom": 630,
      "Ġhand": 631,
      "ĠJo": 632,
      "oth": 633,
      "Ġdoll": 634,
      "Ġunt": 635,
      "Ġcall": 636,
      "Ġdre": 637,
      "Ġdon": 638,
      "ars": 639,
      "Ġneed": 640,
      "Tom": 641,
      "Ġsay": 642,
      "Ġbest": 643,
      "Ġoff": 644,
      "Ġjust": 645,
      "ough": 646,
      "Ġuntil": 647,
      "Ġgard": 648,
      "ort": 649,
      "Ġgarden": 650,
      "'m": 651,
      "uc": 652,
      "Ġcareful": 653,
      "ber": 654,
      "ĠÃ¢": 655,
      "Ġgl": 656,
      "Åĵ": 657,
      "Ġtried": 658,
      "urp": 659,
      "Ġfast": 660,
      "aut": 661,
      "Ben": 662,
      "Ġus": 663,
      "Ġflow": 664,
      "urt": 665,
      "ummy": 666,
      "Ġsky": 667,
      "ause": 668,
      "Ġtry": 669,
      "Ġwo": 670,
      "Ġbeaut": 671,
      "oy": 672,
      "iny": 673,
      "imal": 674,
      "Ġanimal": 675,
      "ning": 676,
      "olly": 677,
      "Ġcu": 678,
      "âĤ¬â": 679,
      "hn": 680,
      "Ġche": 681,
      "iful": 682,
      "ock": 683,
      "Ġbetter": 684,
      "ase": 685,
      "gry": 686,
      "Ġplayed": 687,
      "Ġclos": 688,
      "Ġbeautiful": 689,
      "iz": 690,
      "ĠC": 691,
      "elf": 692,
      "Ġway": 693,
      "Ġlearned": 694,
      "rm": 695,
      "Ġtruck": 696,
      "Ġbecause": 697,
      "Ġadvent": 698,
      "Ġred": 699,
      "ob": 700,
      "Ġits": 701,
      "Ġra": 702,
      "Ġcalled": 703,
      "ched": 704,
      "ty": 705,
      "Ġbu": 706,
      "Ġstay": 707,
      "Ġsoon": 708,
      "Ġshare": 709,
      "Ġkind": 710,
      "No": 711,
      "Ġsurp": 712,
      "Ġbook": 713,
      "ile": 714,
      "Ġsurpr": 715,
      "Th": 716,
      "Ġlist": 717,
      "lew": 718,
      "ĠHer": 719,
      "It": 720,
      "ĠG": 721,
      "Ġtwo": 722,
      "Ġim": 723,
      "Ħ¢": 724,
      "Ġcome": 725,
      "ĠThen": 726,
      "âĤ¬âĦ¢": 727,
      "Yes": 728,
      "Ġfr": 729,
      "Ġcr": 730,
      "Ġnow": 731,
      "Ġeven": 732,
      "Ġrem": 733,
      "Ġadventure": 734,
      "Ġhard": 735,
      "Ġlove": 736,
      "Ġjump": 737,
      "Ġlaughed": 738,
      "Let": 739,
      "Ġcle": 740,
      "Ġgr": 741,
      "Ġstill": 742,
      "kes": 743,
      "Ġend": 744,
      "He": 745,
      "Ġloud": 746,
      "ila": 747,
      "ĠSo": 748,
      "ĠMax": 749,
      "led": 750,
      "Ġfam": 751,
      "Ġshiny": 752,
      "ople": 753,
      "Ġsn": 754,
      "Ġby": 755,
      "Ġcry": 756,
      "ane": 757,
      "Ġey": 758,
      "ool": 759,
      "Ġlots": 760,
      "be": 761,
      "fore": 762,
      "Ġbed": 763,
      "Ġground": 764,
      "Ġcol": 765,
      "Ġpeople": 766,
      "hes": 767,
      "Ġhurt": 768,
      "Ġfi": 769,
      "Ġlet": 770,
      "Ġunder": 771,
      "ect": 772,
      "dded": 773,
      "ucy": 774,
      "ast": 775,
      "ip": 776,
      "ies": 777,
      "Ġboth": 778,
      "Ġfly": 779,
      "Ġshould": 780,
      "age": 781,
      "ft": 782,
      "Ġwind": 783,
      "Ġwalked": 784,
      "Ġkept": 785,
      "self": 786,
      "Ġbra": 787,
      "Ġwr": 788,
      "ary": 789,
      "Ġbefore": 790,
      "iced": 791,
      "Ġsmile": 792,
      "Ġopened": 793,
      "When": 794,
      "Ġtow": 795,
      "Ġstor": 796,
      "Ġboat": 797,
      "Ġstrong": 798,
      "Ġexplore": 799,
      "Ġanimals": 800,
      "Ġbug": 801,
      "Ġflew": 802,
      "Ġhas": 803,
      "Ġfeeling": 804,
      "Ġeyes": 805,
      "ised": 806,
      "That": 807,
      "Ġfin": 808,
      "Sara": 809,
      "eet": 810,
      "thing": 811,
      "xt": 812,
      "Ġfamily": 813,
      "ished": 814,
      "Ġnodded": 815,
      "Ġchild": 816,
      "ĠFrom": 817,
      "Ġmag": 818,
      "Ġnoticed": 819,
      "Ġblue": 820,
      "Ġeveryone": 821,
      "les": 822,
      "Ġever": 823,
      "igh": 824,
      "What": 825,
      "ct": 826,
      "Ġama": 827,
      "Ġthr": 828,
      "aught": 829,
      "Ġwonder": 830,
      "Ġamaz": 831,
      "Ġfore": 832,
      "Ġde": 833,
      "Ġangry": 834,
      "Ġgoing": 835,
      "Ġquick": 836,
      "illy": 837,
      "immy": 838,
      "Ġplace": 839,
      "Ġbad": 840,
      "Ġow": 841,
      "Ġnoise": 842,
      "Ġwatch": 843,
      "Ġpic": 844,
      "aybe": 845,
      "ĠHis": 846,
      "Ġlived": 847,
      "raw": 848,
      "ash": 849,
      "so": 850,
      "Ġcon": 851,
      "Ġwalking": 852,
      "ush": 853,
      "Ġbrave": 854,
      "Ġwait": 855,
      "imb": 856,
      "ange": 857,
      "kay": 858,
      "Ġclimb": 859,
      "Ġlea": 860,
      "Ġalso": 861,
      "ĠWhen": 862,
      "ious": 863,
      "Ġgive": 864,
      "Ġgreat": 865,
      "Ġnext": 866,
      "Ġcolor": 867,
      "Ġide": 868,
      "Ġtur": 869,
      "Ġfar": 870,
      "Ġgre": 871,
      "Ġdoor": 872,
      "bbit": 873,
      "Ġimp": 874,
      "Ġremem": 875,
      "Ġquickly": 876,
      "Ġfish": 877,
      "Ġpain": 878,
      "isy": 879,
      "ĠSuddenly": 880,
      "Ġsto": 881,
      "Ġreal": 882,
      "Suddenly": 883,
      "able": 884,
      "day": 885,
      "Ġtre": 886,
      "Ġafter": 887,
      "Ġname": 888,
      "leep": 889,
      "Ġvo": 890,
      "Ġhole": 891,
      "Ġwatched": 892,
      "joy": 893,
      "ng": 894,
      "uch": 895,
      "Ġdel": 896,
      "llow": 897,
      "Ġru": 898,
      "Ġmean": 899,
      "Ġidea": 900,
      "ge": 901,
      "Ġpicked": 902,
      "Ġclean": 903,
      "Ġdif": 904,
      "Ġface": 905,
      "Ġmagic": 906,
      "Anna": 907,
      "aisy": 908,
      "irst": 909,
      "Ġshout": 910,
      "Ġseen": 911,
      "Ġballoon": 912,
      "Ġkeep": 913,
      "bye": 914,
      "Ġflowers": 915,
      "Ġcuri": 916,
      "Ġcloser": 917,
      "Ġrabbit": 918,
      "gan": 919,
      "ied": 920,
      "Ġdis": 921,
      "Ġma": 922,
      "ired": 923,
      "Ġwork": 924,
      "Ġfollow": 925,
      "Ġforest": 926,
      "Ġsafe": 927,
      "Ġlooking": 928,
      "ĠMommy": 929,
      "Ġremember": 930,
      "Ġour": 931,
      "Ġhead": 932,
      "Ġthink": 933,
      "Ġblock": 934,
      "bbed": 935,
      "Ġenjoy": 936,
      "Ġlisten": 937,
      "Ġpu": 938,
      "Ġwhile": 939,
      "Ġdoes": 940,
      "Ġpretty": 941,
      "ture": 942,
      "Ġar": 943,
      "Ġwarm": 944,
      "iss": 945,
      "Ġyell": 946,
      "ppy": 947,
      "Ġpicture": 948,
      "Ġvoice": 949,
      "th": 950,
      "Ġlady": 951,
      "Ġstick": 952,
      "Ġgoodbye": 953,
      "Ġsweet": 954,
      "Thank": 955,
      "Ġstopped": 956,
      "ting": 957,
      "ĠN": 958,
      "ĠP": 959,
      "Ġtired": 960,
      "Ġwhere": 961,
      "Ġbeen": 962,
      "ĠMolly": 963,
      "Ġbro": 964,
      "Ġfav": 965,
      "Ġcurious": 966,
      "ff": 967,
      "ner": 968,
      "ĠLucy": 969,
      "ĠJohn": 970,
      "So": 971,
      "ted": 972,
      "Ġtell": 973,
      "Ġhere": 974,
      "Ġgame": 975,
      "lease": 976,
      "Ġuse": 977,
      "Ġbeh": 978,
      "Ġbel": 979,
      "Ġcars": 980,
      "Ġwalk": 981,
      "fere": 982,
      "She": 983,
      "Ġtal": 984,
      "ered": 985,
      "Ġpat": 986,
      "Ġpull": 987,
      "Ġye": 988,
      "ster": 989,
      "Ġsees": 990,
      "ass": 991,
      "Ġworld": 992,
      "ĠDad": 993,
      "Ġhands": 994,
      "Ġdress": 995,
      "Ġglad": 996,
      "Ġdiffere": 997,
      "Ġfirst": 998,
      "Ġthree": 999,
      "Ġun": 1000,
      "ely": 1001,
      "ĠBob": 1002,
      "Ġnear": 1003,
      "Ġready": 1004,
      "Ġrock": 1005,
      "ĠLila": 1006,
      "Ġpen": 1007,
      "Ġask": 1008,
      "Ġgrass": 1009,
      "ĠEveryone": 1010,
      "Ġslide": 1011,
      "ized": 1012,
      "Ġdifferent": 1013,
      "Ġrepl": 1014,
      "Ġpretend": 1015,
      "sh": 1016,
      "Ġsure": 1017,
      "Ġsqu": 1018,
      "Ġbit": 1019,
      "ream": 1020,
      "Ġfood": 1021,
      "Ġhappened": 1022,
      "Ġbrother": 1023,
      "Ġapp": 1024,
      "Ġhop": 1025,
      "ount": 1026,
      "Ġbegan": 1027,
      "Ġlikes": 1028,
      "ĠDaisy": 1029,
      "Ġbecame": 1030,
      "ĠJoe": 1031,
      "Jo": 1032,
      "Look": 1033,
      "more": 1034,
      "Ġwaved": 1035,
      "Ġdark": 1036,
      "Ġbutter": 1037,
      "ĠAs": 1038,
      "Ġcold": 1039,
      "Ġopen": 1040,
      "Ġanymore": 1041,
      "Ġthrough": 1042,
      "Ġshouted": 1043,
      "co": 1044,
      "ient": 1045,
      "Ġsleep": 1046,
      "ĠTh": 1047,
      "Ġnight": 1048,
      "We": 1049,
      "ren": 1050,
      "Ġfill": 1051,
      "Ġmor": 1052,
      "anc": 1053,
      "Ġyummy": 1054,
      "Ġrel": 1055,
      "Ġflo": 1056,
      "Ġlooks": 1057,
      "Ġgrabbed": 1058,
      "Ġgreen": 1059,
      "Ġice": 1060,
      "Ġsound": 1061,
      "Ġbow": 1062,
      "Ġmouse": 1063,
      "Ġate": 1064,
      "ĠLet": 1065,
      "ached": 1066,
      "Ġsurprise": 1067,
      "Ġchildren": 1068,
      "Ġfavor": 1069,
      "where": 1070,
      "Ġac": 1071,
      "Ġgi": 1072,
      "ather": 1073,
      "Ġrain": 1074,
      "Ġbeing": 1075,
      "fully": 1076,
      "ĠSarah": 1077,
      "Ġslow": 1078,
      "Ġ-": 1079,
      "ĠSue": 1080,
      "Ġwhy": 1081,
      "Ġkid": 1082,
      "Ġjo": 1083,
      "ortant": 1084,
      "Ġimportant": 1085,
      "Ġfavorite": 1086,
      "Her": 1087,
      "Ġsing": 1088,
      "Ġokay": 1089,
      "Ġbigg": 1090,
      "Ġbright": 1091,
      "akes": 1092,
      "Mommy": 1093,
      "Ġpuppy": 1094,
      "ken": 1095,
      "Ġba": 1096,
      "Ġdri": 1097,
      "Ġmon": 1098,
      "Ġright": 1099,
      "Ġstop": 1100,
      "Ġjumped": 1101,
      "Ġyellow": 1102,
      "Ġbehind": 1103,
      "ose": 1104,
      "Ġhear": 1105,
      "Ġrunning": 1106,
      "ĠCan": 1107,
      "Ġcont": 1108,
      "Ġreplied": 1109,
      "Can": 1110,
      "Ġcake": 1111,
      "Ġmum": 1112,
      "imes": 1113,
      "Ġcarefully": 1114,
      "Ġtast": 1115,
      "Ġshowed": 1116,
      "Ġfix": 1117,
      "Ġleaves": 1118,
      "Ġam": 1119,
      "Ġsig": 1120,
      "Ġbre": 1121,
      "Ġonly": 1122,
      "Ġforg": 1123,
      "Ġfell": 1124,
      "Ġsomeone": 1125,
      "Ġprin": 1126,
      "Ġthank": 1127,
      "Ġkids": 1128,
      "'re": 1129,
      "itc": 1130,
      "Ġless": 1131,
      "ĠThat": 1132,
      "Ġhaving": 1133,
      "nts": 1134,
      "room": 1135,
      "Hell": 1136,
      "Ġz": 1137,
      "ons": 1138,
      "Ġhelped": 1139,
      "Ġdream": 1140,
      "Ġunderst": 1141,
      "Ġblocks": 1142,
      "Hello": 1143,
      "Wow": 1144,
      "eddy": 1145,
      "Ġfull": 1146,
      "Ġlight": 1147,
      "Ġmess": 1148,
      "ries": 1149,
      "Ġreached": 1150,
      "ĠJane": 1151,
      "Ġlearn": 1152,
      "Ġteac": 1153,
      "John": 1154,
      "Ġbutterf": 1155,
      "Don": 1156,
      "Ġhat": 1157,
      "Ġhigh": 1158,
      "Ġpre": 1159,
      "Ġper": 1160,
      "Ġthing": 1161,
      "Ġsmiles": 1162,
      "Ġwrong": 1163,
      "Ġdeep": 1164,
      "Ġfilled": 1165,
      "After": 1166,
      "Ġwished": 1167,
      "ined": 1168,
      "Ġdr": 1169,
      "Ġri": 1170,
      "ĠIn": 1171,
      "Ġsmell": 1172,
      "ards": 1173,
      "ĠDo": 1174,
      "Ġgrand": 1175,
      "Ġmove": 1176,
      "Ġlaugh": 1177,
      "Ġflower": 1178,
      "Ġwonderful": 1179,
      "ĠNow": 1180,
      "Ġteacher": 1181,
      "Jack": 1182,
      "ued": 1183,
      "Ġhor": 1184,
      "Ġste": 1185,
      "Ġstore": 1186,
      "Ġsho": 1187,
      "Ġreally": 1188,
      "Ġju": 1189,
      "Ġrealized": 1190,
      "Ġmagical": 1191,
      "hy": 1192,
      "Ġve": 1193,
      "Ġfight": 1194,
      "Ġwear": 1195,
      "Ġread": 1196,
      "Ġworry": 1197,
      "Ġused": 1198,
      "Ġbigger": 1199,
      "zy": 1200,
      "ĠR": 1201,
      "reed": 1202,
      "Ġcook": 1203,
      "Ġdin": 1204,
      "Ġdraw": 1205,
      "Ġpart": 1206,
      "ĠThere": 1207,
      "Ġel": 1208,
      "Ġcatch": 1209,
      "Ġcoming": 1210,
      "Ġsurprised": 1211,
      "Ġtrees": 1212,
      "Ġdelic": 1213,
      "Ġyears": 1214,
      "Ġtall": 1215,
      "Ġtra": 1216,
      "Ġair": 1217,
      "Ġhid": 1218,
      "Ġfro": 1219,
      "Ġpare": 1220,
      "oring": 1221,
      "Ġsoft": 1222,
      "Ġplan": 1223,
      "Ġrest": 1224,
      "Ġbirds": 1225,
      "Ġhold": 1226,
      "anger": 1227,
      "Ġremembered": 1228,
      "Ġbutterfly": 1229,
      "Ġparents": 1230,
      "cret": 1231,
      "Ġable": 1232,
      "Ġtop": 1233,
      "Ġdro": 1234,
      "Ġmight": 1235,
      "Ġkite": 1236,
      "Ġsecret": 1237,
      "ĠAfter": 1238,
      "Ġtail": 1239,
      "Ġstory": 1240,
      "Ġbroken": 1241,
      "Ġlesson": 1242,
      "Ġsu": 1243,
      "Ġbag": 1244,
      "Ġcried": 1245,
      "Ġcool": 1246,
      "Ġgone": 1247,
      "ens": 1248,
      "pping": 1249,
      "Then": 1250,
      "Ġfriendly": 1251,
      "Ġseem": 1252,
      "Ġstrange": 1253,
      "Ġperf": 1254,
      "Ġtouch": 1255,
      "Ġcreat": 1256,
      "Ġdone": 1257,
      "Ġmakes": 1258,
      "Ġplease": 1259,
      "ated": 1260,
      "Ġsail": 1261,
      "Ġyes": 1262,
      "Ġhappily": 1263,
      "Ġtable": 1264,
      "Ġanything": 1265,
      "Ġfinally": 1266,
      "\".": 1267,
      "Tim": 1268,
      "Ġsat": 1269,
      "Ġwants": 1270,
      "Ġhimself": 1271,
      "Ġworked": 1272,
      "Ġeverything": 1273,
      "Ġfire": 1274,
      "Ġamazing": 1275,
      "Ġcontin": 1276,
      "Ġbreak": 1277,
      "Ġelse": 1278,
      "ds": 1279,
      "gs": 1280,
      "ps": 1281,
      "Ġarm": 1282,
      "Ġwood": 1283,
      "Ġhill": 1284,
      "Ġwall": 1285,
      "Ġmet": 1286,
      "Ġhair": 1287,
      "irt": 1288,
      "Ġvis": 1289,
      "Ġturn": 1290,
      "Ġmaking": 1291,
      "Ġenjoyed": 1292,
      "Ġarri": 1293,
      "Ġcontinued": 1294,
      "Ġsong": 1295,
      "oup": 1296,
      "Ġcount": 1297,
      "Ġmar": 1298,
      "Ġpet": 1299,
      "ater": 1300,
      "ance": 1301,
      "ames": 1302,
      "Ġsear": 1303,
      "Ġanother": 1304,
      "Ġblank": 1305,
      "Ġpond": 1306,
      "Ġcray": 1307,
      "Ġamazed": 1308,
      "Ġown": 1309,
      "Ġfollowed": 1310,
      "From": 1311,
      "Maybe": 1312,
      "ul": 1313,
      "Ġbuck": 1314,
      "Ġhun": 1315,
      "Ġcut": 1316,
      "ĠSp": 1317,
      "ows": 1318,
      "Ġwhite": 1319,
      "Ġlost": 1320,
      "Ġclose": 1321,
      "Ġfair": 1322,
      "Ġmost": 1323,
      "ĠGra": 1324,
      "Ġfarm": 1325,
      "Ġpictures": 1326,
      "Ġtalk": 1327,
      "Ġslowly": 1328,
      "Ġjuice": 1329,
      "Ġblanket": 1330,
      "air": 1331,
      "ol": 1332,
      "ually": 1333,
      "Ġtight": 1334,
      "Ġbat": 1335,
      "Ġmat": 1336,
      "Ġherself": 1337,
      "Ġbee": 1338,
      "Ġspl": 1339,
      "ĠJen": 1340,
      "ĠJill": 1341,
      "Ġroll": 1342,
      "Ġagreed": 1343,
      "Ġswim": 1344,
      "Ġcomp": 1345,
      "Ġmonster": 1346,
      "Timmy": 1347,
      "ins": 1348,
      "ĠTo": 1349,
      "ĠBenny": 1350,
      "Ġjoy": 1351,
      "Ġfunny": 1352,
      "ĠTommy": 1353,
      "This": 1354,
      "Ġclimbed": 1355,
      "Ġcolors": 1356,
      "Ġfloor": 1357,
      "Ġunderstand": 1358,
      "Ġarrived": 1359,
      "OK": 1360,
      "pe": 1361,
      "uff": 1362,
      "Ġland": 1363,
      "Ġcand": 1364,
      "Ġheld": 1365,
      "Ġmine": 1366,
      "Ġlion": 1367,
      "Ġkitc": 1368,
      "rag": 1369,
      "Ġcla": 1370,
      "ĠWhat": 1371,
      "Ġblack": 1372,
      "Ġhorse": 1373,
      "Ġstepped": 1374,
      "Ġdelicious": 1375,
      "Ġkitchen": 1376,
      "Ġwon": 1377,
      "ĠAll": 1378,
      "Ġspot": 1379,
      "Ġspoon": 1380,
      "ask": 1381,
      "Ġfaster": 1382,
      "Ġstayed": 1383,
      "Ġpulled": 1384,
      "Ġmorning": 1385,
      "'ll": 1386,
      "At": 1387,
      "Oh": 1388,
      "der": 1389,
      "Ġtri": 1390,
      "Ġduck": 1391,
      "Ġpap": 1392,
      "Ġgent": 1393,
      "Ġbrought": 1394,
      "ĠEm": 1395,
      "Ġgetting": 1396,
      "Ġenough": 1397,
      "Ġlonger": 1398,
      "Ġthinks": 1399,
      "Ġshoes": 1400,
      "Ġdinner": 1401,
      "Ġperfect": 1402,
      "Ġvisit": 1403,
      "ĠSpot": 1404,
      "Sam": 1405,
      "me": 1406,
      "ment": 1407,
      "row": 1408,
      "Ġset": 1409,
      "Ġfree": 1410,
      "Ġlon": 1411,
      "Ġpink": 1412,
      "ister": 1413,
      "anch": 1414,
      "ott": 1415,
      "Ġrace": 1416,
      "ĠMaybe": 1417,
      "asure": 1418,
      "Ġbranch": 1419,
      "Ġalone": 1420,
      "Ġhopped": 1421,
      "Ġbuy": 1422,
      "Ġbooks": 1423,
      "Ġlistened": 1424,
      "Ġbucket": 1425,
      "bor": 1426,
      "bble": 1427,
      "eared": 1428,
      "lc": 1429,
      "sp": 1430,
      "Ġwet": 1431,
      "Ġbus": 1432,
      "Ġfall": 1433,
      "Ġpus": 1434,
      "Ġsand": 1435,
      "Ġmoment": 1436,
      "Ġcloud": 1437,
      "Ġsometimes": 1438,
      "ventually": 1439,
      "Ġneeded": 1440,
      "Ġfinished": 1441,
      "Ġpaint": 1442,
      "Ġsign": 1443,
      "Ġforgot": 1444,
      "His": 1445,
      "iet": 1446,
      "Ġside": 1447,
      "Ġsister": 1448,
      "inally": 1449,
      "Ġhide": 1450,
      "Ġdanc": 1451,
      "Ġsame": 1452,
      "ower": 1453,
      "Ġshap": 1454,
      "Ġpoin": 1455,
      "Ġquiet": 1456,
      "Ġstories": 1457,
      "Ġasks": 1458,
      "ĠThis": 1459,
      "Ġbaby": 1460,
      "Ġlonely": 1461,
      "aw": 1462,
      "ire": 1463,
      "light": 1464,
      "Ġsch": 1465,
      "Ġmother": 1466,
      "Ġprom": 1467,
      "ises": 1468,
      "Ġnap": 1469,
      "Ġnaught": 1470,
      "ĠBe": 1471,
      "unch": 1472,
      "Ġspark": 1473,
      "urse": 1474,
      "icy": 1475,
      "Ġfew": 1476,
      "Ġscary": 1477,
      "ross": 1478,
      "Ġadventures": 1479,
      "Ġgrow": 1480,
      "Ġflying": 1481,
      "Ġtowards": 1482,
      "ĠDaddy": 1483,
      "Ġparty": 1484,
      "Ġschool": 1485,
      "av": 1486,
      "ever": 1487,
      "gle": 1488,
      "ike": 1489,
      "Ġteddy": 1490,
      "Ġsilly": 1491,
      "Ġfig": 1492,
      "Ġcraw": 1493,
      "Ġdanger": 1494,
      "Ġkitt": 1495,
      "ope": 1496,
      "Ġchick": 1497,
      "Ġeverywhere": 1498,
      "Ġpro": 1499,
      "Ġfeels": 1500,
      "ours": 1501,
      "Ġruns": 1502,
      "Ġdolls": 1503,
      "Ġtrying": 1504,
      "Ġbath": 1505,
      "Hi": 1506,
      "Lucy": 1507,
      "bo": 1508,
      "cess": 1509,
      "ph": 1510,
      "Ġbar": 1511,
      "rel": 1512,
      "Ġwaited": 1513,
      "Ġfur": 1514,
      "Ġflash": 1515,
      "Ġswing": 1516,
      "Ġexploring": 1517,
      "Ġfox": 1518,
      "Ġsnack": 1519,
      "Ġfrog": 1520,
      "Ġhungry": 1521,
      "Molly": 1522,
      "ey": 1523,
      "yard": 1524,
      "Ġsit": 1525,
      "Ġbott": 1526,
      "Ġpass": 1527,
      "othes": 1528,
      "Ġplant": 1529,
      "Ġsmo": 1530,
      "Ġdoing": 1531,
      "Ġatt": 1532,
      "ained": 1533,
      "umb": 1534,
      "Ġclothes": 1535,
      "Ġturned": 1536,
      "Ġhoped": 1537,
      "Ġseemed": 1538,
      "Ġpaper": 1539,
      "Ġnaughty": 1540,
      "Lila": 1541,
      "ix": 1542,
      "oom": 1543,
      "Ġsuch": 1544,
      "Ġcast": 1545,
      "Ġcush": 1546,
      "Ġdes": 1547,
      "Ġwasn": 1548,
      "Ġgem": 1549,
      "idge": 1550,
      "ation": 1551,
      "orm": 1552,
      "Ġwelc": 1553,
      "Ġneigh": 1554,
      "Ġtakes": 1555,
      "Ġclosed": 1556,
      "Ġbuild": 1557,
      "ctor": 1558,
      "Ġcushion": 1559,
      "Sure": 1560,
      "lf": 1561,
      "uit": 1562,
      "Ġbun": 1563,
      "Ġhot": 1564,
      "rew": 1565,
      "Ġcaught": 1566,
      "aring": 1567,
      "ored": 1568,
      "leph": 1569,
      "Ġyoung": 1570,
      "Ġsmart": 1571,
      "Ġbackyard": 1572,
      "Ġmeet": 1573,
      "Ġorange": 1574,
      "Ġcheered": 1575,
      "Ġcrying": 1576,
      "Ġdisco": 1577,
      "uffy": 1578,
      "Ġclapped": 1579,
      "Ġpromised": 1580,
      "Ġfigure": 1581,
      "Ġkitty": 1582,
      "Ġflashlight": 1583,
      "Ġbunny": 1584,
      "As": 1585,
      "ee": 1586,
      "ho": 1587,
      "ich": 1588,
      "set": 1589,
      "Ġdrag": 1590,
      "Ġpers": 1591,
      "ĠSally": 1592,
      "Ġsack": 1593,
      "Ġthrew": 1594,
      "Ġem": 1595,
      "Ġstu": 1596,
      "oney": 1597,
      "Ġbrown": 1598,
      "Ġothers": 1599,
      "ieved": 1600,
      "Ġfold": 1601,
      "ateful": 1602,
      "ocked": 1603,
      "Ġbugs": 1604,
      "Ġcolorful": 1605,
      "Ġpath": 1606,
      "Ġdriver": 1607,
      "Ġcookies": 1608,
      "br": 1609,
      "bs": 1610,
      "per": 1611,
      "sent": 1612,
      "Ġtoday": 1613,
      "Ġwar": 1614,
      "Ġmout": 1615,
      "Ġpack": 1616,
      "Ġpurse": 1617,
      "Ġgu": 1618,
      "vered": 1619,
      "amp": 1620,
      "adow": 1621,
      "Ġshared": 1622,
      "Ġkiss": 1623,
      "ĠJimmy": 1624,
      "Ġleft": 1625,
      "Ġnoises": 1626,
      "Ġmus": 1627,
      "Ġfruit": 1628,
      "Ġgrateful": 1629,
      "Ġwindow": 1630,
      "Ġtower": 1631,
      "Ġmail": 1632,
      "Ġbelong": 1633,
      "Ġpenny": 1634,
      "Ġacross": 1635,
      "Ġjoin": 1636,
      "Ġpresent": 1637,
      "Ġcrayons": 1638,
      "Ġdangerous": 1639,
      "Ġmouth": 1640,
      "Do": 1641,
      "Why": 1642,
      "een": 1643,
      "ling": 1644,
      "Ġes": 1645,
      "Ġsoup": 1646,
      "Ġlake": 1647,
      "Ġcir": 1648,
      "Ġmin": 1649,
      "Ġhang": 1650,
      "Ġshr": 1651,
      "Ġje": 1652,
      "Ġjar": 1653,
      "Ġbring": 1654,
      "Ġhugs": 1655,
      "ieve": 1656,
      "Ġdaddy": 1657,
      "Ġpeace": 1658,
      "ĠFr": 1659,
      "Ġpol": 1660,
      "Ġcup": 1661,
      "Ġwondered": 1662,
      "Ġtreasure": 1663,
      "Ġwoods": 1664,
      "Ġcastle": 1665,
      "Ġcirc": 1666,
      "Okay": 1667,
      "ipped": 1668,
      "ze": 1669,
      "Ġben": 1670,
      "Ġbush": 1671,
      "Ġheav": 1672,
      "Ġride": 1673,
      "Ġstre": 1674,
      "Ġstars": 1675,
      "Ġfork": 1676,
      "Ġliving": 1677,
      "Ġhappen": 1678,
      "Ġspe": 1679,
      "Ġlock": 1680,
      "Ġleave": 1681,
      "ased": 1682,
      "Ġworried": 1683,
      "epend": 1684,
      "Ġtaking": 1685,
      "Ġknee": 1686,
      "Ġsnow": 1687,
      "Ġpatient": 1688,
      "Ġdrink": 1689,
      "Ġgrandma": 1690,
      "Ġturns": 1691,
      "Ġshapes": 1692,
      "Ġwelcome": 1693,
      "Mummy": 1694,
      "ek": 1695,
      "fort": 1696,
      "ier": 1697,
      "ney": 1698,
      "sw": 1699,
      "sed": 1700,
      "Ġsuddenly": 1701,
      "Ġwin": 1702,
      "Ġbite": 1703,
      "ining": 1704,
      "iting": 1705,
      "Ġlunch": 1706,
      "Ġmiss": 1707,
      "Ġpi": 1708,
      "Ġpra": 1709,
      "ats": 1710,
      "irrel": 1711,
      "Ġinst": 1712,
      "Ġeleph": 1713,
      "Ġsea": 1714,
      "Ġansw": 1715,
      "Ġmust": 1716,
      "Ġcomes": 1717,
      "Ġtrucks": 1718,
      "Ġimag": 1719,
      "Ġsquirrel": 1720,
      "ĠThank": 1721,
      "Ġrelieved": 1722,
      "Ġgives": 1723,
      "Ġprincess": 1724,
      "Ġdrove": 1725,
      "Ġsearch": 1726,
      "Ġelephant": 1727,
      "oun": 1728,
      "Ġletter": 1729,
      "Ġcour": 1730,
      "Ġcream": 1731,
      "Ġdir": 1732,
      "Ġheart": 1733,
      "ĠTV": 1734,
      "ilk": 1735,
      "ider": 1736,
      "less": 1737,
      "eter": 1738,
      "ots": 1739,
      "cket": 1740,
      "Ġplac": 1741,
      "ĠBilly": 1742,
      "Ġshop": 1743,
      "ugg": 1744,
      "Ġgoes": 1745,
      "Ġsmiling": 1746,
      "aser": 1747,
      "Ġwords": 1748,
      "ssed": 1749,
      "Ġpocket": 1750,
      "Ġexplained": 1751,
      "Ġwoke": 1752,
      "ize": 1753,
      "ĠCome": 1754,
      "Ġwrite": 1755,
      "Ġmoral": 1756,
      "Ġriver": 1757,
      "ĠInside": 1758,
      "Ġarms": 1759,
      "Ġclouds": 1760,
      "Ġcourse": 1761,
      "Ġdirty": 1762,
      "ail": 1763,
      "de": 1764,
      "ove": 1765,
      "sy": 1766,
      "Ġtreat": 1767,
      "Ġfing": 1768,
      "Ġluck": 1769,
      "Ġcra": 1770,
      "Ġcomet": 1771,
      "Ġcave": 1772,
      "Ġdi": 1773,
      "Ġdry": 1774,
      "Ġmix": 1775,
      "Ġmilk": 1776,
      "llo": 1777,
      "irr": 1778,
      "Ġyard": 1779,
      "Ġrid": 1780,
      "Ġbeach": 1781,
      "key": 1782,
      "cept": 1783,
      "Ġwithout": 1784,
      "Ġgoat": 1785,
      "fused": 1786,
      "Ġjob": 1787,
      "Ġhelping": 1788,
      "Ġcoll": 1789,
      "ĠElly": 1790,
      "Ġtwins": 1791,
      "ĠAndy": 1792,
      "Ġbelieve": 1793,
      "Ġcandy": 1794,
      "Ġgentle": 1795,
      "Ġsmooth": 1796,
      "Ġdragon": 1797,
      "Ġperson": 1798,
      "Ġmusic": 1799,
      "Ġbench": 1800,
      "Ġheavy": 1801,
      "And": 1802,
      "Mia": 1803,
      "app": 1804,
      "mor": 1805,
      "port": 1806,
      "tur": 1807,
      "Ġer": 1808,
      "Ġwag": 1809,
      "Ġcor": 1810,
      "Ġgather": 1811,
      "ĠSome": 1812,
      "imp": 1813,
      "Ġwell": 1814,
      "Ġupset": 1815,
      "Ġforget": 1816,
      "itting": 1817,
      "Ġdoctor": 1818,
      "Ġretur": 1819,
      "Ġloves": 1820,
      "ĠFl": 1821,
      "Ġsunsh": 1822,
      "Ġeating": 1823,
      "Ġblueber": 1824,
      "Ġdisapp": 1825,
      "thday": 1826,
      "Ġcreature": 1827,
      "ĠGrand": 1828,
      "Ġsplash": 1829,
      "ĠEmma": 1830,
      "Ġsunshine": 1831,
      "Jimmy": 1832,
      "Of": 1833,
      "ale": 1834,
      "to": 1835,
      "Ġsitting": 1836,
      "Ġwra": 1837,
      "Ġhours": 1838,
      "Ġce": 1839,
      "Ġdance": 1840,
      "Ġhears": 1841,
      "Ġmill": 1842,
      "Ġmark": 1843,
      "lla": 1844,
      "Ġear": 1845,
      "Ġeventually": 1846,
      "Ġones": 1847,
      "unk": 1848,
      "Ġshook": 1849,
      "Ġwhich": 1850,
      "Ġresp": 1851,
      "Ġmeadow": 1852,
      "Ġalong": 1853,
      "ĠLe": 1854,
      "Ġputs": 1855,
      "Ġmyster": 1856,
      "ield": 1857,
      "Ġpebble": 1858,
      "Ġmoved": 1859,
      "ape": 1860,
      "Ġcrack": 1861,
      "Hey": 1862,
      "Ġbroke": 1863,
      "Ġtasted": 1864,
      "Ġfarmer": 1865,
      "Ġrolled": 1866,
      "Ġneighbor": 1867,
      "Ġeraser": 1868,
      "Finally": 1869,
      "ming": 1870,
      "Ġ3": 1871,
      "Ġadd": 1872,
      "Ġbreat": 1873,
      "Ġboun": 1874,
      "Ġhar": 1875,
      "Ġhello": 1876,
      "Ġmad": 1877,
      "Ġrope": 1878,
      "Ġbell": 1879,
      "Ġstone": 1880,
      "Ġonto": 1881,
      "Ġplane": 1882,
      "Ġshirt": 1883,
      "Ġkick": 1884,
      "ĠMary": 1885,
      "eces": 1886,
      "illage": 1887,
      "ometimes": 1888,
      "Ġbirthday": 1889,
      "Ġexciting": 1890,
      "ĠLittle": 1891,
      "Ġvillage": 1892,
      "Ġlaughing": 1893,
      "Ġqueen": 1894,
      "Ġfoot": 1895,
      "Ġfridge": 1896,
      "Ġwatching": 1897,
      "thy": 1898,
      "Ġyear": 1899,
      "Ġrocks": 1900,
      "Ġsinging": 1901,
      "Ġholding": 1902,
      "Ġdropped": 1903,
      "Ġmatch": 1904,
      "Ġpushed": 1905,
      "Ġpieces": 1906,
      "'d": 1907,
      "Every": 1908,
      "cape": 1909,
      "dle": 1910,
      "ead": 1911,
      "oc": 1912,
      "pill": 1913,
      "Ġwander": 1914,
      "erpill": 1915,
      "Ġph": 1916,
      "Ġpower": 1917,
      "ence": 1918,
      "Ġthin": 1919,
      "Ġstuck": 1920,
      "Ġstand": 1921,
      "Ġlife": 1922,
      "ents": 1923,
      "Ġnothing": 1924,
      "Ġbutt": 1925,
      "ĠAl": 1926,
      "Ġspider": 1927,
      "urch": 1928,
      "Ġnose": 1929,
      "Ġcho": 1930,
      "Ġcarr": 1931,
      "blem": 1932,
      "Ġgrab": 1933,
      "Ġkey": 1934,
      "Ġswings": 1935,
      "Ġtwist": 1936,
      "Ġcaterpill": 1937,
      "Ġtea": 1938,
      "ÅĵI": 1939,
      "Ġchest": 1940,
      "Ġstronger": 1941,
      "Ġowl": 1942,
      "Ġapple": 1943,
      "Ġappeared": 1944,
      "Ġhope": 1945,
      "Ġsleepy": 1946,
      "Ġsounds": 1947,
      "Ġacc": 1948,
      "Ġcaterpillar": 1949,
      "Max": 1950,
      "cream": 1951,
      "ground": 1952,
      "og": 1953,
      "up": 1954,
      "Ġtiny": 1955,
      "Ġwild": 1956,
      "Ġhig": 1957,
      "Ġfit": 1958,
      "Ġfield": 1959,
      "Ġcard": 1960,
      "ery": 1961,
      "Ġheal": 1962,
      "Ġmummy": 1963,
      "Ġmoney": 1964,
      "Ġmirr": 1965,
      "Ġpill": 1966,
      "Ġpudd": 1967,
      "arage": 1968,
      "Ġgig": 1969,
      "Ġgarage": 1970,
      "ĠSoon": 1971,
      "ĠSometimes": 1972,
      "Ġsaf": 1973,
      "Ġob": 1974,
      "lebr": 1975,
      "Ġsol": 1976,
      "ama": 1977,
      "Ġloops": 1978,
      "ĠAmy": 1979,
      "Ġspr": 1980,
      "Ġlem": 1981,
      "Ġseek": 1982,
      "Ġchain": 1983,
      "Ġchurch": 1984,
      "Ġcozy": 1985,
      "Ġvi": 1986,
      "Tommy": 1987,
      "Ġdelight": 1988,
      "Ġpretended": 1989,
      "Ġmarble": 1990,
      "Ġcute": 1991,
      "ĠGrace": 1992,
      "ĠTogether": 1993,
      "Ġproblem": 1994,
      "Ġstreet": 1995,
      "Ġspeed": 1996,
      "Ġpract": 1997,
      "Ġcelebr": 1998,
      "Ġmirror": 1999,
      "Come": 2000,
      "Dad": 2001,
      "My": 2002,
      "rs": 2003,
      "Ġaf": 2004,
      "Ġwings": 2005,
      "Ġbone": 2006,
      "Ġbike": 2007,
      "Ġhi": 2008,
      "Ġhit": 2009,
      "itch": 2010,
      "Ġlate": 2011,
      "Ġlater": 2012,
      "Ġmot": 2013,
      "Ġmind": 2014,
      "Ġpir": 2015,
      "Ġpurp": 2016,
      "ont": 2017,
      "Ġnet": 2018,
      "Ġthough": 2019,
      "Ġeg": 2020,
      "oof": 2021,
      "sting": 2022,
      "Ġshining": 2023,
      "Ġspin": 2024,
      "Ġspent": 2025,
      "Ġblow": 2026,
      "Ġcoin": 2027,
      "Ġwhole": 2028,
      "Ġtape": 2029,
      "Ġsunny": 2030,
      "Ġadm": 2031,
      "Ġchew": 2032,
      "Ġfront": 2033,
      "Ġclever": 2034,
      "Ġpainter": 2035,
      "Ġsquash": 2036,
      "Ġrelax": 2037,
      "Ġsongs": 2038,
      "Ġfairy": 2039,
      "Ġtrip": 2040,
      "Ġminut": 2041,
      "fortable": 2042,
      "Ġplaces": 2043,
      "Ġcollect": 2044,
      "Ġrespect": 2045,
      "Ġhigher": 2046,
      "Ġpurple": 2047,
      "Good": 2048,
      "Later": 2049,
      "hile": 2050,
      "ward": 2051,
      "zz": 2052,
      "Ġtid": 2053,
      "Ġav": 2054,
      "Ġwitch": 2055,
      "Ġfu": 2056,
      "Ġcal": 2057,
      "Ġdist": 2058,
      "Ġpour": 2059,
      "Ġgho": 2060,
      "ident": 2061,
      "ĠTheir": 2062,
      "anny": 2063,
      "ese": 2064,
      "Ġinv": 2065,
      "Ġeas": 2066,
      "Ġplayground": 2067,
      "els": 2068,
      "Ġlift": 2069,
      "ungle": 2070,
      "Ġshy": 2071,
      "Ġwhis": 2072,
      "Ġneck": 2073,
      "Ġreach": 2074,
      "ĠMummy": 2075,
      "Ġasleep": 2076,
      "Ġjungle": 2077,
      "Ġfeet": 2078,
      "Ġhelpful": 2079,
      "Ġfac": 2080,
      "ĠWith": 2081,
      "Ġscre": 2082,
      "Ġtrou": 2083,
      "Ġskip": 2084,
      "Ġmod": 2085,
      "aul": 2086,
      "Ġshowing": 2087,
      "Ġglow": 2088,
      "Ġremind": 2089,
      "Ġthrow": 2090,
      "Ġbald": 2091,
      "Ġsearched": 2092,
      "Ġspotted": 2093,
      "Ġbusy": 2094,
      "Ġsandw": 2095,
      "Ġchickens": 2096,
      "Ġdesk": 2097,
      "Ġinstead": 2098,
      "Ġlucky": 2099,
      "Ġgathered": 2100,
      "Ġlemon": 2101,
      "Ġviol": 2102,
      "Ġtidy": 2103,
      "Ġghost": 2104,
      "Be": 2105,
      "ab": 2106,
      "bar": 2107,
      "cient": 2108,
      "ere": 2109,
      "har": 2110,
      "mer": 2111,
      "zor": 2112,
      "Ġsour": 2113,
      "Ġwore": 2114,
      "Ġwish": 2115,
      "Ġblew": 2116,
      "Ġbask": 2117,
      "Ġtouc": 2118,
      "ity": 2119,
      "Ġline": 2120,
      "Ġcou": 2121,
      "ert": 2122,
      "Ġmed": 2123,
      "Ġpie": 2124,
      "Ġwash": 2125,
      "ones": 2126,
      "Ġgum": 2127,
      "Ġgas": 2128,
      "Ġgames": 2129,
      "anut": 2130,
      "ord": 2131,
      "ĠHow": 2132,
      "Ġround": 2133,
      "une": 2134,
      "Ġrepe": 2135,
      "Ġang": 2136,
      "Ġancient": 2137,
      "raid": 2138,
      "urry": 2139,
      "ĠJake": 2140,
      "Ġnods": 2141,
      "Ġstarts": 2142,
      "Ġrob": 2143,
      "Ġhuge": 2144,
      "Ġhopping": 2145,
      "Ġintere": 2146,
      "iable": 2147,
      "Ġpeanut": 2148,
      "Ġskin": 2149,
      "Ġcheese": 2150,
      "Ġrazor": 2151,
      "ĠGo": 2152,
      "Ġcrown": 2153,
      "Ġlovely": 2154,
      "Ġtown": 2155,
      "Ġowner": 2156,
      "Ġconfused": 2157,
      "Ġsticks": 2158,
      "ountain": 2159,
      "Ġreliable": 2160,
      "Ġbowl": 2161,
      "Ġgiant": 2162,
      "Ġtaste": 2163,
      "Ġsmelly": 2164,
      "Ġmighty": 2165,
      "ular": 2166,
      "airs": 2167,
      "Ġducks": 2168,
      "Ġpointed": 2169,
      "Ġembar": 2170,
      "Ġstudy": 2171,
      "Ġshrimp": 2172,
      "ĠFrank": 2173,
      "Ġanswer": 2174,
      "Ġreturned": 2175,
      "Ġmarket": 2176,
      "ĠLeo": 2177,
      "Ġmysterious": 2178,
      "Ġafraid": 2179,
      "Ġcalm": 2180,
      "Ġviolin": 2181,
      "Ġbasket": 2182,
      "Ġembarra": 2183,
      "Bob": 2184,
      "St": 2185,
      "iver": 2186,
      "nam": 2187,
      "ness": 2188,
      "pa": 2189,
      "ped": 2190,
      "rated": 2191,
      "uce": 2192,
      "ye": 2193,
      "ĠK": 2194,
      "Ġent": 2195,
      "Ġser": 2196,
      "Ġsick": 2197,
      "Ġwip": 2198,
      "Ġlit": 2199,
      "Ġlad": 2200,
      "Ġpil": 2201,
      "Ġpig": 2202,
      "Ġpool": 2203,
      "eth": 2204,
      "Ġinc": 2205,
      "Ġring": 2206,
      "Ġrac": 2207,
      "Ġstood": 2208,
      "Ġdays": 2209,
      "Ġshore": 2210,
      "Ġseed": 2211,
      "Ġknocked": 2212,
      "asing": 2213,
      "Ġwouldn": 2214,
      "ager": 2215,
      "Ġexcite": 2216,
      "Ġmule": 2217,
      "Ġval": 2218,
      "Ġgets": 2219,
      "Ġtrust": 2220,
      "Ġbecome": 2221,
      "Ġstring": 2222,
      "Ġanyone": 2223,
      "Ġslid": 2224,
      "Ġornam": 2225,
      "ions": 2226,
      "Ġteach": 2227,
      "Ġteeth": 2228,
      "Ġcheer": 2229,
      "Ġfrown": 2230,
      "Ġcrane": 2231,
      "Ġstorm": 2232,
      "Ġdead": 2233,
      "Ġrude": 2234,
      "ĠPolly": 2235,
      "Ġtells": 2236,
      "Ġrainb": 2237,
      "Ġdrive": 2238,
      "Ġmonkey": 2239,
      "Ġforgive": 2240,
      "Ġfighting": 2241,
      "Ġmetal": 2242,
      "Ġmatter": 2243,
      "Ġdanced": 2244,
      "Ġsparkly": 2245,
      "Ġchicken": 2246,
      "Ġfurry": 2247,
      "Ġbottle": 2248,
      "Ġescape": 2249,
      "Ġpeaceful": 2250,
      "ĠFluffy": 2251,
      "Ġdisappeared": 2252,
      "Ġaccident": 2253,
      "Ġmotor": 2254,
      "Ġpirate": 2255,
      "Ġfuel": 2256,
      "Ġtouched": 2257,
      "Ġpiece": 2258,
      "Ġladder": 2259,
      "Ġexcitement": 2260,
      "Ġornaments": 2261,
      "In": 2262,
      "Me": 2263,
      "Sue": 2264,
      "Sorry": 2265,
      "la": 2266,
      "man": 2267,
      "not": 2268,
      "weet": 2269,
      "Ġig": 2270,
      "Ġtaught": 2271,
      "Ġsur": 2272,
      "Ġwhe": 2273,
      "Ġwide": 2274,
      "edient": 2275,
      "Ġboring": 2276,
      "read": 2277,
      "cked": 2278,
      "Ġeager": 2279,
      "Ġyach": 2280,
      "Ġbeet": 2281,
      "Ġstar": 2282,
      "Ġstir": 2283,
      "Ġstret": 2284,
      "Ġnote": 2285,
      "Ġspo": 2286,
      "Ġjet": 2287,
      "Ġjour": 2288,
      "ured": 2289,
      "icine": 2290,
      "Ġcannot": 2291,
      "Ġfeather": 2292,
      "Ġbrush": 2293,
      "Ġroad": 2294,
      "getable": 2295,
      "Ġcarry": 2296,
      "Ġcovered": 2297,
      "ushed": 2298,
      "ĠEverywhere": 2299,
      "ĠGary": 2300,
      "Ġwaiting": 2301,
      "Ġgrew": 2302,
      "Ġnearby": 2303,
      "Ġveil": 2304,
      "Ġvegetable": 2305,
      "Ġwearing": 2306,
      "Ġcrayon": 2307,
      "ult": 2308,
      "Ġswimming": 2309,
      "Ġsnacks": 2310,
      "Ġbelonged": 2311,
      "Ġwagon": 2312,
      "Ġcorner": 2313,
      "ĠGrandma": 2314,
      "Ġscreamed": 2315,
      "Ġmedicine": 2316,
      "Ġangel": 2317,
      "Ġrobot": 2318,
      "Ġinteresting": 2319,
      "Ġembarrassed": 2320,
      "Ġyacht": 2321,
      "Ġjourney": 2322,
      "Ġvegetables": 2323,
      "Now": 2324,
      "Sally": 2325,
      "Where": 2326,
      "cy": 2327,
      "cil": 2328,
      "cage": 2329,
      "gu": 2330,
      "gy": 2331,
      "nic": 2332,
      "ual": 2333,
      "Ġtun": 2334,
      "Ġtick": 2335,
      "Ġtie": 2336,
      "Ġturt": 2337,
      "Ġap": 2338,
      "Ġact": 2339,
      "Ġself": 2340,
      "Ġwom": 2341,
      "Ġwise": 2342,
      "Ġthese": 2343,
      "Ġbought": 2344,
      "Ġbored": 2345,
      "Ġcher": 2346,
      "Ġcries": 2347,
      "erv": 2348,
      "erry": 2349,
      "Ġpin": 2350,
      "Ġpar": 2351,
      "Ġpast": 2352,
      "arp": 2353,
      "Ġgif": 2354,
      "let": 2355,
      "ote": 2356,
      "Ġroof": 2357,
      "Ġweather": 2358,
      "Ġlive": 2359,
      "Ġsharp": 2360,
      "Ġspread": 2361,
      "Ġlog": 2362,
      "ĠJames": 2363,
      "?\".": 2364,
      "Ġlegs": 2365,
      "Ġrose": 2366,
      "Ġflut": 2367,
      "Ġbirdcage": 2368,
      "Ġvest": 2369,
      "Ġvine": 2370,
      "ustrated": 2371,
      "Ġstranger": 2372,
      "andy": 2373,
      "Ġmoving": 2374,
      "ĠFinally": 2375,
      "Ġpole": 2376,
      "Ġsmaller": 2377,
      "Ġeng": 2378,
      "Ġtears": 2379,
      "Ġpicks": 2380,
      "Ġcomfortable": 2381,
      "Ġbubble": 2382,
      "Ġgroup": 2383,
      "Ġbedroom": 2384,
      "Ġcolour": 2385,
      "Ġhurts": 2386,
      "Ġwrote": 2387,
      "Ġfinish": 2388,
      "Ġpicnic": 2389,
      "Ġleaf": 2390,
      "Ġruined": 2391,
      "Ġpencil": 2392,
      "Ġsounded": 2393,
      "Ġbrightly": 2394,
      "Ġfixed": 2395,
      "Ġprince": 2396,
      "Ġthankful": 2397,
      "Ġunderstood": 2398,
      "ĠJenny": 2399,
      "Ġgently": 2400,
      "Ġfreez": 2401,
      "Ġdancing": 2402,
      "Ġbottom": 2403,
      "ependable": 2404,
      "Ġfinger": 2405,
      "Ġdiary": 2406,
      "Ġbreath": 2407,
      "Ġharbor": 2408,
      "Ġstanding": 2409,
      "Ġfaces": 2410,
      "Stop": 2411,
      "Ġrainbow": 2412,
      "Ġaccidentally": 2413,
      "Ġbeetle": 2414,
      "Ġturtle": 2415,
      "Ġselfish": 2416,
      "Ġwoman": 2417,
      "Hel": 2418,
      "aid": 2419,
      "aby": 2420,
      "ball": 2421,
      "bway": 2422,
      "gly": 2423,
      "hic": 2424,
      "ipping": 2425,
      "late": 2426,
      "old": 2427,
      "ĠO": 2428,
      "Ġsort": 2429,
      "Ġwis": 2430,
      "Ġband": 2431,
      "Ġtomor": 2432,
      "ination": 2433,
      "Ġhon": 2434,
      "Ġhook": 2435,
      "Ġfanc": 2436,
      "Ġcurt": 2437,
      "erous": 2438,
      "Ġdirt": 2439,
      "Ġpile": 2440,
      "Ġgen": 2441,
      "Ġnest": 2442,
      "Ġnerv": 2443,
      "Ġsang": 2444,
      "anic": 2445,
      "anged": 2446,
      "ors": 2447,
      "Ġthumb": 2448,
      "ird": 2449,
      "Ġur": 2450,
      "Ġstamp": 2451,
      "Ġstones": 2452,
      "keep": 2453,
      "ppo": 2454,
      "Ġweak": 2455,
      "Ġplayful": 2456,
      "itter": 2457,
      "Ġwhist": 2458,
      "alous": 2459,
      "Ġsell": 2460,
      "Ġspicy": 2461,
      "ĠJust": 2462,
      "icop": 2463,
      "Ġleop": 2464,
      "Ġleak": 2465,
      "Ġhelicop": 2466,
      "ache": 2467,
      "Ġmoon": 2468,
      "Ġsaying": 2469,
      "Ġglass": 2470,
      "Ġglove": 2471,
      "âĤ¬âĢ": 2472,
      "Ġfrustrated": 2473,
      "Ġmagn": 2474,
      "aughter": 2475,
      "Ġforever": 2476,
      "Ġballoons": 2477,
      "Ġtalked": 2478,
      "Ġpengu": 2479,
      "colate": 2480,
      "Ġvehic": 2481,
      "Ġcookie": 2482,
      "Ġtrain": 2483,
      "Ġhiding": 2484,
      "Ġsuitc": 2485,
      "Ġsubway": 2486,
      "Ġsailed": 2487,
      "Ġtightly": 2488,
      "Ġlanded": 2489,
      "Ġcrawl": 2490,
      "Ġcrawled": 2491,
      "Ġdiscover": 2492,
      "Ġjealous": 2493,
      "Ġshopkeep": 2494,
      "Ġchocolate": 2495,
      "Ġpuddle": 2496,
      "Ġhippo": 2497,
      "Help": 2498,
      "Ġtomorrow": 2499,
      "Ġfancy": 2500,
      "Ġcurtain": 2501,
      "Ġgenerous": 2502,
      "Ġnervous": 2503,
      "Ġleopard": 2504,
      "Ġhelicopter": 2505,
      "Ġshopkeeper": 2506,
      "Amy": 2507,
      "How": 2508,
      "Just": 2509,
      "Jane": 2510,
      "Please": 2511,
      "Soon": 2512,
      "To": 2513,
      "aur": 2514,
      "aking": 2515,
      "azy": 2516,
      "sel": 2517,
      "ti": 2518,
      "ten": 2519,
      "Ġ'": 2520,
      "ĠOn": 2521,
      "Ġind": 2522,
      "ĠNo": 2523,
      "Ġaw": 2524,
      "Ġbitter": 2525,
      "iness": 2526,
      "Ġlast": 2527,
      "Ġlazy": 2528,
      "era": 2529,
      "Ġdest": 2530,
      "Ġdaughter": 2531,
      "Ġmid": 2532,
      "Ġpot": 2533,
      "Ġpop": 2534,
      "ĠSn": 2535,
      "ĠSandy": 2536,
      "Ġrushed": 2537,
      "adi": 2538,
      "ention": 2539,
      "Ġtimes": 2540,
      "ĠAnn": 2541,
      "ĠJim": 2542,
      "Ġcloth": 2543,
      "Ġclass": 2544,
      "Ġnosy": 2545,
      "Ġfear": 2546,
      "ĠWhy": 2547,
      "Ġscar": 2548,
      "Ġscream": 2549,
      "Ġcarried": 2550,
      "Ġcoat": 2551,
      "ĠEven": 2552,
      "Ġwhenever": 2553,
      "Ġmud": 2554,
      "Ġmush": 2555,
      "Ġprot": 2556,
      "Ġvide": 2557,
      "Ġtrade": 2558,
      "Ġtrue": 2559,
      "Ġknowing": 2560,
      "inky": 2561,
      "Ġorgan": 2562,
      "Ġbears": 2563,
      "umpy": 2564,
      "Ġframe": 2565,
      "Ġjumping": 2566,
      "Ġtowel": 2567,
      "Sarah": 2568,
      "Ġenjoying": 2569,
      "Ġpuzz": 2570,
      "Ġarrow": 2571,
      "Ġstickers": 2572,
      "Ġaccept": 2573,
      "Ġtasty": 2574,
      "Ġsighed": 2575,
      "Ġmessy": 2576,
      "Ġrich": 2577,
      "Ġsplas": 2578,
      "Ġbathroom": 2579,
      "box": 2580,
      "board": 2581,
      "Ġpassport": 2582,
      "Ġattic": 2583,
      "umbled": 2584,
      "Ġfruits": 2585,
      "Ġcircles": 2586,
      "Ġblueberry": 2587,
      "Ġwrapped": 2588,
      "Ġminutes": 2589,
      "Ġtrouble": 2590,
      "Ġreminded": 2591,
      "Ġlemonade": 2592,
      "Ġpilot": 2593,
      "Ġtuna": 2594,
      "Ġfreezer": 2595,
      "achel": 2596,
      "Ġmagnet": 2597,
      "Ġsuitcase": 2598,
      "selves": 2599,
      "Ġmiddle": 2600,
      "Ġmushroom": 2601,
      "Fr": 2602,
      "Jill": 2603,
      "af": 2604,
      "eb": 2605,
      "fast": 2606,
      "hie": 2607,
      "iant": 2608,
      "land": 2609,
      "sc": 2610,
      "ub": 2611,
      "uss": 2612,
      "Ġsight": 2613,
      "ndry": 2614,
      "ines": 2615,
      "Ġfis": 2616,
      "Ġfence": 2617,
      "Ġlau": 2618,
      "Ġlamp": 2619,
      "Ġdull": 2620,
      "Ġmach": 2621,
      "Ġmist": 2622,
      "Ġmask": 2623,
      "Ġple": 2624,
      "Ġpush": 2625,
      "arge": 2626,
      "ature": 2627,
      "Ġoce": 2628,
      "Ġinf": 2629,
      "Ġears": 2630,
      "Ġyaw": 2631,
      "Ġstep": 2632,
      "Ġstumbled": 2633,
      "Ġonce": 2634,
      "Ġplate": 2635,
      "There": 2636,
      "Ġlip": 2637,
      "ĠBl": 2638,
      "chanic": 2639,
      "aled": 2640,
      "ĠMum": 2641,
      "ĠMilly": 2642,
      "Ġasking": 2643,
      "Ġboss": 2644,
      "illiant": 2645,
      "Ġext": 2646,
      "Ġexam": 2647,
      "iches": 2648,
      "Ġcane": 2649,
      "umber": 2650,
      "Ġclap": 2651,
      "Ġleg": 2652,
      "Ġlead": 2653,
      "Ġmechanic": 2654,
      "ophie": 2655,
      "Ġbrilliant": 2656,
      "ĠWhile": 2657,
      "Ġchased": 2658,
      "Ġfluffy": 2659,
      "ĠElla": 2660,
      "ief": 2661,
      "ĠDon": 2662,
      "Ġswam": 2663,
      "Ġexplored": 2664,
      "ĠdonÃ¢": 2665,
      "Ġneeds": 2666,
      "ÅĵLet": 2667,
      "ĠGive": 2668,
      "Ġharder": 2669,
      "Here": 2670,
      "Ġleaving": 2671,
      "ĠWhenever": 2672,
      "Ġpainted": 2673,
      "Ġrubb": 2674,
      "Ġrubbed": 2675,
      "ĠPlease": 2676,
      "Ġtalking": 2677,
      "Ġrocket": 2678,
      "Ġsleeping": 2679,
      "Ġfloat": 2680,
      "Ġgiving": 2681,
      "Ġdrank": 2682,
      "Ġbreakfast": 2683,
      "olog": 2684,
      "Ġpointing": 2685,
      "Ġpolite": 2686,
      "Ġsearching": 2687,
      "uggled": 2688,
      "Ġtreats": 2689,
      "Ġcrab": 2690,
      "Ġfootball": 2691,
      "Ġphone": 2692,
      "Ġhealthy": 2693,
      "Ġgigg": 2694,
      "Ġobedient": 2695,
      "Ġeggs": 2696,
      "Ġadmire": 2697,
      "Ġneckl": 2698,
      "Ġsandwiches": 2699,
      "Ġcouch": 2700,
      "Ġspoke": 2701,
      "Ġengine": 2702,
      "Ġsorts": 2703,
      "Ġscarf": 2704,
      "Ġprotect": 2705,
      "Ġlaundry": 2706,
      "Ġocean": 2707,
      "ÅĵLetÃ¢": 2708,
      "Little": 2709,
      "cle": 2710,
      "ches": 2711,
      "eked": 2712,
      "iqu": 2713,
      "lie": 2714,
      "mb": 2715,
      "peci": 2716,
      "unt": 2717,
      "uable": 2718,
      "ying": 2719,
      "head": 2720,
      "Ġtied": 2721,
      "Ġtask": 2722,
      "Ġahead": 2723,
      "Ġsings": 2724,
      "Ġbake": 2725,
      "Ġbull": 2726,
      "Ġtoast": 2727,
      "ince": 2728,
      "inoc": 2729,
      "Ġfake": 2730,
      "Ġlarge": 2731,
      "Ġdiz": 2732,
      "Ġmama": 2733,
      "Ġgate": 2734,
      "enry": 2735,
      "Ġsave": 2736,
      "Ġsaving": 2737,
      "imney": 2738,
      "Ġeart": 2739,
      "oop": 2740,
      "Ġugly": 2741,
      "Ġbees": 2742,
      "ĠIs": 2743,
      "Ġsold": 2744,
      "Ġweek": 2745,
      "Ġshine": 2746,
      "Ġshocked": 2747,
      "Ġmoms": 2748,
      "acket": 2749,
      "Ġisland": 2750,
      "als": 2751,
      "Ġrec": 2752,
      "ĠMy": 2753,
      "ĠMrs": 2754,
      "Ġseat": 2755,
      "Ġash": 2756,
      "Ġjacket": 2757,
      "Ġknif": 2758,
      "Ġfeed": 2759,
      "Ġmeant": 2760,
      "Ġchange": 2761,
      "Ġchimney": 2762,
      "Ġword": 2763,
      "Ġflag": 2764,
      "ĠEnd": 2765,
      "Ġyours": 2766,
      "ourite": 2767,
      "Ġtray": 2768,
      "Ġtrunk": 2769,
      "usual": 2770,
      "Ġpeeked": 2771,
      "Ġmole": 2772,
      "Ġmoder": 2773,
      "osaur": 2774,
      "Ġenv": 2775,
      "Ġshows": 2776,
      "Ġcalling": 2777,
      "Ġdrew": 2778,
      "Ġwolf": 2779,
      "ĠChar": 2780,
      "Ġgrumpy": 2781,
      "Ġboats": 2782,
      "Ġfavourite": 2783,
      "Ġbelt": 2784,
      "Ġuniqu": 2785,
      "Ġunusual": 2786,
      "Joe": 2787,
      "Ġjog": 2788,
      "Ġprint": 2789,
      "Ġlights": 2790,
      "Ġdrop": 2791,
      "Ġribb": 2792,
      "Ġsmelled": 2793,
      "Ġairport": 2794,
      "Ġplanet": 2795,
      "Ġcreative": 2796,
      "Ġsailor": 2797,
      "Ġcomput": 2798,
      "ĠToday": 2799,
      "Ġpushing": 2800,
      "Ġpacked": 2801,
      "Ġpackage": 2802,
      "Ġespeci": 2803,
      "Ġcircle": 2804,
      "ependent": 2805,
      "Ġletters": 2806,
      "Ġblueberries": 2807,
      "Ġwandered": 2808,
      "Ġbutton": 2809,
      "Ġcarrot": 2810,
      "Ġsafely": 2811,
      "Ġcelebrate": 2812,
      "Ġrepeats": 2813,
      "Ġvaluable": 2814,
      "Ġign": 2815,
      "Ġfeathers": 2816,
      "Ġapolog": 2817,
      "Ġparade": 2818,
      "Ġflute": 2819,
      "Ġpenguin": 2820,
      "Ġindependent": 2821,
      "Ġinfant": 2822,
      "Ġextra": 2823,
      "Ġdizzy": 2824,
      "Ġearth": 2825,
      "Ġknife": 2826,
      "Ġmodern": 2827,
      "Ġunique": 2828,
      "Ġespecially": 2829,
      "Give": 2830,
      "Mum": 2831,
      "ded": 2832,
      "dge": 2833,
      "ext": 2834,
      "fic": 2835,
      "ging": 2836,
      "gular": 2837,
      "iers": 2838,
      "kin": 2839,
      "loo": 2840,
      "lower": 2841,
      "met": 2842,
      "pack": 2843,
      "zag": 2844,
      "Ġed": 2845,
      "ĠOK": 2846,
      "Ġtent": 2847,
      "Ġtest": 2848,
      "Ġtries": 2849,
      "Ġadded": 2850,
      "Ġbor": 2851,
      "Ġbur": 2852,
      "Ġbark": 2853,
      "Ġbump": 2854,
      "Ġhum": 2855,
      "Ġhous": 2856,
      "Ġwand": 2857,
      "Ġwake": 2858,
      "Ġled": 2859,
      "Ġlying": 2860,
      "Ġcel": 2861,
      "Ġcone": 2862,
      "Ġcaul": 2863,
      "Ġmaybe": 2864,
      "Ġped": 2865,
      "Ġpay": 2866,
      "Ġpow": 2867,
      "Ġpale": 2868,
      "ĠTweet": 2869,
      "ilt": 2870,
      "ilty": 2871,
      "ense": 2872,
      "enise": 2873,
      "ately": 2874,
      "ĠSophie": 2875,
      "Ġsal": 2876,
      "ano": 2877,
      "ans": 2878,
      "Ġol": 2879,
      "cks": 2880,
      "owy": 2881,
      "Ġrug": 2882,
      "Ġrake": 2883,
      "Ġrare": 2884,
      "Ġrice": 2885,
      "ĠIÃ¢": 2886,
      "igzag": 2887,
      "Ġstream": 2888,
      "Ġoften": 2889,
      "rior": 2890,
      "Their": 2891,
      "stairs": 2892,
      "Ġforward": 2893,
      "Ġshake": 2894,
      "Ġshone": 2895,
      "alk": 2896,
      "Ġregular": 2897,
      "ugar": 2898,
      "!\".": 2899,
      "Ġgoal": 2900,
      "Ġspend": 2901,
      "Ġspill": 2902,
      "Ġjell": 2903,
      "Ġexper": 2904,
      "icer": 2905,
      "Ġleash": 2906,
      "Ġnod": 2907,
      "Ġhelmet": 2908,
      "Ġmemor": 2909,
      "Ġbridge": 2910,
      "ages": 2911,
      "Ġchase": 2912,
      "Ġchose": 2913,
      "Ġchair": 2914,
      "Ġchasing": 2915,
      "Ġchanged": 2916,
      "Ġscr": 2917,
      "iflower": 2918,
      "Ġdecide": 2919,
      "Ġyourself": 2920,
      "Ġtaken": 2921,
      "Ġabove": 2922,
      "Ġdogs": 2923,
      "Ġfinding": 2924,
      "Ġskipped": 2925,
      "Ġquest": 2926,
      "angle": 2927,
      "Ġboxes": 2928,
      "Ġnicely": 2929,
      "pty": 2930,
      "Ġcube": 2931,
      "Ġbuilt": 2932,
      "Ġkinds": 2933,
      "Ġnowhere": 2934,
      "Ġfamous": 2935,
      "Ġdeaf": 2936,
      "Ġrubs": 2937,
      "Ġdiffic": 2938,
      "Ġuseful": 2939,
      "ĠJoey": 2940,
      "Ġbiggest": 2941,
      "Ġzoo": 2942,
      "Ġzip": 2943,
      "Ġzoom": 2944,
      "Ġprep": 2945,
      "Ġgrandpa": 2946,
      "Ġlaughs": 2947,
      "Ġshoot": 2948,
      "Ġreading": 2949,
      "ĠRachel": 2950,
      "Ġdinosaur": 2951,
      "Ġdelicate": 2952,
      "Ġtrap": 2953,
      "Ġtrash": 2954,
      "Ġbags": 2955,
      "Ġwalls": 2956,
      "Ġcounted": 2957,
      "Ġhung": 2958,
      "Ġblankets": 2959,
      "Ġtriangle": 2960,
      "Ġbushes": 2961,
      "ĠBeep": 2962,
      "Ġprov": 2963,
      "Ġbarked": 2964,
      "Ġplants": 2965,
      "Ġcushions": 2966,
      "Ġmeeting": 2967,
      "Ġempty": 2968,
      "Ġwarned": 2969,
      "Ġwarrior": 2970,
      "Ġguilty": 2971,
      "Ġkissed": 2972,
      "Ġhanger": 2973,
      "Ġhappening": 2974,
      "Ġimagined": 2975,
      "Ġfingers": 2976,
      "Ġbounce": 2977,
      "ocad": 2978,
      "Ġbuttons": 2979,
      "Ġcarrots": 2980,
      "Ġavocad": 2981,
      "Ġserious": 2982,
      "Ġcherry": 2983,
      "Ġbubbles": 2984,
      "Ġcolourful": 2985,
      "Ġwishes": 2986,
      "Ġvehicle": 2987,
      "Ġbossy": 2988,
      "Ġnecklace": 2989,
      "Ġsoldiers": 2990,
      "Ġrecord": 2991,
      "Ġhouses": 2992,
      "Ġcelery": 2993,
      "Ġcauliflower": 2994,
      "Ġjelly": 2995,
      "Ġdifficult": 2996,
      "If": 2997,
      "Well": 2998,
      "ae": 2999,
      "baby": 3000,
      "den": 3001,
      "fish": 3002,
      "gn": 3003,
      "gust": 3004,
      "hood": 3005,
      "hinoc": 3006,
      "ible": 3007,
      "ives": 3008,
      "nie": 3009,
      "par": 3010,
      "pered": 3011,
      "tti": 3012,
      "vas": 3013,
      "hetti": 3014,
      "Ġten": 3015,
      "Ġtug": 3016,
      "Ġtank": 3017,
      "Ġsil": 3018,
      "Ġsuc": 3019,
      "Ġsugar": 3020,
      "Ġbal": 3021,
      "Ġtoug": 3022,
      "inal": 3023,
      "innie": 3024,
      "Ġhay": 3025,
      "Ġhurry": 3026,
      "Ġhunt": 3027,
      "resh": 3028,
      "Ġfresh": 3029,
      "Ġlid": 3030,
      "Ġcart": 3031,
      "Ġcards": 3032,
      "eros": 3033,
      "Ġdig": 3034,
      "Ġdeter": 3035,
      "Ġmug": 3036,
      "Ġmountain": 3037,
      "Ġpump": 3038,
      "ĠTr": 3039,
      "ĠTed": 3040,
      "ĠTeddy": 3041,
      "ayak": 3042,
      "ari": 3043,
      "Ġitch": 3044,
      "Ġrhinoc": 3045,
      "iginal": 3046,
      "Ġstack": 3047,
      "Ġshel": 3048,
      "vel": 3049,
      "Ġweird": 3050,
      "These": 3051,
      "ĠBinky": 3052,
      "Ġhappens": 3053,
      "Ġdove": 3054,
      "Ġkayak": 3055,
      "Ġreco": 3056,
      "Ġsepar": 3057,
      "Ġthemselves": 3058,
      "ĠAre": 3059,
      "Ġspit": 3060,
      "Ġspag": 3061,
      "Ġlose": 3062,
      "urous": 3063,
      "ĠJune": 3064,
      "Ġcanvas": 3065,
      "ummer": 3066,
      "Ġclum": 3067,
      "ĠWhere": 3068,
      "Ġexcitedly": 3069,
      "roy": 3070,
      "Ġtrop": 3071,
      "Ġolder": 3072,
      "Ġfinds": 3073,
      "Ġpoor": 3074,
      "Ġtwig": 3075,
      "Ġoriginal": 3076,
      "Ġener": 3077,
      "Benny": 3078,
      "Ġusing": 3079,
      "Ġways": 3080,
      "Ġadventurous": 3081,
      "Ġgrown": 3082,
      "Ġloudly": 3083,
      "Ġsnuggled": 3084,
      "Ġdeer": 3085,
      "Ġimpre": 3086,
      "Ġdisgust": 3087,
      "Ġfollows": 3088,
      "Ġarg": 3089,
      "ĠPeter": 3090,
      "Ġwalks": 3091,
      "Ġunl": 3092,
      "Ġopens": 3093,
      "Ġjoined": 3094,
      "Ġdriving": 3095,
      "Ġbread": 3096,
      "Ġgrandbaby": 3097,
      "Ġtaller": 3098,
      "Ġhidden": 3099,
      "Ġperform": 3100,
      "Ġhairy": 3101,
      "Ġcounting": 3102,
      "Ġmarried": 3103,
      "ola": 3104,
      "ĠEmily": 3105,
      "Ġsett": 3106,
      "Ġneighb": 3107,
      "Ġdiscovered": 3108,
      "Ġtreasures": 3109,
      "Ġmixed": 3110,
      "Ġmixer": 3111,
      "Ġphot": 3112,
      "Ġpowerful": 3113,
      "Ġtwisted": 3114,
      "Ġsolve": 3115,
      "Ġdelighted": 3116,
      "Ġeasy": 3117,
      "Ġwhisper": 3118,
      "Ġwhispered": 3119,
      "Ġmodel": 3120,
      "Ġmodest": 3121,
      "abel": 3122,
      "Ġentered": 3123,
      "Ġslides": 3124,
      "Ġcheerful": 3125,
      "laire": 3126,
      "Ġgift": 3127,
      "Ġcurtains": 3128,
      "Ġdestroy": 3129,
      "ĠSnowy": 3130,
      "Ġvideo": 3131,
      "Ġpuzzle": 3132,
      "Ġsplashed": 3133,
      "ussel": 3134,
      "Ġfishing": 3135,
      "Ġgiggled": 3136,
      "Ġenvious": 3137,
      "Ġcomputer": 3138,
      "Ġedge": 3139,
      "Ġjellyfish": 3140,
      "Ġsilver": 3141,
      "Ġtough": 3142,
      "Ġdeterm": 3143,
      "Ġrhinoceros": 3144,
      "Ġrecogn": 3145,
      "Ġspaghetti": 3146,
      "\",": 3147,
      "Daisy": 3148,
      "aila": 3149,
      "aff": 3150,
      "ced": 3151,
      "ience": 3152,
      "lu": 3153,
      "lid": 3154,
      "mm": 3155,
      "oe": 3156,
      "oppy": 3157,
      "tor": 3158,
      "wards": 3159,
      "zed": 3160,
      "ĠZ": 3161,
      "Ġicy": 3162,
      "heart": 3163,
      "Ġsir": 3164,
      "Ġsink": 3165,
      "Ġsummer": 3166,
      "Ġbent": 3167,
      "Ġbase": 3168,
      "inked": 3169,
      "ready": 3170,
      "Ġwave": 3171,
      "Ġfour": 3172,
      "Ġfrag": 3173,
      "Ġfountain": 3174,
      "ital": 3175,
      "itive": 3176,
      "Ġlaw": 3177,
      "Ġcop": 3178,
      "Ġcase": 3179,
      "erly": 3180,
      "Ġdust": 3181,
      "Ġdependable": 3182,
      "Ġpaw": 3183,
      "arn": 3184,
      "Ġnature": 3185,
      "Ġnumber": 3186,
      "Ġsauce": 3187,
      "imed": 3188,
      "llip": 3189,
      "Ġthick": 3190,
      "Ġoven": 3191,
      "Ġoct": 3192,
      "Ġobs": 3193,
      "vers": 3194,
      "owed": 3195,
      "Ġradi": 3196,
      "Ġbeg": 3197,
      "Ġbeep": 3198,
      "ĠIf": 3199,
      "igent": 3200,
      "ighed": 3201,
      "Ġstable": 3202,
      "amber": 3203,
      "Ġplast": 3204,
      "Ġweight": 3205,
      "Ġweighed": 3206,
      "ĠBr": 3207,
      "Ġshort": 3208,
      "Ġsharing": 3209,
      "Ġref": 3210,
      "Ġreve": 3211,
      "Ġrequ": 3212,
      "Ġlollip": 3213,
      "Ġexp": 3214,
      "Ġlean": 3215,
      "ongo": 3216,
      "Ġmeasure": 3217,
      "opus": 3218,
      "âĤ¬.": 3219,
      "Ġbranc": 3220,
      "Ġalready": 3221,
      "Ġfactor": 3222,
      "Ġstarting": 3223,
      "Ġchoo": 3224,
      "Ġchamber": 3225,
      "Ġagree": 3226,
      "Ġscare": 3227,
      "Ġworking": 3228,
      "Ġworries": 3229,
      "Ġblinked": 3230,
      "ĠLul": 3231,
      "ĠEventually": 3232,
      "elligent": 3233,
      "ĠDanny": 3234,
      "ĠDenise": 3235,
      "Ġgrace": 3236,
      "usie": 3237,
      "Ġhosp": 3238,
      "Ġholid": 3239,
      "Ġintelligent": 3240,
      "Ġpeek": 3241,
      "Ġskirt": 3242,
      "Ġlearning": 3243,
      "Ġquit": 3244,
      "Ġenorm": 3245,
      "ĠJoy": 3246,
      "Ġneedle": 3247,
      "ÅĵYou": 3248,
      "Ġcloset": 3249,
      "izes": 3250,
      "ĠGr": 3251,
      "Ġjumps": 3252,
      "Ġsnee": 3253,
      "Ġeye": 3254,
      "Ġwindows": 3255,
      "Ġturkey": 3256,
      "Ġimpro": 3257,
      "Ġrealised": 3258,
      "Ġrub": 3259,
      "Ġyelled": 3260,
      "Ġsticker": 3261,
      "Ġsweetie": 3262,
      "Ġsweetheart": 3263,
      "assion": 3264,
      "Ġsquare": 3265,
      "Ġfloated": 3266,
      "Ġgiven": 3267,
      "Ġjoke": 3268,
      "Ġstops": 3269,
      "Ġcontent": 3270,
      "Ġzeb": 3271,
      "Ġjuicy": 3272,
      "ĠRussel": 3273,
      "Ġplanes": 3274,
      "Ġsupp": 3275,
      "Ġbreaks": 3276,
      "Ġcompet": 3277,
      "Ġcompassion": 3278,
      "Ġcandle": 3279,
      "Ġfalls": 3280,
      "Ġshape": 3281,
      "ĠBear": 3282,
      "Ġbarn": 3283,
      "Ġsmoke": 3284,
      "Ġbuilding": 3285,
      "Ġdiscovery": 3286,
      "Ġfolder": 3287,
      "Ġguard": 3288,
      "Ġpolish": 3289,
      "Ġmissed": 3290,
      "Ġanswered": 3291,
      "Ġimagination": 3292,
      "Ġcrash": 3293,
      "Ġriding": 3294,
      "Ġkicked": 3295,
      "Ġthinking": 3296,
      "ĠAlice": 3297,
      "oga": 3298,
      "Ġgiggle": 3299,
      "Ġspray": 3300,
      "Ġpractice": 3301,
      "Ġchewed": 3302,
      "Ġavaila": 3303,
      "Ġinvited": 3304,
      "Ġgasped": 3305,
      "year": 3306,
      "Ġwiped": 3307,
      "Ġinclu": 3308,
      "Ġraced": 3309,
      "Ġwheel": 3310,
      "Ġstretch": 3311,
      "Ġpastry": 3312,
      "Ġhonest": 3313,
      "Ġwhistle": 3314,
      "Ġfearful": 3315,
      "Ġpleased": 3316,
      "Ġyawned": 3317,
      "ĠBloom": 3318,
      "ĠIsabel": 3319,
      "Ġborrow": 3320,
      "Ġshooting": 3321,
      "Ġpumpkin": 3322,
      "Ġclumsy": 3323,
      "Ġtrophy": 3324,
      "Ġtwigs": 3325,
      "Ġphoto": 3326,
      "Ġdetermined": 3327,
      "Ġfragile": 3328,
      "Ġoctopus": 3329,
      "Ġradio": 3330,
      "Ġplastic": 3331,
      "Ġrequest": 3332,
      "Ġlollipop": 3333,
      "Ġbranches": 3334,
      "Ġfactory": 3335,
      "ĠLulu": 3336,
      "Ġhospital": 3337,
      "Ġholiday": 3338,
      "Ġenormous": 3339,
      "Ġzebra": 3340,
      "Ġavailable": 3341,
      "Ow": 3342,
      "Who": 3343,
      "Yuck": 3344,
      "appy": 3345,
      "bers": 3346,
      "bled": 3347,
      "cise": 3348,
      "ccept": 3349,
      "cense": 3350,
      "hip": 3351,
      "ject": 3352,
      "lb": 3353,
      "mo": 3354,
      "munk": 3355,
      "ns": 3356,
      "oin": 3357,
      "red": 3358,
      "ses": 3359,
      "sist": 3360,
      "ues": 3361,
      "vice": 3362,
      "yer": 3363,
      "yster": 3364,
      "Ġter": 3365,
      "Ġsip": 3366,
      "Ġsize": 3367,
      "Ġhoney": 3368,
      "Ġhoop": 3369,
      "render": 3370,
      "Ġwaist": 3371,
      "Ġwaves": 3372,
      "Ġfil": 3373,
      "Ġfine": 3374,
      "Ġfather": 3375,
      "Ġlay": 3376,
      "Ġcoo": 3377,
      "eri": 3378,
      "Ġdug": 3379,
      "Ġhedge": 3380,
      "Ġmay": 3381,
      "Ġmis": 3382,
      "Ġmelt": 3383,
      "Ġmention": 3384,
      "Ġpit": 3385,
      "Ġnames": 3386,
      "Ġnorm": 3387,
      "Ġnail": 3388,
      "Ġsaved": 3389,
      "lls": 3390,
      "Ġoak": 3391,
      "Ġoyster": 3392,
      "ĠHenry": 3393,
      "cky": 3394,
      "Ġeld": 3395,
      "Ġyet": 3396,
      "Ġyarn": 3397,
      "Ġyoga": 3398,
      "Ġbeak": 3399,
      "Ġstuff": 3400,
      "Ġstaff": 3401,
      "kelet": 3402,
      "Ġsock": 3403,
      "rib": 3404,
      "Ġweal": 3405,
      "Ġhadn": 3406,
      "Ġlicense": 3407,
      "ĠBongo": 3408,
      "unes": 3409,
      "Ġshut": 3410,
      "Ġshark": 3411,
      "Ġshakes": 3412,
      "Ġking": 3413,
      "Ġrece": 3414,
      "Ġreac": 3415,
      "Ġrefused": 3416,
      "ĠMan": 3417,
      "ĠMeri": 3418,
      "Ġseco": 3419,
      "ecause": 3420,
      "ĠAccept": 3421,
      "Ġspade": 3422,
      "illie": 3423,
      "Ġexer": 3424,
      "Ġknob": 3425,
      "Ġmanag": 3426,
      "Ġhelps": 3427,
      "Ġalert": 3428,
      "Ġalmo": 3429,
      "Ġchat": 3430,
      "Ġchir": 3431,
      "Ġchip": 3432,
      "Ġchalk": 3433,
      "Ġsciss": 3434,
      "Ġbloom": 3435,
      "Ġflame": 3436,
      "Ġflour": 3437,
      "Ġflies": 3438,
      "Ġagainst": 3439,
      "Ġprunes": 3440,
      "Ġsadly": 3441,
      "Ġvan": 3442,
      "Ġvie": 3443,
      "Ġvase": 3444,
      "rod": 3445,
      "Ġgrabs": 3446,
      "Ġintrod": 3447,
      "Ġknows": 3448,
      "ĠFurry": 3449,
      "Ġpopped": 3450,
      "apa": 3451,
      "Ġtweet": 3452,
      "Ġexplain": 3453,
      "osity": 3454,
      "Ġslipped": 3455,
      "Ġord": 3456,
      "oons": 3457,
      "Ġadvice": 3458,
      "Ġpicking": 3459,
      "Ġdreamed": 3460,
      "Ġglue": 3461,
      "Ġcups": 3462,
      "Ġcheck": 3463,
      "ĠClaire": 3464,
      "Ġitself": 3465,
      "Ġbulb": 3466,
      "Ġkindness": 3467,
      "Ġcrow": 3468,
      "ctive": 3469,
      "Ġthrows": 3470,
      "Ġremembers": 3471,
      "Ġcleaning": 3472,
      "Ġheads": 3473,
      "Ġdoesn": 3474,
      "Ġunite": 3475,
      "Ġreplace": 3476,
      "Ġbrothers": 3477,
      "Ġappro": 3478,
      "Ġbows": 3479,
      "Ġsigned": 3480,
      "Ġthanks": 3481,
      "Ġzipped": 3482,
      "Ġzipping": 3483,
      "Ġdreams": 3484,
      "Ġdreaming": 3485,
      "Ġsmells": 3486,
      "Ġdrawing": 3487,
      "Ġdrawings": 3488,
      "Ġcounter": 3489,
      "Ġmarch": 3490,
      "Ġcandles": 3491,
      "Ġsandbox": 3492,
      "Ġpoint": 3493,
      "Ġcrawling": 3494,
      "body": 3495,
      "Ġbarber": 3496,
      "Ġpassed": 3497,
      "Ġdesig": 3498,
      "Ġgems": 3499,
      "Ġjew": 3500,
      "Ġjeep": 3501,
      "Ġcupboard": 3502,
      "Ġcorn": 3503,
      "ĠFloppy": 3504,
      "Ġbouncy": 3505,
      "Ġharm": 3506,
      "ĠAli": 3507,
      "Ġobject": 3508,
      "Ġpracticed": 3509,
      "Ġegg": 3510,
      "Ġcollecting": 3511,
      "Ġdistance": 3512,
      "Ġeasier": 3513,
      "Ġlifted": 3514,
      "Ġglowing": 3515,
      "ĠKate": 3516,
      "Ġticket": 3517,
      "âĤ¬âĢľ": 3518,
      "Ġdiscovering": 3519,
      "Ġpopular": 3520,
      "Ġmachine": 3521,
      "Ġrubbing": 3522,
      "Ġpowder": 3523,
      "ĠTweety": 3524,
      "Ġprovide": 3525,
      "Ġavocado": 3526,
      "Ġenergy": 3527,
      "Ġdisgusting": 3528,
      "Ġneighbour": 3529,
      "Ġlawyer": 3530,
      "Ġobser": 3531,
      "ĠGranny": 3532,
      "ointed": 3533,
      "Ġnormal": 3534,
      "Ġelderly": 3535,
      "keleton": 3536,
      "Ġsecond": 3537,
      "ĠAcceptor": 3538,
      "Ġmanaged": 3539,
      "Ġalmost": 3540,
      "Ġchipmunk": 3541,
      "Ġscissors": 3542,
      "Ġview": 3543,
      "Char": 3544,
      "Em": 3545,
      "Eventually": 3546,
      "Gra": 3547,
      "Jim": 3548,
      "Mary": 3549,
      "Mmm": 3550,
      "Peter": 3551,
      "Sh": 3552,
      "While": 3553,
      "apped": 3554,
      "cc": 3555,
      "cope": 3556,
      "ea": 3557,
      "ear": 3558,
      "fa": 3559,
      "fit": 3560,
      "hive": 3561,
      "nit": 3562,
      "rn": 3563,
      "rise": 3564,
      "tion": 3565,
      "zen": 3566,
      "Ġtummy": 3567,
      "Ġach": 3568,
      "Ġants": 3569,
      "Ġsent": 3570,
      "Ġsend": 3571,
      "Ġbet": 3572,
      "Ġberry": 3573,
      "Ġtorn": 3574,
      "ina": 3575,
      "Ġhars": 3576,
      "rella": 3577,
      "Ġwags": 3578,
      "Ġfool": 3579,
      "ita": 3580,
      "Ġlily": 3581,
      "Ġcam": 3582,
      "Ġcudd": 3583,
      "Ġcage": 3584,
      "Ġcab": 3585,
      "Ġcrib": 3586,
      "Ġpa": 3587,
      "Ġpaid": 3588,
      "Ġpages": 3589,
      "atch": 3590,
      "atue": 3591,
      "Ġnurse": 3592,
      "ĠSusie": 3593,
      "Ġhalf": 3594,
      "imi": 3595,
      "Ġthirst": 3596,
      "Ġthief": 3597,
      "ete": 3598,
      "Ġequ": 3599,
      "Ġumb": 3600,
      "Ġbeam": 3601,
      "igate": 3602,
      "Ġstraw": 3603,
      "Ġstairs": 3604,
      "Ġstatue": 3605,
      "Ġshelf": 3606,
      "Ġsoar": 3607,
      "Ġsofa": 3608,
      "adows": 3609,
      "rible": 3610,
      "Ġweigh": 3611,
      "Ġplays": 3612,
      "Ġforth": 3613,
      "Ġliqu": 3614,
      "Ġlions": 3615,
      "Ġlicked": 3616,
      "Ġshaking": 3617,
      "uggle": 3618,
      "riends": 3619,
      "ĠMae": 3620,
      "ĠMillie": 3621,
      "ĠMimi": 3622,
      "Ġbody": 3623,
      "ores": 3624,
      "ĠAt": 3625,
      "ĠJerry": 3626,
      "icia": 3627,
      "Ġclay": 3628,
      "Ġknown": 3629,
      "Ġmeal": 3630,
      "Ġboys": 3631,
      "Ġsomewhere": 3632,
      "Ġhelpless": 3633,
      "ĠWill": 3634,
      "Ġblows": 3635,
      "Ġexcla": 3636,
      "Ġcover": 3637,
      "estigate": 3638,
      "iff": 3639,
      "Ġmyself": 3640,
      "ĠDependable": 3641,
      "isten": 3642,
      "Ġhose": 3643,
      "bbled": 3644,
      "Ġskull": 3645,
      "Ġlearnt": 3646,
      "ĠFin": 3647,
      "ĠFriends": 3648,
      "Ġposs": 3649,
      "Ġopera": 3650,
      "osie": 3651,
      "anges": 3652,
      "Ġanywhere": 3653,
      "Ġsunset": 3654,
      "Ġsunrise": 3655,
      "Ġoranges": 3656,
      "ĠJacky": 3657,
      "Ġproudly": 3658,
      "Ġteles": 3659,
      "Ġhanded": 3660,
      "Ġoffer": 3661,
      "ÅĵNo": 3662,
      "ÅĵIt": 3663,
      "ÅĵYes": 3664,
      "ÅĵCan": 3665,
      "Ġraft": 3666,
      "Ġremain": 3667,
      "Ġclear": 3668,
      "Ġgray": 3669,
      "Ġlouder": 3670,
      "ected": 3671,
      "ipment": 3672,
      "Ġtowers": 3673,
      "Ġstove": 3674,
      "ngth": 3675,
      "Ġdelay": 3676,
      "Ġmeans": 3677,
      "Ġcleaned": 3678,
      "Ġcuriosity": 3679,
      "Ġart": 3680,
      "ĠPapa": 3681,
      "ĠPete": 3682,
      "Ġbehave": 3683,
      "Ġbelow": 3684,
      "Ġpatch": 3685,
      "Ġpulls": 3686,
      "Ġpretending": 3687,
      "ĠLetÃ¢": 3688,
      "Ġmessage": 3689,
      "Ġsteal": 3690,
      "ĠRosie": 3691,
      "Ġfrozen": 3692,
      "Ġholds": 3693,
      "Ġsuper": 3694,
      "Ġcooler": 3695,
      "ensive": 3696,
      "Ġvisited": 3697,
      "Ġbeef": 3698,
      "Ġbeehive": 3699,
      "Ġsplit": 3700,
      "Ġlands": 3701,
      "Ġclapping": 3702,
      "ĠEmmy": 3703,
      "Ġpaintings": 3704,
      "Ġquietly": 3705,
      "ĠBecky": 3706,
      "Ġbarrel": 3707,
      "Ġfurnit": 3708,
      "ixie": 3709,
      "Ġfolded": 3710,
      "Ġguess": 3711,
      "Ġstrength": 3712,
      "Ġlocked": 3713,
      "Ġplaced": 3714,
      "Ġriddle": 3715,
      "Ġdisappointed": 3716,
      "ĠGrandpa": 3717,
      "Ġearly": 3718,
      "Ġcracker": 3719,
      "Everyone": 3720,
      "Ġpillows": 3721,
      "Ġpuddles": 3722,
      "Ġcelebrated": 3723,
      "Daddy": 3724,
      "Ġspinning": 3725,
      "Ġminute": 3726,
      "Ġdistant": 3727,
      "Ġpoured": 3728,
      "Ġinvestigate": 3729,
      "Ġsandwich": 3730,
      "Ġrepeat": 3731,
      "Ġfrowned": 3732,
      "Ġsurrender": 3733,
      "Ġwheels": 3734,
      "Ġstirs": 3735,
      "Ġstretched": 3736,
      "âĤ¬âĢĿ": 3737,
      "Frank": 3738,
      "Ġmistake": 3739,
      "Ġexamine": 3740,
      "ĠCharlie": 3741,
      "Ġribbons": 3742,
      "Ġbarks": 3743,
      "Ġbumped": 3744,
      "Ġhumble": 3745,
      "Ġmemories": 3746,
      "Ġquestions": 3747,
      "Ġprepare": 3748,
      "Ġcartoons": 3749,
      "ĠTrue": 3750,
      "Ġseparated": 3751,
      "Ġimpressed": 3752,
      "Ġrecognized": 3753,
      "tory": 3754,
      "Ġexpensive": 3755,
      "Ġchoose": 3756,
      "Ġcompetitive": 3757,
      "Ġexercise": 3758,
      "Ġobserve": 3759,
      "Ġharsh": 3760,
      "Ġfoolish": 3761,
      "Ġcamera": 3762,
      "Ġcabin": 3763,
      "Ġthirsty": 3764,
      "Ġequipment": 3765,
      "Ġumbrella": 3766,
      "Ġstrawber": 3767,
      "Ġliquid": 3768,
      "Ġexclaimed": 3769,
      "Ġtelescope": 3770,
      "Ġfurniture": 3771,
      "'.": 3772,
      "Are": 3773,
      "Billy": 3774,
      "Bye": 3775,
      "Because": 3776,
      "Go": 3777,
      "Is": 3778,
      "Jen": 3779,
      "James": 3780,
      "Ouch": 3781,
      "Tweet": 3782,
      "Un": 3783,
      "Yay": 3784,
      "bug": 3785,
      "cut": 3786,
      "coon": 3787,
      "eat": 3788,
      "lp": 3789,
      "ls": 3790,
      "lv": 3791,
      "ler": 3792,
      "lies": 3793,
      "liver": 3794,
      "mmer": 3795,
      "pid": 3796,
      "sit": 3797,
      "ween": 3798,
      "zard": 3799,
      "Ġtuck": 3800,
      "Ġsy": 3801,
      "Ġsugg": 3802,
      "Ġsimp": 3803,
      "Ġsince": 3804,
      "Ġsizes": 3805,
      "Ġban": 3806,
      "Ġbree": 3807,
      "Ġbicy": 3808,
      "Ġhut": 3809,
      "rept": 3810,
      "Ġwaving": 3811,
      "Ġfan": 3812,
      "Ġlend": 3813,
      "Ġlugg": 3814,
      "Ġlines": 3815,
      "Ġcur": 3816,
      "Ġcap": 3817,
      "Ġcross": 3818,
      "Ġcrept": 3819,
      "erable": 3820,
      "Ġdem": 3821,
      "Ġmic": 3822,
      "Ġmap": 3823,
      "Ġpan": 3824,
      "Ġpad": 3825,
      "Ġpri": 3826,
      "omed": 3827,
      "ony": 3828,
      "inger": 3829,
      "Ġgun": 3830,
      "Ġgust": 3831,
      "iders": 3832,
      "ates": 3833,
      "atter": 3834,
      "atched": 3835,
      "atient": 3836,
      "Ġnicer": 3837,
      "ĠSt": 3838,
      "ĠSee": 3839,
      "Ġhammer": 3840,
      "ora": 3841,
      "orge": 3842,
      "ime": 3843,
      "ĠitÃ¢": 3844,
      "Ġherb": 3845,
      "irit": 3846,
      "ĠHelp": 3847,
      "Ġrag": 3848,
      "Ġrough": 3849,
      "Ġbeans": 3850,
      "Ġhistory": 3851,
      "Ġweep": 3852,
      "Ġupstairs": 3853,
      "Ġfort": 3854,
      "Ġlizard": 3855,
      "chor": 3856,
      "unately": 3857,
      "Ġshadow": 3858,
      "Ġshadows": 3859,
      "ittens": 3860,
      "Ġhappiness": 3861,
      "Ġnotice": 3862,
      "Ġdoves": 3863,
      "ĠMittens": 3864,
      "Ġanchor": 3865,
      "rage": 3866,
      "Ġspun": 3867,
      "Ġspong": 3868,
      "Ġspace": 3869,
      "Ġoutfit": 3870,
      "Ġjug": 3871,
      "inda": 3872,
      "indy": 3873,
      "Ġexit": 3874,
      "ices": 3875,
      "ĠcanÃ¢": 3876,
      "Ġfriendship": 3877,
      "Ġbackpack": 3878,
      "Ġclick": 3879,
      "Ġclock": 3880,
      "Ġknock": 3881,
      "Ġnodd": 3882,
      "asured": 3883,
      "Ġbrings": 3884,
      "Ġchance": 3885,
      "Ġroared": 3886,
      "Ġscatter": 3887,
      "ĠYour": 3888,
      "ĠLac": 3889,
      "ĠLilly": 3890,
      "ĠLee": 3891,
      "ĠLola": 3892,
      "ĠEach": 3893,
      "Ġmuff": 3894,
      "ested": 3895,
      "iform": 3896,
      "Ġeveryday": 3897,
      "Ġfeelings": 3898,
      "Ġvroom": 3899,
      "play": 3900,
      "Ġdecor": 3901,
      "Ġdecides": 3902,
      "Ġdoggy": 3903,
      "istent": 3904,
      "Ġskill": 3905,
      "Ġskipping": 3906,
      "Ġtwirl": 3907,
      "Ġquite": 3908,
      "ĠEverything": 3909,
      "osh": 3910,
      "Ġslip": 3911,
      "ĠcouldnÃ¢": 3912,
      "Ġteasing": 3913,
      "Ġhandle": 3914,
      "Ġoffered": 3915,
      "Ġgloom": 3916,
      "ÅĵThat": 3917,
      "Ġfastest": 3918,
      "Ġbeauty": 3919,
      "Ġchecked": 3920,
      "Ġclosely": 3921,
      "Ġbury": 3922,
      "Ġburied": 3923,
      "ĠGina": 3924,
      "Ġcrunch": 3925,
      "Ġcryst": 3926,
      "ips": 3927,
      "Ġshoulder": 3928,
      "ction": 3929,
      "Ġclimbing": 3930,
      "Ġimpatient": 3931,
      "Ġvolc": 3932,
      "Ġdeliver": 3933,
      "Ġrules": 3934,
      "Ġdisplay": 3935,
      "Ġmaze": 3936,
      "Ġwarmth": 3937,
      "Ġladybug": 3938,
      "ĠNext": 3939,
      "ĠPaul": 3940,
      "Ġpatter": 3941,
      "Ġuniform": 3942,
      "Ġsquee": 3943,
      "Ġappear": 3944,
      "Ġhoping": 3945,
      "Ġdarkness": 3946,
      "ĠLeticia": 3947,
      "Ġtastes": 3948,
      "Ġdreamt": 3949,
      "Ġbutterflies": 3950,
      "Ġhats": 3951,
      "Ġvelv": 3952,
      "ĠRed": 3953,
      "Ġtravel": 3954,
      "Ġhider": 3955,
      "Ġfrogs": 3956,
      "Ġrested": 3957,
      "Ġcreate": 3958,
      "Ġfireman": 3959,
      "Ġmarry": 3960,
      "Ġswims": 3961,
      "Ġpapers": 3962,
      "Ġsparkled": 3963,
      "Ġgrowing": 3964,
      "Ġswinging": 3965,
      "Ġattra": 3966,
      "Ġpersistent": 3967,
      "Ġstud": 3968,
      "Ġstupid": 3969,
      "Ġmailman": 3970,
      "Ġmailbox": 3971,
      "Ġbelongs": 3972,
      "Ġpresents": 3973,
      "Ġhanging": 3974,
      "Ġshrink": 3975,
      "ĠFreddy": 3976,
      "Ġpolice": 3977,
      "Ġcollar": 3978,
      "Andy": 3979,
      "Ġreturn": 3980,
      "Ġmystery": 3981,
      "Ġcrackers": 3982,
      "Ġmatching": 3983,
      "ÅĵIÃ¢": 3984,
      "Ġsafer": 3985,
      "Ġsolved": 3986,
      "Ġseeker": 3987,
      "Ġblowing": 3988,
      "Ġadmired": 3989,
      "Ġrelaxed": 3990,
      "Ġtroubled": 3991,
      "Ġcourage": 3992,
      "Ġringing": 3993,
      "Ġraccoon": 3994,
      "Ġseeds": 3995,
      "Ġgifted": 3996,
      "Ġurged": 3997,
      "Ġurge": 3998,
      "Today": 3999,
      "Ġawe": 4000,
      "Ġorganize": 4001,
      "Ġashamed": 4002,
      "Ġpedal": 4003,
      "Ġsalad": 4004,
      "Ġolives": 4005,
      "Ġsuccess": 4006,
      "Ġhunter": 4007,
      "Ġdestroyed": 4008,
      "ĠZigzag": 4009,
      "Ġbegin": 4010,
      "ĠBrown": 4011,
      "Ġrevealed": 4012,
      "Ġgraceful": 4013,
      "Ġcompassionate": 4014,
      "Ġterrible": 4015,
      "Ġmiserable": 4016,
      "Ġwealthy": 4017,
      "Ġreaches": 4018,
      "Ġapproached": 4019,
      "Ġjewels": 4020,
      "Ġobjects": 4021,
      "Ġneighbourhood": 4022,
      "Ġbetween": 4023,
      "Ġartist": 4024,
      "Jenny": 4025,
      "Ġsimple": 4026,
      "Ġbanan": 4027,
      "Ġbreeze": 4028,
      "Ġluggage": 4029,
      "Ġsponge": 4030,
      "Ġnodding": 4031,
      "ĠLacy": 4032,
      "Ġgloomy": 4033,
      "Ġvolcano": 4034,
      "Ġvelvet": 4035,
      "'ve": 4036,
      "..": 4037,
      "All": 4038,
      "Ella": 4039,
      "Kate": 4040,
      "Le": 4041,
      "Mama": 4042,
      "Next": 4043,
      "Or": 4044,
      "See": 4045,
      "Yea": 4046,
      "aven": 4047,
      "bur": 4048,
      "cou": 4049,
      "com": 4050,
      "cast": 4051,
      "cles": 4052,
      "cious": 4053,
      "dad": 4054,
      "dled": 4055,
      "ex": 4056,
      "eorge": 4057,
      "fly": 4058,
      "ges": 4059,
      "hl": 4060,
      "happy": 4061,
      "ib": 4062,
      "ipp": 4063,
      "iest": 4064,
      "jam": 4065,
      "kip": 4066,
      "lar": 4067,
      "lings": 4068,
      "lier": 4069,
      "med": 4070,
      "men": 4071,
      "night": 4072,
      "noon": 4073,
      "ond": 4074,
      "oor": 4075,
      "te": 4076,
      "time": 4077,
      "ux": 4078,
      "ubb": 4079,
      "Ġtut": 4080,
      "Ġtag": 4081,
      "Ġtub": 4082,
      "Ġant": 4083,
      "Ġsle": 4084,
      "Ġsudden": 4085,
      "Ġskeleton": 4086,
      "Ġbare": 4087,
      "Ġtong": 4088,
      "inary": 4089,
      "Ġwakes": 4090,
      "Ġfir": 4091,
      "ites": 4092,
      "Ġlux": 4093,
      "Ġcott": 4094,
      "Ġdess": 4095,
      "Ġdough": 4096,
      "Ġdots": 4097,
      "Ġpage": 4098,
      "Ġpours": 4099,
      "Ġwashing": 4100,
      "Ġwaste": 4101,
      "arming": 4102,
      "Ġgroom": 4103,
      "ided": 4104,
      "Ġsaus": 4105,
      "orant": 4106,
      "orable": 4107,
      "imon": 4108,
      "Ġthro": 4109,
      "Ġthose": 4110,
      "ĠHere": 4111,
      "Ġinsist": 4112,
      "oosh": 4113,
      "Ġyuck": 4114,
      "Ġrise": 4115,
      "Ġbeard": 4116,
      "Ġsting": 4117,
      "Ġstra": 4118,
      "Ġstadi": 4119,
      "Ġsheep": 4120,
      "Ġsocc": 4121,
      "amond": 4122,
      "aded": 4123,
      "ĠBill": 4124,
      "ĠBaby": 4125,
      "chair": 4126,
      "Ġisn": 4127,
      "Ġwhale": 4128,
      "ĠIts": 4129,
      "Ġneat": 4130,
      "ĠMaisy": 4131,
      "ĠMike": 4132,
      "ĠMama": 4133,
      "Ġseas": 4134,
      "Ġboots": 4135,
      "Ġspike": 4136,
      "Ġspiders": 4137,
      "Ġjam": 4138,
      "uring": 4139,
      "icing": 4140,
      "Ġallowed": 4141,
      "Ġclue": 4142,
      "Ġknight": 4143,
      "Ġnoisy": 4144,
      "Ġnobody": 4145,
      "Ġmeasured": 4146,
      "ases": 4147,
      "Ġalive": 4148,
      "ĠWould": 4149,
      "ĠWho": 4150,
      "agreed": 4151,
      "Ġchores": 4152,
      "Ġchubb": 4153,
      "Ġcharming": 4154,
      "Ġrang": 4155,
      "Ġmakeup": 4156,
      "Ġflight": 4157,
      "ĠLook": 4158,
      "ĠLinda": 4159,
      "Ġcoats": 4160,
      "Ġnews": 4161,
      "Ġnewsp": 4162,
      "Ġvac": 4163,
      "rosc": 4164,
      "ĠDid": 4165,
      "Ġtrack": 4166,
      "Ġdownstairs": 4167,
      "Ġballs": 4168,
      "aces": 4169,
      "Ġsword": 4170,
      "Ġstrang": 4171,
      "Ġstruggle": 4172,
      "Ġpoked": 4173,
      "Ġpoem": 4174,
      "Ġslipp": 4175,
      "Ġcats": 4176,
      "Ġencou": 4177,
      "Ġadorable": 4178,
      "Ġteam": 4179,
      "Ġteleph": 4180,
      "Ġoverjoy": 4181,
      "emo": 4182,
      "ement": 4183,
      "Ġcomb": 4184,
      "Ġoffice": 4185,
      "Ġofficer": 4186,
      "ÅĵMommy": 4187,
      "ÅĵHello": 4188,
      "Ġchef": 4189,
      "Ġraise": 4190,
      "Ġraised": 4191,
      "Ġended": 4192,
      "Ġsnail": 4193,
      "Ġsniff": 4194,
      "Ġcolours": 4195,
      "Ġshouldn": 4196,
      "Ġexplorers": 4197,
      "Ġamazement": 4198,
      "Ġrealize": 4199,
      "Ġafternoon": 4200,
      "Ġdisagreed": 4201,
      "Ġworks": 4202,
      "Ġfollowing": 4203,
      "Ġheaded": 4204,
      "issa": 4205,
      "Thanks": 4206,
      "ĠNora": 4207,
      "ĠNemo": 4208,
      "ĠPixie": 4209,
      "ffic": 4210,
      "Ġdressed": 4211,
      "Ġunpack": 4212,
      "Ġuncom": 4213,
      "Ġunhappy": 4214,
      "Ġapples": 4215,
      "Ġbowed": 4216,
      "Ġjokes": 4217,
      "Ġprinting": 4218,
      "Ġprecious": 4219,
      "Ġperm": 4220,
      "Ġdeeper": 4221,
      "Ġreads": 4222,
      "Ġelf": 4223,
      "Ġtraffic": 4224,
      "Ġrestless": 4225,
      "Ġsuff": 4226,
      "Ġsailing": 4227,
      "Ġfirefly": 4228,
      "Ġfiremen": 4229,
      "Ġarmchair": 4230,
      "Ġhills": 4231,
      "Ġhaircut": 4232,
      "Ġpetals": 4233,
      "Ġowners": 4234,
      "Ġbuckle": 4235,
      "Ġcutting": 4236,
      "Ġcomplet": 4237,
      "Ġunderstanding": 4238,
      "Ġfalling": 4239,
      "Ġpushes": 4240,
      "Ġsandcast": 4241,
      "Ġdancer": 4242,
      "Ġpromise": 4243,
      "Ġgrowled": 4244,
      "Ġattention": 4245,
      "lfie": 4246,
      "Ġfolding": 4247,
      "Ġmint": 4248,
      "ĠFred": 4249,
      "Ġspeak": 4250,
      "Ġpatiently": 4251,
      "fortunately": 4252,
      "Ġpiano": 4253,
      "Ġinstr": 4254,
      "Ġdiamond": 4255,
      "Ġrides": 4256,
      "Ġwagged": 4257,
      "Ġcreatures": 4258,
      "Ġwraps": 4259,
      "Ġearlier": 4260,
      "Ġadding": 4261,
      "Ġchoice": 4262,
      "Ġspring": 4263,
      "Ġmarbles": 4264,
      "Ġskips": 4265,
      "Ġglowed": 4266,
      "Ġstudying": 4267,
      "ĠKari": 4268,
      "Ġwipe": 4269,
      "Ġincred": 4270,
      "Ġfrowning": 4271,
      "Ġmotorcy": 4272,
      "Ġigloo": 4273,
      "Ġtickled": 4274,
      "Ġlively": 4275,
      "ĠOliver": 4276,
      "Ġhonk": 4277,
      "Ġleaks": 4278,
      "Together": 4279,
      "ĠAnny": 4280,
      "ĠAnnie": 4281,
      "Ġclassroom": 4282,
      "Ġscreams": 4283,
      "Ġorganized": 4284,
      "Freddy": 4285,
      "Ġmachines": 4286,
      "Ġmistakes": 4287,
      "Ġmasks": 4288,
      "Ġsteps": 4289,
      "Ġleader": 4290,
      "ĠCharles": 4291,
      "Ġbelts": 4292,
      "Ġribbon": 4293,
      "Ġignorant": 4294,
      "Ġapologized": 4295,
      "Ġapologize": 4296,
      "looking": 4297,
      "Ġolive": 4298,
      "Ġspilled": 4299,
      "Ġexperience": 4300,
      "Ġbalanc": 4301,
      "Ġbalance": 4302,
      "Ġshelter": 4303,
      "Ġshelves": 4304,
      "Ġargue": 4305,
      "Ġargued": 4306,
      "Ġunlock": 4307,
      "Ġsettle": 4308,
      "Ġsettled": 4309,
      "Ġbasement": 4310,
      "Ġrefle": 4311,
      "Ġleaned": 4312,
      "Ġagreement": 4313,
      "Ġsupply": 4314,
      "Ġincluded": 4315,
      "Ġfilthy": 4316,
      "Ġstuffed": 4317,
      "Ġreceive": 4318,
      "Ġchirp": 4319,
      "Ġcrowd": 4320,
      "Charlie": 4321,
      "Ġpajam": 4322,
      "Ġpossess": 4323,
      "Ġlandscape": 4324,
      "Ġstrawberry": 4325,
      "Unfortunately": 4326,
      "eath": 4327,
      "Ġsuggested": 4328,
      "Ġbicycle": 4329,
      "Ġdemand": 4330,
      "Ġmicrosc": 4331,
      "Ġtwirled": 4332,
      "ÅĵThatÃ¢": 4333,
      "Ġattractive": 4334,
      "ĠBrownie": 4335,
      "Ġbanana": 4336,
      "Leo": 4337,
      "Yeah": 4338,
      "hloe": 4339,
      "larissa": 4340,
      "Ġtutor": 4341,
      "Ġslept": 4342,
      "Ġbarely": 4343,
      "Ġfirm": 4344,
      "Ġluxu": 4345,
      "Ġdessert": 4346,
      "Ġthroat": 4347,
      "Ġstraight": 4348,
      "Ġstadium": 4349,
      "Ġsoccer": 4350,
      "Ġchubby": 4351,
      "Ġnewspap": 4352,
      "Ġvacation": 4353,
      "Ġstrangers": 4354,
      "Ġslippery": 4355,
      "Ġtelephone": 4356,
      "Ġoverjoyed": 4357,
      "Ġuncomfortable": 4358,
      "Ġsandcastles": 4359,
      "Ġmotorcycle": 4360,
      "Ġpajamas": 4361,
      "Ġmicroscope": 4362,
      "Ann": 4363,
      "By": 4364,
      "Ex": 4365,
      "Henry": 4366,
      "June": 4367,
      "Lola": 4368,
      "Qu": 4369,
      "Rita": 4370,
      "Unt": 4371,
      "Will": 4372,
      "ait": 4373,
      "aked": 4374,
      "aving": 4375,
      "abbit": 4376,
      "bw": 4377,
      "bes": 4378,
      "boo": 4379,
      "big": 4380,
      "book": 4381,
      "ci": 4382,
      "cin": 4383,
      "come": 4384,
      "ding": 4385,
      "eer": 4386,
      "eak": 4387,
      "eens": 4388,
      "ealed": 4389,
      "face": 4390,
      "iv": 4391,
      "ivered": 4392,
      "iately": 4393,
      "ker": 4394,
      "lau": 4395,
      "oss": 4396,
      "pet": 4397,
      "pair": 4398,
      "rup": 4399,
      "redient": 4400,
      "sing": 4401,
      "uby": 4402,
      "ws": 4403,
      "wor": 4404,
      "xe": 4405,
      "xi": 4406,
      "zing": 4407,
      "zie": 4408,
      "Ġing": 4409,
      "hee": 4410,
      "hells": 4411,
      "Ġtar": 4412,
      "Ġtip": 4413,
      "Ġaxe": 4414,
      "Ġson": 4415,
      "Ġsigh": 4416,
      "Ġwing": 4417,
      "Ġwig": 4418,
      "Ġwine": 4419,
      "Ġwider": 4420,
      "ndar": 4421,
      "ndma": 4422,
      "Ġbi": 4423,
      "Ġbes": 4424,
      "Ġbang": 4425,
      "Ġbones": 4426,
      "Ġtoes": 4427,
      "Ġtodd": 4428,
      "Ġhur": 4429,
      "Ġhive": 4430,
      "res": 4431,
      "reen": 4432,
      "rease": 4433,
      "reci": 4434,
      "Ġwaff": 4435,
      "Ġfut": 4436,
      "Ġfas": 4437,
      "Ġfought": 4438,
      "Ġfash": 4439,
      "Ġfreed": 4440,
      "Ġlow": 4441,
      "Ġlower": 4442,
      "Ġlumber": 4443,
      "Ġcow": 4444,
      "Ġcough": 4445,
      "Ġcaut": 4446,
      "Ġcale": 4447,
      "Ġcity": 4448,
      "erma": 4449,
      "Ġdive": 4450,
      "Ġdire": 4451,
      "Ġhesit": 4452,
      "Ġmel": 4453,
      "Ġmerma": 4454,
      "ĠTilly": 4455,
      "ĠTony": 4456,
      "oming": 4457,
      "omas": 4458,
      "ompl": 4459,
      "aroo": 4460,
      "ising": 4461,
      "Ġga": 4462,
      "iled": 4463,
      "ilbur": 4464,
      "enge": 4465,
      "ating": 4466,
      "Ġnone": 4467,
      "Ġnumb": 4468,
      "ĠSh": 4469,
      "ĠSorry": 4470,
      "ĠSkip": 4471,
      "Ġhall": 4472,
      "any": 4473,
      "iment": 4474,
      "Ġthird": 4475,
      "Ġok": 4476,
      "Ġoats": 4477,
      "leted": 4478,
      "ĠHall": 4479,
      "ety": 4480,
      "etty": 4481,
      "Ġeff": 4482,
      "Ġbelly": 4483,
      "Ġstation": 4484,
      "Ġstirr": 4485,
      "Ġshed": 4486,
      "Ġshell": 4487,
      "Ġshells": 4488,
      "ceed": 4489,
      "Ġsore": 4490,
      "Ġsoap": 4491,
      "Ġsoak": 4492,
      "Ġonward": 4493,
      "Ġonwards": 4494,
      "Ġweap": 4495,
      "stum": 4496,
      "Ġlick": 4497,
      "Ġlips": 4498,
      "Ġlibr": 4499,
      "Ġlicks": 4500,
      "ĠBig": 4501,
      "chief": 4502,
      "ung": 4503,
      "Ġshot": 4504,
      "Ġshave": 4505,
      "allenge": 4506,
      "seum": 4507,
      "seek": 4508,
      "Ġdolly": 4509,
      "hter": 4510,
      "htub": 4511,
      "Ġkings": 4512,
      "Ġkang": 4513,
      "Ġrele": 4514,
      "Ġreind": 4515,
      "Ġrecept": 4516,
      "Ġresc": 4517,
      "Ġrepair": 4518,
      "ugged": 4519,
      "ĠMel": 4520,
      "ĠMouse": 4521,
      "ĠMiss": 4522,
      "ĠMinnie": 4523,
      "Ġsew": 4524,
      "Ġsawing": 4525,
      "Ġweren": 4526,
      "!\",": 4527,
      "Ġgobbled": 4528,
      "Ġtools": 4529,
      "ĠAlfie": 4530,
      "Ġspook": 4531,
      "Ġlogs": 4532,
      "Ġlosing": 4533,
      "Ġjolly": 4534,
      "urb": 4535,
      "ĠJosh": 4536,
      "ighting": 4537,
      "Ġcluck": 4538,
      "Ġknot": 4539,
      "Ġhelper": 4540,
      "ĠWh": 4541,
      "ĠWinnie": 4542,
      "Ġchallenge": 4543,
      "Ġroaring": 4544,
      "Ġscaring": 4545,
      "Ġscale": 4546,
      "Ġscold": 4547,
      "Ġworth": 4548,
      "Ġcarpet": 4549,
      "Ġblood": 4550,
      "Ġflav": 4551,
      "ĠLiz": 4552,
      "ĠLike": 4553,
      "ĠListen": 4554,
      "Ġcoco": 4555,
      "Ġcoins": 4556,
      "Ġcobw": 4557,
      "Ġcostum": 4558,
      "ella": 4559,
      "Ġmuseum": 4560,
      "ooks": 4561,
      "uckily": 4562,
      "Ġprank": 4563,
      "Ġvet": 4564,
      "Ġcareless": 4565,
      "Ġtaxi": 4566,
      "ĠDave": 4567,
      "ushes": 4568,
      "Ġlotion": 4569,
      "Ġthoughtful": 4570,
      "antly": 4571,
      "Ġmoves": 4572,
      "ĠFirst": 4573,
      "Ġlaughter": 4574,
      "Ġpoke": 4575,
      "ĠdidnÃ¢": 4576,
      "Ġqueens": 4577,
      "ĠEveryday": 4578,
      "angled": 4579,
      "Ġsunlight": 4580,
      "Ġsunsc": 4581,
      "Ġfoal": 4582,
      "Ġrooms": 4583,
      "Ġorder": 4584,
      "Ġeaten": 4585,
      "Ġpretti": 4586,
      "Ġcomm": 4587,
      "Ġcompl": 4588,
      "Ġhandker": 4589,
      "ÅĵW": 4590,
      "ÅĵThank": 4591,
      "ÅĵDo": 4592,
      "Ġcubes": 4593,
      "Ġcheek": 4594,
      "izing": 4595,
      "ĠCindy": 4596,
      "ĠChloe": 4597,
      "Ġbuzz": 4598,
      "ĠGet": 4599,
      "ĠGood": 4600,
      "ĠGeorge": 4601,
      "Ġimmed": 4602,
      "Ġfright": 4603,
      "Ġclearing": 4604,
      "Ġsnake": 4605,
      "Ġsneak": 4606,
      "Ġletting": 4607,
      "Ġbravery": 4608,
      "Ġwrites": 4609,
      "Ġstrongest": 4610,
      "Ġbadly": 4611,
      "Ġconn": 4612,
      "Ġwaits": 4613,
      "Ġleaking": 4614,
      "Ġgreet": 4615,
      "Ġruining": 4616,
      "Ġshouts": 4617,
      "Ġshouting": 4618,
      "Ġdishes": 4619,
      "Ġourselves": 4620,
      "Ġblocked": 4621,
      "Ġlistens": 4622,
      "though": 4623,
      "ĠNot": 4624,
      "Ġbroom": 4625,
      "Ġtalent": 4626,
      "Ġdresser": 4627,
      "Ġpretends": 4628,
      "Ġsquealed": 4629,
      "Ġbites": 4630,
      "Ġapplau": 4631,
      "Ġappreci": 4632,
      "ounting": 4633,
      "ĠThomas": 4634,
      "Ġsinger": 4635,
      "Ġbaking": 4636,
      "Ġhated": 4637,
      "Ġpressed": 4638,
      "Ġripped": 4639,
      "ĠInst": 4640,
      "Jacky": 4641,
      "Ġhorn": 4642,
      "Ġhorses": 4643,
      "ĠRex": 4644,
      "Ġdrawer": 4645,
      "Ġfrosting": 4646,
      "Ġseems": 4647,
      "Ġwooden": 4648,
      "Ġarrive": 4649,
      "Ġbatter": 4650,
      "Ġbathtub": 4651,
      "Ġcompany": 4652,
      "Ġcompleted": 4653,
      "peat": 4654,
      "Ġclaws": 4655,
      "Ġblackboard": 4656,
      "ĠwonÃ¢": 4657,
      "Ġperfectly": 4658,
      "Ġfallen": 4659,
      "Ġmoments": 4660,
      "Ġpaintbr": 4661,
      "Ġsigns": 4662,
      "Ġsparkle": 4663,
      "Ġfigured": 4664,
      "Ġplanted": 4665,
      "Ġattach": 4666,
      "Ġattached": 4667,
      "Ġwelcomed": 4668,
      "Ġwarning": 4669,
      "Ġmuscles": 4670,
      "Ġmouths": 4671,
      "Ġminer": 4672,
      "Ġshrugged": 4673,
      "Ġdrinks": 4674,
      "Ġpraised": 4675,
      "Ġimagine": 4676,
      "Ġhearts": 4677,
      "Ġcrazy": 4678,
      "Ġdiving": 4679,
      "ĠSomeone": 4680,
      "Ġwrap": 4681,
      "ĠLeave": 4682,
      "Ġpebbles": 4683,
      "Ġneighbors": 4684,
      "Ġbreathe": 4685,
      "Ġbounced": 4686,
      "Ġaccompl": 4687,
      "Ġsafety": 4688,
      "Ġsolut": 4689,
      "Ġproblems": 4690,
      "Ġpracticing": 4691,
      "Ġrespectful": 4692,
      "Ġdisturb": 4693,
      "ĠGod": 4694,
      "Ġentire": 4695,
      "Ġserve": 4696,
      "Ġwipes": 4697,
      "Ġvalue": 4698,
      "Ġtrusted": 4699,
      "Inside": 4700,
      "Ġsurround": 4701,
      "Ġsurface": 4702,
      "Ġeagerly": 4703,
      "Ġactually": 4704,
      "Ġcherries": 4705,
      "Ġflutter": 4706,
      "ĠOr": 4707,
      "ĠOw": 4708,
      "Ġwhistling": 4709,
      "Ġselling": 4710,
      "Ġglasses": 4711,
      "Ġvehicles": 4712,
      "Ġdestination": 4713,
      "ĠSnail": 4714,
      "Ġvideos": 4715,
      "Ġaccepted": 4716,
      "Ġyawn": 4717,
      "ĠBlue": 4718,
      "Ġexamined": 4719,
      "Ġrubber": 4720,
      "Ġplanets": 4721,
      "Ġmemory": 4722,
      "Ġscratch": 4723,
      "Ġquestion": 4724,
      "Ġtugged": 4725,
      "Ġsucceed": 4726,
      "Ġitchy": 4727,
      "Ġdusty": 4728,
      "Ġrefres": 4729,
      "Ġsneeze": 4730,
      "Ġimproved": 4731,
      "Ġcooked": 4732,
      "Ġcooking": 4733,
      "Ġmayor": 4734,
      "Ġnails": 4735,
      "Ġvanished": 4736,
      "Ġintroduc": 4737,
      "Ġintroduce": 4738,
      "Ġordered": 4739,
      "Ġmarching": 4740,
      "Ġpoints": 4741,
      "Ġharmless": 4742,
      "Grandma": 4743,
      "Ġachieve": 4744,
      "Ġcuddled": 4745,
      "ÅĵItÃ¢": 4746,
      "Ġtucked": 4747,
      "Ġsyrup": 4748,
      "Ġpaddled": 4749,
      "ĠStan": 4750,
      "Ġmuffin": 4751,
      "Ġskills": 4752,
      "Ġcrunchy": 4753,
      "Ġcrystal": 4754,
      "Ġpattern": 4755,
      "Ġstudied": 4756,
      "Ġbeginning": 4757,
      "Ġyucky": 4758,
      "Ġseashells": 4759,
      "Ġchefs": 4760,
      "Ġsuffer": 4761,
      "Ġcomplete": 4762,
      "Ġinstrum": 4763,
      "Ġincredible": 4764,
      "Ġchirping": 4765,
      "Ġdemanded": 4766,
      "Ġnewspaper": 4767,
      "Until": 4768,
      "bigail": 4769,
      "redients": 4770,
      "work": 4771,
      "Ġingredients": 4772,
      "Ġbeside": 4773,
      "Ġtoddler": 4774,
      "Ġwaffles": 4775,
      "Ġfuture": 4776,
      "Ġfascin": 4777,
      "Ġfashion": 4778,
      "Ġfreedom": 4779,
      "Ġcalendar": 4780,
      "Ġmelon": 4781,
      "Ġmermaid": 4782,
      "Ġnumbers": 4783,
      "Ġeffort": 4784,
      "Ġstirred": 4785,
      "Ġweapon": 4786,
      "Ġkangaroo": 4787,
      "Ġreindeer": 4788,
      "Ġreception": 4789,
      "Ġrescue": 4790,
      "Ġspooky": 4791,
      "ĠLizzie": 4792,
      "Ġcocoa": 4793,
      "Ġcobweb": 4794,
      "Ġsunscreen": 4795,
      "Ġprettiest": 4796,
      "Ġhandkerchief": 4797,
      "Ġimmediately": 4798,
      "!'": 4799,
      "Al": 4800,
      "Boo": 4801,
      "Clarissa": 4802,
      "Danny": 4803,
      "Fl": 4804,
      "Ginger": 4805,
      "Ha": 4806,
      "Jake": 4807,
      "Joy": 4808,
      "Like": 4809,
      "Luckily": 4810,
      "Milly": 4811,
      "Miss": 4812,
      "Mrs": 4813,
      "Mae": 4814,
      "Ok": 4815,
      "Polly": 4816,
      "Paul": 4817,
      "Re": 4818,
      "Rem": 4819,
      "Rachel": 4820,
      "Sl": 4821,
      "Sp": 4822,
      "Since": 4823,
      "Uh": 4824,
      "Very": 4825,
      "With": 4826,
      "Yum": 4827,
      "cing": 4828,
      "ces": 4829,
      "cuss": 4830,
      "dies": 4831,
      "ef": 4832,
      "eep": 4833,
      "hh": 4834,
      "house": 4835,
      "iar": 4836,
      "ien": 4837,
      "ived": 4838,
      "ipt": 4839,
      "mat": 4840,
      "mare": 4841,
      "mble": 4842,
      "nies": 4843,
      "oed": 4844,
      "oves": 4845,
      "pite": 4846,
      "rr": 4847,
      "ray": 4848,
      "rily": 4849,
      "right": 4850,
      "son": 4851,
      "tain": 4852,
      "uri": 4853,
      "uly": 4854,
      "uzy": 4855,
      "wo": 4856,
      "ware": 4857,
      "walk": 4858,
      "ym": 4859,
      "ĊĠ": 4860,
      "Ġx": 4861,
      "ĠĠ": 4862,
      "ĠĠĊ": 4863,
      "ĠYes": 4864,
      "ĠOh": 4865,
      "ĠUntil": 4866,
      "Ġtiss": 4867,
      "Ġtire": 4868,
      "Ġtangled": 4869,
      "Ġtipt": 4870,
      "Ġsway": 4871,
      "Ġsense": 4872,
      "Ġsib": 4873,
      "Ġwest": 4874,
      "Ġwire": 4875,
      "Ġtheat": 4876,
      "Ġtherm": 4877,
      "Ġtheater": 4878,
      "edy": 4879,
      "Ġber": 4880,
      "Ġboo": 4881,
      "Ġbri": 4882,
      "Ġtore": 4883,
      "Ġtour": 4884,
      "Ġtonight": 4885,
      "Ġtomat": 4886,
      "ress": 4887,
      "repeat": 4888,
      "Ġfat": 4889,
      "Ġfle": 4890,
      "Ġfet": 4891,
      "ither": 4892,
      "ition": 4893,
      "itely": 4894,
      "Ġlect": 4895,
      "Ġlined": 4896,
      "Ġlaser": 4897,
      "Ġcree": 4898,
      "Ġcell": 4899,
      "Ġcable": 4900,
      "Ġcows": 4901,
      "Ġcert": 4902,
      "erce": 4903,
      "erged": 4904,
      "ercy": 4905,
      "Ġdic": 4906,
      "Ġdried": 4907,
      "Ġdie": 4908,
      "Ġdips": 4909,
      "Ġheaven": 4910,
      "Ġmen": 4911,
      "Ġmall": 4912,
      "Ġmice": 4913,
      "Ġmild": 4914,
      "Ġmass": 4915,
      "Ġpout": 4916,
      "Ġpitc": 4917,
      "Ġpair": 4918,
      "Ġpots": 4919,
      "Ġwashed": 4920,
      "Ġwasted": 4921,
      "ĠTues": 4922,
      "ĠTwo": 4923,
      "onse": 4924,
      "isf": 4925,
      "ison": 4926,
      "Ġgro": 4927,
      "Ġgained": 4928,
      "Ġgym": 4929,
      "iling": 4930,
      "ids": 4931,
      "idges": 4932,
      "ĠSay": 4933,
      "ĠSure": 4934,
      "ĠSkeleton": 4935,
      "ĠSimon": 4936,
      "orn": 4937,
      "Ġoas": 4938,
      "ĠHave": 4939,
      "Ġhers": 4940,
      "Ġevent": 4941,
      "Ġeast": 4942,
      "Ġrat": 4943,
      "Ġrow": 4944,
      "Ġrust": 4945,
      "Ġrush": 4946,
      "Ġbead": 4947,
      "Ġbegs": 4948,
      "Ġstri": 4949,
      "Ġstro": 4950,
      "Ġstem": 4951,
      "Ġstage": 4952,
      "Ġstair": 4953,
      "Ġsoared": 4954,
      "Ġsoaring": 4955,
      "Ġplates": 4956,
      "ric": 4957,
      "riage": 4958,
      "Ġplayer": 4959,
      "Ġplayers": 4960,
      "stick": 4961,
      "elcome": 4962,
      "ĠBy": 4963,
      "ĠBoth": 4964,
      "ĠBella": 4965,
      "ching": 4966,
      "entured": 4967,
      "Ġshoo": 4968,
      "Ġshade": 4969,
      "Ġshiver": 4970,
      "Ġshivered": 4971,
      "itten": 4972,
      "Ġwanting": 4973,
      "Ġhappier": 4974,
      "hero": 4975,
      "herman": 4976,
      "Ġwhip": 4977,
      "Ġwhoosh": 4978,
      "alph": 4979,
      "Ġtimer": 4980,
      "ĠĊĊ": 4981,
      "Ġreward": 4982,
      "Ġrevers": 4983,
      "Ġresist": 4984,
      "Ġreef": 4985,
      "ĠMr": 4986,
      "Ġann": 4987,
      "terday": 4988,
      "Ġarea": 4989,
      "Ġaren": 4990,
      "Ġgold": 4991,
      "Ġgolf": 4992,
      "Ġspat": 4993,
      "Ġspirit": 4994,
      "Ġspaces": 4995,
      "illa": 4996,
      "Ġoutd": 4997,
      "Ġjail": 4998,
      "Ġjunk": 4999,
      "Ġbacked": 5000,
      "umble": 5001,
      "Ġnoon": 5002,
      "Ġfeast": 5003,
      "ometer": 5004,
      "opes": 5005,
      "Ġmane": 5006,
      "Ġbride": 5007,
      "Ġbrushed": 5008,
      "Ġbridges": 5009,
      "Ġalright": 5010,
      "Ġfauc": 5011,
      "Ġfact": 5012,
      "ĠWilbur": 5013,
      "Ġrod": 5014,
      "Ġroar": 5015,
      "Ġrode": 5016,
      "Ġscoop": 5017,
      "Ġworm": 5018,
      "Ġwhatever": 5019,
      "Ġcaring": 5020,
      "Ġcarries": 5021,
      "Ġflapped": 5022,
      "ĠLater": 5023,
      "Ġcosy": 5024,
      "Ġbirdie": 5025,
      "Ġputting": 5026,
      "Ġvess": 5027,
      "Ġventured": 5028,
      "place": 5029,
      "Ġdecis": 5030,
      "Ġdads": 5031,
      "Ġgotten": 5032,
      "uddles": 5033,
      "Ġtrump": 5034,
      "Ġtruly": 5035,
      "Ġgrabb": 5036,
      "Ġbecoming": 5037,
      "act": 5038,
      "aced": 5039,
      "Ġstruck": 5040,
      "Ġstrugg": 5041,
      "Ġstruggled": 5042,
      "Ġpoison": 5043,
      "apot": 5044,
      "Ġwilling": 5045,
      "Ġtwink": 5046,
      "Ġexplo": 5047,
      "Ġwatches": 5048,
      "inkles": 5049,
      "Ġanyway": 5050,
      "Ġfond": 5051,
      "Ġcatches": 5052,
      "Ġenvel": 5053,
      "Ġadult": 5054,
      "Ġtem": 5055,
      "Ġtear": 5056,
      "Ġteased": 5057,
      "Ġteapot": 5058,
      "Ġeats": 5059,
      "ember": 5060,
      "Ġcomfort": 5061,
      "Ġdollhouse": 5062,
      "Ġgloves": 5063,
      "ÅĵHi": 5064,
      "ÅĵWhy": 5065,
      "ÅĵOf": 5066,
      "ÅĵMy": 5067,
      "ÅĵNow": 5068,
      "Ġusual": 5069,
      "Ġcheap": 5070,
      "izon": 5071,
      "ĠCounting": 5072,
      "Ġraked": 5073,
      "Ġraven": 5074,
      "Ġkindly": 5075,
      "Ġsurprises": 5076,
      "ĠGinger": 5077,
      "Ġgrant": 5078,
      "Ġending": 5079,
      "Ġsnoo": 5080,
      "Ġsnatched": 5081,
      "Ġbeds": 5082,
      "Ġhurting": 5083,
      "Ġfierce": 5084,
      "Ġbrand": 5085,
      "Ġbrain": 5086,
      "Ġwriting": 5087,
      "Ġwritten": 5088,
      "Ġwonders": 5089,
      "Ġdear": 5090,
      "Ġowned": 5091,
      "Ġconf": 5092,
      "Ġconvers": 5093,
      "Ġclimbs": 5094,
      "Ġideas": 5095,
      "Ġgreedy": 5096,
      "Ġpainting": 5097,
      "Ġrealizes": 5098,
      "Ġtremble": 5099,
      "Ġvoices": 5100,
      "Ġkeeps": 5101,
      "Ġdiscuss": 5102,
      "Ġours": 5103,
      "Ġlistening": 5104,
      "Ġwarmly": 5105,
      "Ġsweets": 5106,
      "Ġsweeties": 5107,
      "ĠPercy": 5108,
      "ĠPuddles": 5109,
      "Ġcuriously": 5110,
      "ĠJohnson": 5111,
      "Ġtelling": 5112,
      "Ġbehav": 5113,
      "Ġbehaving": 5114,
      "Ġpatience": 5115,
      "Ġpulling": 5116,
      "Ġseesaw": 5117,
      "Ġunk": 5118,
      "Ġunw": 5119,
      "Ġuniver": 5120,
      "Ġreplaced": 5121,
      "Ġfoods": 5122,
      "Ġdarker": 5123,
      "Ġnightmare": 5124,
      "Ġfills": 5125,
      "Ġfloats": 5126,
      "Ġraining": 5127,
      "Ġbrighter": 5128,
      "Ġdrift": 5129,
      "Ġbreaking": 5130,
      "Ġzigzag": 5131,
      "Ġprevent": 5132,
      "Ġgranddad": 5133,
      "Ġhorizon": 5134,
      "Ġsteep": 5135,
      "ĠRain": 5136,
      "ĠRita": 5137,
      "ĠRabbit": 5138,
      "ĠRalph": 5139,
      "Ġparties": 5140,
      "Ġtrains": 5141,
      "Ġsoftly": 5142,
      "Ġsecrets": 5143,
      "Ġtails": 5144,
      "Ġcreation": 5145,
      "Ġsatisf": 5146,
      "Ġcountry": 5147,
      "Ġpetted": 5148,
      "ĠSpirit": 5149,
      "Ġrolls": 5150,
      "Ġrolling": 5151,
      "Ġcompared": 5152,
      "ĠTodd": 5153,
      "Ġlioness": 5154,
      "raging": 5155,
      "Ġspoons": 5156,
      "Ġtrick": 5157,
      "Ġtricks": 5158,
      "Ġduckling": 5159,
      "Ġfreeze": 5160,
      "Ġsidewalk": 5161,
      "Ġnaughtiness": 5162,
      "Ġsparkles": 5163,
      "Ġkittens": 5164,
      "Ġprove": 5165,
      "Ġfurther": 5166,
      "umbling": 5167,
      "Ġcastles": 5168,
      "Ġemerged": 5169,
      "Ġmailed": 5170,
      "Ġbeneath": 5171,
      "Ġheavier": 5172,
      "Ġwinter": 5173,
      "Ġmissing": 5174,
      "Ġmission": 5175,
      "Ġimagining": 5176,
      "ounced": 5177,
      "Ġgathering": 5178,
      "Ġforgetting": 5179,
      "Ġceiling": 5180,
      "Ġresponse": 5181,
      "Ġneighborhood": 5182,
      "Ġwandering": 5183,
      "ĠAlthough": 5184,
      "Ġtwisting": 5185,
      "Ġhopeful": 5186,
      "creams": 5187,
      "Ġsprinkles": 5188,
      "Ġmotion": 5189,
      "Ġpirates": 5190,
      "Ġchews": 5191,
      "Ġfaced": 5192,
      "Ġscreen": 5193,
      "Ġtidying": 5194,
      "Before": 5195,
      "Ġsource": 5196,
      "ĠHowever": 5197,
      "Ġpiles": 5198,
      "Ġincrease": 5199,
      "Ġcheering": 5200,
      "Ġmonkeys": 5201,
      "Meow": 5202,
      "Ġspoiled": 5203,
      "Ġcoloured": 5204,
      "Ġthumbs": 5205,
      "Ġpenguins": 5206,
      "Ġawake": 5207,
      "Ġpops": 5208,
      "Ġorganizing": 5209,
      "Ġpuzzles": 5210,
      "Ġfisherman": 5211,
      "Ġclaps": 5212,
      "Ġfloating": 5213,
      "ĠIsn": 5214,
      "Ġjackets": 5215,
      "Ġjogged": 5216,
      "Ġdrops": 5217,
      "Ġtested": 5218,
      "Ġburn": 5219,
      "Ġhuman": 5220,
      "Ġpowers": 5221,
      "Ġsalty": 5222,
      "Ġspending": 5223,
      "Ġspilling": 5224,
      "Ġexperiment": 5225,
      "Ġexperien": 5226,
      "Ġhelmets": 5227,
      "Ġscratched": 5228,
      "Ġzoomed": 5229,
      "Ġpreparing": 5230,
      "Ġprovided": 5231,
      "Ġavocados": 5232,
      "arian": 5233,
      "Ġseparate": 5234,
      "Ġimpress": 5235,
      "Ġunlocked": 5236,
      "Ġperforming": 5237,
      "Ġperformance": 5238,
      "Ġrecognize": 5239,
      "Ġpaws": 5240,
      "ĠBruce": 5241,
      "Ġreveal": 5242,
      "Ġleaning": 5243,
      "Ġsneezed": 5244,
      "Ġimprove": 5245,
      "Ġfilm": 5246,
      "Ġmentioned": 5247,
      "Ġreceived": 5248,
      "Ġexplaining": 5249,
      "Ġordinary": 5250,
      "Ġdesign": 5251,
      "Emily": 5252,
      "Grace": 5253,
      "tionary": 5254,
      "Ġachieved": 5255,
      "Ġsuperhero": 5256,
      "Ġcurly": 5257,
      "Ġcrossed": 5258,
      "Ġprize": 5259,
      "Ġfortune": 5260,
      "Ġdecorated": 5261,
      "Ġsqueeze": 5262,
      "Ġsuccessful": 5263,
      "Ġtongue": 5264,
      "Ġcottage": 5265,
      "Ġsausage": 5266,
      "Ġinsisting": 5267,
      "Ġtracks": 5268,
      "Ġencouraging": 5269,
      "Ġpermit": 5270,
      "Ġbalanced": 5271,
      "Ġreflection": 5272,
      "Ġpossessions": 5273,
      "Ġfirmly": 5274,
      "Ġluxury": 5275,
      "Exc": 5276,
      "Quick": 5277,
      "Ġdirection": 5278,
      "ĠHalley": 5279,
      "Ġreleased": 5280,
      "Ġcostumes": 5281,
      "ĠGoodbye": 5282,
      "Ġfrightened": 5283,
      "Ġconnected": 5284,
      "Ġgreeted": 5285,
      "ĠNothing": 5286,
      "Ġapplauded": 5287,
      "Ġmineral": 5288,
      "Ġsolution": 5289,
      "Ġdisturbed": 5290,
      "Ġintroduced": 5291,
      "Ġinstruments": 5292,
      "Ġfascinated": 5293,
      "Fluffy": 5294,
      "Remember": 5295,
      "Spot": 5296,
      "Ġtiptoed": 5297,
      "Ġsiblings": 5298,
      "Ġtheatre": 5299,
      "Ġthermometer": 5300,
      "Ġberries": 5301,
      "Ġbrick": 5302,
      "Ġtomato": 5303,
      "Ġlecture": 5304,
      "Ġcreek": 5305,
      "Ġcertain": 5306,
      "Ġdictionary": 5307,
      "Ġpitcher": 5308,
      "Ġgroc": 5309,
      "Ġoasis": 5310,
      "Ġbeads": 5311,
      "Ġreversing": 5312,
      "Ġfaucet": 5313,
      "Ġvessel": 5314,
      "Ġtrumpet": 5315,
      "Ġgrabbing": 5316,
      "Ġstruggling": 5317,
      "Ġconversation": 5318,
      "Ġbehavi": 5319,
      "!'.": 5320,
      "?!": 5321,
      "Abigail": 5322,
      "Betty": 5323,
      "Coo": 5324,
      "Claire": 5325,
      "Cindy": 5326,
      "Days": 5327,
      "Denise": 5328,
      "During": 5329,
      "Elly": 5330,
      "Even": 5331,
      "Fine": 5332,
      "Have": 5333,
      "Happy": 5334,
      "Josh": 5335,
      "Kari": 5336,
      "Listen": 5337,
      "Mor": 5338,
      "Mine": 5339,
      "Minnie": 5340,
      "Not": 5341,
      "Pixie": 5342,
      "Poor": 5343,
      "Ruby": 5344,
      "Sn": 5345,
      "Sometimes": 5346,
      "Sandy": 5347,
      "Sophie": 5348,
      "Susie": 5349,
      "Simon": 5350,
      "Tr": 5351,
      "Ted": 5352,
      "Take": 5353,
      "Tilly": 5354,
      "Teddy": 5355,
      "Vroom": 5356,
      "Wh": 5357,
      "Would": 5358,
      "Wait": 5359,
      "Whee": 5360,
      "Zigzag": 5361,
      "aved": 5362,
      "away": 5363,
      "ales": 5364,
      "apping": 5365,
      "cl": 5366,
      "cent": 5367,
      "cal": 5368,
      "dles": 5369,
      "eed": 5370,
      "ears": 5371,
      "eople": 5372,
      "fl": 5373,
      "fy": 5374,
      "found": 5375,
      "fire": 5376,
      "gg": 5377,
      "gum": 5378,
      "ha": 5379,
      "hi": 5380,
      "hoo": 5381,
      "hind": 5382,
      "ium": 5383,
      "just": 5384,
      "jured": 5385,
      "ks": 5386,
      "kins": 5387,
      "len": 5388,
      "mag": 5389,
      "na": 5390,
      "nk": 5391,
      "nes": 5392,
      "nce": 5393,
      "nels": 5394,
      "neath": 5395,
      "oll": 5396,
      "ody": 5397,
      "oors": 5398,
      "pool": 5399,
      "ru": 5400,
      "ron": 5401,
      "rot": 5402,
      "rings": 5403,
      "rows": 5404,
      "sity": 5405,
      "sult": 5406,
      "sitive": 5407,
      "tions": 5408,
      "ud": 5409,
      "und": 5410,
      "use": 5411,
      "ups": 5412,
      "ubs": 5413,
      "ude": 5414,
      "vo": 5415,
      "val": 5416,
      "we": 5417,
      "whe": 5418,
      "wim": 5419,
      "wise": 5420,
      "wort": 5421,
      "xious": 5422,
      "xible": 5423,
      "ys": 5424,
      "you": 5425,
      "yal": 5426,
      "Ëľ": 5427,
      "Ġ2": 5428,
      "ĠX": 5429,
      "ĠOnce": 5430,
      "Ġill": 5431,
      "ĠQuick": 5432,
      "Ġtv": 5433,
      "Ġtune": 5434,
      "Ġais": 5435,
      "Ġaunt": 5436,
      "Ġaimed": 5437,
      "Ġsus": 5438,
      "Ġsens": 5439,
      "Ġwed": 5440,
      "Ġwid": 5441,
      "Ġwow": 5442,
      "Ġwound": 5443,
      "Ġwoof": 5444,
      "ndles": 5445,
      "ednes": 5446,
      "Ġbin": 5447,
      "Ġbom": 5448,
      "Ġbak": 5449,
      "Ġbother": 5450,
      "Ġbars": 5451,
      "Ġbunch": 5452,
      "Ġbumpy": 5453,
      "Ġbinoc": 5454,
      "reased": 5455,
      "Ġfain": 5456,
      "Ġfest": 5457,
      "ouched": 5458,
      "itude": 5459,
      "Ġlitt": 5460,
      "Ġcamp": 5461,
      "eries": 5462,
      "Ġdar": 5463,
      "Ġdet": 5464,
      "Ġdish": 5465,
      "Ġdied": 5466,
      "Ġdipped": 5467,
      "Ġdepend": 5468,
      "Ġduring": 5469,
      "Ġheat": 5470,
      "Ġheel": 5471,
      "Ġmac": 5472,
      "Ġmunch": 5473,
      "Ġpry": 5474,
      "Ġpur": 5475,
      "Ġpand": 5476,
      "Ġpant": 5477,
      "Ġpause": 5478,
      "Ġpanc": 5479,
      "Ġpounced": 5480,
      "omes": 5481,
      "omped": 5482,
      "onment": 5483,
      "onna": 5484,
      "arl": 5485,
      "ishing": 5486,
      "isks": 5487,
      "Ġgle": 5488,
      "Ġgir": 5489,
      "Ġgain": 5490,
      "Ġgest": 5491,
      "Ġgonna": 5492,
      "iliar": 5493,
      "Ġnut": 5494,
      "ĠSour": 5495,
      "ĠSince": 5496,
      "ĠSuzy": 5497,
      "ĠSwim": 5498,
      "Ġsale": 5499,
      "Ġsank": 5500,
      "immer": 5501,
      "Ġitem": 5502,
      "Ġitches": 5503,
      "Ġthous": 5504,
      "Ġoh": 5505,
      "Ġobe": 5506,
      "Ġocc": 5507,
      "ĠHi": 5508,
      "irthday": 5509,
      "ironment": 5510,
      "ĠHello": 5511,
      "veral": 5512,
      "Ġink": 5513,
      "Ġinse": 5514,
      "Ġinter": 5515,
      "Ġinjured": 5516,
      "owly": 5517,
      "Ġeight": 5518,
      "Ġease": 5519,
      "Ġeither": 5520,
      "utching": 5521,
      "ooking": 5522,
      "oops": 5523,
      "ooped": 5524,
      "Ġyum": 5525,
      "Ġyield": 5526,
      "Ġrot": 5527,
      "Ġrings": 5528,
      "Ġrus": 5529,
      "Ġrip": 5530,
      "Ġrumble": 5531,
      "Ġropes": 5532,
      "Ġrisks": 5533,
      "Ġbeamed": 5534,
      "Ġbellow": 5535,
      "igg": 5536,
      "Ġstays": 5537,
      "Ġstaring": 5538,
      "Ġstomped": 5539,
      "celet": 5540,
      "Ġsoaked": 5541,
      "ambled": 5542,
      "Ġonion": 5543,
      "Ġplain": 5544,
      "ading": 5545,
      "ĠyouÃ¢": 5546,
      "Ġhissed": 5547,
      "Ġweb": 5548,
      "ĠweÃ¢": 5549,
      "Ġwept": 5550,
      "Ġwears": 5551,
      "Ġplaytime": 5552,
      "sted": 5553,
      "step": 5554,
      "sters": 5555,
      "stand": 5556,
      "eled": 5557,
      "elry": 5558,
      "eliness": 5559,
      "Ġlives": 5560,
      "ĠBye": 5561,
      "ĠBecause": 5562,
      "ĠBetty": 5563,
      "ĠBooks": 5564,
      "ĠBirthday": 5565,
      "changed": 5566,
      "ently": 5567,
      "unic": 5568,
      "Ġshown": 5569,
      "Ġshined": 5570,
      "ittered": 5571,
      "Ġhappiest": 5572,
      "Ġwhirl": 5573,
      "ĠItÃ¢": 5574,
      "ality": 5575,
      "Ġneare": 5576,
      "Ġrelease": 5577,
      "Ġreass": 5578,
      "Ġresult": 5579,
      "ĠfriendÃ¢": 5580,
      "Ġseveral": 5581,
      "Ġanxious": 5582,
      "Ġboom": 5583,
      "Ġbodies": 5584,
      "raged": 5585,
      "Ġtool": 5586,
      "ĠAn": 5587,
      "ĠAbigail": 5588,
      "Ġspell": 5589,
      "illed": 5590,
      "Ġloving": 5591,
      "Ġlocal": 5592,
      "Ġloyal": 5593,
      "Ġjars": 5594,
      "urried": 5595,
      "ainers": 5596,
      "Ġexchanged": 5597,
      "ictor": 5598,
      "Ġcans": 5599,
      "?\",": 5600,
      "Your": 5601,
      "Ġclub": 5602,
      "Ġclues": 5603,
      "Ġclubs": 5604,
      "Ġclutching": 5605,
      "Ġknives": 5606,
      "Ġmeat": 5607,
      "Ġmeowed": 5608,
      "Ġseeing": 5609,
      "ĠboyÃ¢": 5610,
      "ures": 5611,
      "âĤ¬Ëľ": 5612,
      "asion": 5613,
      "Ġsomebody": 5614,
      "Ġbrushes": 5615,
      "ĠWow": 5616,
      "ĠWatch": 5617,
      "ĠWednes": 5618,
      "Ġchill": 5619,
      "Ġchop": 5620,
      "Ġchases": 5621,
      "gets": 5622,
      "Ġage": 5623,
      "Ġscra": 5624,
      "Ġscore": 5625,
      "Ġscored": 5626,
      "Ġscales": 5627,
      "Ġscurried": 5628,
      "Ġcared": 5629,
      "Ġcarriage": 5630,
      "Ġhugging": 5631,
      "Ġblind": 5632,
      "Ġblouse": 5633,
      "Ġblob": 5634,
      "Ġblast": 5635,
      "Ġbloss": 5636,
      "Ġflap": 5637,
      "Ġfluff": 5638,
      "Ġotherwise": 5639,
      "Ġcocked": 5640,
      "Ġcovers": 5641,
      "ĠEx": 5642,
      "ests": 5643,
      "quake": 5644,
      "Ġnewfound": 5645,
      "Ġvictor": 5646,
      "plane": 5647,
      "ssment": 5648,
      "Ġdecl": 5649,
      "Ġthanking": 5650,
      "Ġtaped": 5651,
      "ĠDin": 5652,
      "Ġtrading": 5653,
      "used": 5654,
      "isted": 5655,
      "Ġhoot": 5656,
      "action": 5657,
      "bbly": 5658,
      "bborn": 5659,
      "Ġpeck": 5660,
      "Ġpecked": 5661,
      "Ġpearl": 5662,
      "Ġswell": 5663,
      "Ġswung": 5664,
      "Ġswoll": 5665,
      "Ġstrings": 5666,
      "ands": 5667,
      "ĠFighting": 5668,
      "Ġposit": 5669,
      "Ġpositive": 5670,
      "apey": 5671,
      "Ġwaters": 5672,
      "Ġkneeled": 5673,
      "Ġquar": 5674,
      "Ġquack": 5675,
      "Ġoper": 5676,
      "osed": 5677,
      "Ġslapped": 5678,
      "Ġslices": 5679,
      "Ġfog": 5680,
      "mail": 5681,
      "Ġhowever": 5682,
      "Ġenem": 5683,
      "ishy": 5684,
      "Ġadjust": 5685,
      "Ġtease": 5686,
      "Ġpickles": 5687,
      "Ġcomfy": 5688,
      "Ġuntie": 5689,
      "Ġglows": 5690,
      "Ġglittered": 5691,
      "ÅĵMom": 5692,
      "ÅĵWhat": 5693,
      "ÅĵLook": 5694,
      "ÅĵWow": 5695,
      "ÅĵJack": 5696,
      "ÅĵOh": 5697,
      "ÅĵHey": 5698,
      "Åĵhi": 5699,
      "Ġflowing": 5700,
      "Ġwobbly": 5701,
      "oys": 5702,
      "ĠCars": 5703,
      "ĠCaw": 5704,
      "ĠClarissa": 5705,
      "ĠCuri": 5706,
      "obody": 5707,
      "Ġbudge": 5708,
      "Ġbundles": 5709,
      "Ġsurprising": 5710,
      "Yesterday": 5711,
      "Ġcrouched": 5712,
      "Ġevening": 5713,
      "Ġremained": 5714,
      "Ġfamiliar": 5715,
      "Ġsnuck": 5716,
      "Ġsnap": 5717,
      "Ġsnapped": 5718,
      "Ġsnuggle": 5719,
      "Ġbye": 5720,
      "beh": 5721,
      "Ġlets": 5722,
      "ĠletÃ¢": 5723,
      "Ġunderground": 5724,
      "Ġunderneath": 5725,
      "Ġwindy": 5726,
      "Ġbracelet": 5727,
      "Whenever": 5728,
      "cts": 5729,
      "Ġthrilled": 5730,
      "Ġquicker": 5731,
      "Ġconv": 5732,
      "Ġconcent": 5733,
      "iously": 5734,
      "Ġcolored": 5735,
      "Ġdoors": 5736,
      "Ġimposs": 5737,
      "Ġstolen": 5738,
      "Ġtremb": 5739,
      "Ġrabbits": 5740,
      "Ġheading": 5741,
      "Ġpup": 5742,
      "Ġpuff": 5743,
      "Ġarrows": 5744,
      "thier": 5745,
      "ĠNice": 5746,
      "ĠPinky": 5747,
      "ĠPoor": 5748,
      "ĠPeople": 5749,
      "Ġwherever": 5750,
      "Ġdifference": 5751,
      "Ġunable": 5752,
      "Ġrocked": 5753,
      "Ġpennies": 5754,
      "Ġgrassy": 5755,
      "Ġsquirt": 5756,
      "Ġsquishy": 5757,
      "Ġhopes": 5758,
      "ĠAsked": 5759,
      "Ġopening": 5760,
      "Ġsleepier": 5761,
      "Ġnightstand": 5762,
      "Ġfilling": 5763,
      "Ġrelief": 5764,
      "Ġbowing": 5765,
      "Ġrainy": 5766,
      "Ġslower": 5767,
      "ĠSueÃ¢": 5768,
      "Ġsingers": 5769,
      "Ġdrives": 5770,
      "Ġmonsters": 5771,
      "Ġhearing": 5772,
      "Ġcontest": 5773,
      "Ġcontainers": 5774,
      "Ġfixing": 5775,
      "Ġamong": 5776,
      "Ġforgave": 5777,
      "Ġforgives": 5778,
      "Ġprinted": 5779,
      "Ġteaches": 5780,
      "Afterwards": 5781,
      "Ġdrum": 5782,
      "ĠDoes": 5783,
      "Ġsteady": 5784,
      "Ġshoe": 5785,
      "ĠRuby": 5786,
      "Ġdraws": 5787,
      "Ġparted": 5788,
      "Ġtallest": 5789,
      "Ġtrail": 5790,
      "Ġtrapped": 5791,
      "Ġairplane": 5792,
      "Ġrestaur": 5793,
      "Ġstorybook": 5794,
      "Ġcreated": 5795,
      "Ġcreating": 5796,
      "Ġfires": 5797,
      "Ġwallet": 5798,
      "Ġcounts": 5799,
      "Ġpets": 5800,
      "Ġpetal": 5801,
      "ulars": 5802,
      "Ġunderstands": 5803,
      "Ġspots": 5804,
      "Ġtrips": 5805,
      "Ġvisiting": 5806,
      "Ġsetting": 5807,
      "Ġloneliness": 5808,
      "Ġbuying": 5809,
      "Ġbuses": 5810,
      "Ġbusiness": 5811,
      "Ġhideaway": 5812,
      "Ġquietest": 5813,
      "Ġnapkin": 5814,
      "ĠBefore": 5815,
      "Ġsparkling": 5816,
      "Ġgrowls": 5817,
      "Ġbottles": 5818,
      "Ġdesc": 5819,
      "Ġdesert": 5820,
      "Ġdespite": 5821,
      "Ġhotter": 5822,
      "Ġdragged": 5823,
      "Ġdragons": 5824,
      "Ġdragging": 5825,
      "Ġstubborn": 5826,
      "Ġdrivers": 5827,
      "brant": 5828,
      "perature": 5829,
      "Ġwarn": 5830,
      "Ġguys": 5831,
      "Ġguests": 5832,
      "Ġkisses": 5833,
      "ĠJimmyÃ¢": 5834,
      "Ġpeacefully": 5835,
      "Ġpolitely": 5836,
      "Ġcircus": 5837,
      "Ġcircled": 5838,
      "Ġlocks": 5839,
      "Ġwinner": 5840,
      "Ġmissile": 5841,
      "Ġpraises": 5842,
      "Ġinstantly": 5843,
      "Ġsquirrels": 5844,
      "Ġtreated": 5845,
      "Ġdryer": 5846,
      "Ġriddles": 5847,
      "Ġgentleman": 5848,
      "Ġwagging": 5849,
      "Ġdoctors": 5850,
      "ĠGranddad": 5851,
      "Ġwrapping": 5852,
      "Ġmarkers": 5853,
      "Ġearrings": 5854,
      "Ġcracked": 5855,
      "Ġbreathed": 5856,
      "Ġbreathes": 5857,
      "Ġbells": 5858,
      "Ġkicking": 5859,
      "Ġfooting": 5860,
      "ĠAlways": 5861,
      "Ġchopping": 5862,
      "Ġtwisty": 5863,
      "Ġfields": 5864,
      "Ġhealthier": 5865,
      "Ġpillow": 5866,
      "Ġsolving": 5867,
      "Ġsprings": 5868,
      "Ġlemons": 5869,
      "Ġvibrant": 5870,
      "Ġstreets": 5871,
      "Ġspeeding": 5872,
      "Ġcelebration": 5873,
      "Ġafar": 5874,
      "Ġhiked": 5875,
      "Ġnetwork": 5876,
      "Ġcollected": 5877,
      "Ġrespected": 5878,
      "Goodbye": 5879,
      "Ġpouring": 5880,
      "Ġinvol": 5881,
      "Ġinviting": 5882,
      "Ġeasily": 5883,
      "Ġlifts": 5884,
      "Ġlifting": 5885,
      "Ġreminder": 5886,
      "Ġthrowing": 5887,
      "Ġghosts": 5888,
      "Beware": 5889,
      "Ġmedium": 5890,
      "Ġgasps": 5891,
      "Ġrobots": 5892,
      "Ġinterested": 5893,
      "Ġpeanuts": 5894,
      "Ġembarrassment": 5895,
      "ĠKeep": 5896,
      "ĠKids": 5897,
      "Ġenter": 5898,
      "Ġracing": 5899,
      "ĠwouldnÃ¢": 5900,
      "Ġvalued": 5901,
      "Ġtrustwort": 5902,
      "Ġteaching": 5903,
      "Ġrainbows": 5904,
      "Ġnotebook": 5905,
      "Ġroads": 5906,
      "Ġtunnels": 5907,
      "Ġapart": 5908,
      "Ġapron": 5909,
      "Ġacted": 5910,
      "Ġparked": 5911,
      "Ġparrot": 5912,
      "Ġengines": 5913,
      "Ġbubblegum": 5914,
      "Ġfreezing": 5915,
      "ĠOur": 5916,
      "Ġbandages": 5917,
      "Ġhooks": 5918,
      "Ġurging": 5919,
      "Ġstamped": 5920,
      "Ġwhistled": 5921,
      "Ġindeed": 5922,
      "Ġpotion": 5923,
      "Ġsplashing": 5924,
      "Ġsplashes": 5925,
      "Ġpleasure": 5926,
      "Ġgiggles": 5927,
      "Ġnecklaces": 5928,
      "mbol": 5929,
      "Ġflags": 5930,
      "Ġenvironment": 5931,
      "Ġcomputers": 5932,
      "Ġignore": 5933,
      "Ġignored": 5934,
      "Ġinfants": 5935,
      "Ġearthquake": 5936,
      "Ġborn": 5937,
      "Ġburst": 5938,
      "Ġburned": 5939,
      "Ġburrow": 5940,
      "Ġpedaled": 5941,
      "Ġpedals": 5942,
      "Ġsalt": 5943,
      "Ġspills": 5944,
      "Ġscrub": 5945,
      "Ġscrambled": 5946,
      "Ġzooming": 5947,
      "Ġhungrily": 5948,
      "Ġhurrying": 5949,
      "Ġdigging": 5950,
      "ĠTruck": 5951,
      "Ġspits": 5952,
      "Ġneighbours": 5953,
      "ĠZoe": 5954,
      "Ġbegged": 5955,
      "Ġweightless": 5956,
      "Ġshorts": 5957,
      "Ġexpected": 5958,
      "Ġchooses": 5959,
      "Ġgracefully": 5960,
      "ÅĵYouÃ¢": 5961,
      "Ġwindowsill": 5962,
      "Ġimproving": 5963,
      "Ġsupposed": 5964,
      "Ġsprayed": 5965,
      "Ġspraying": 5966,
      "Ġinclude": 5967,
      "Ġincluding": 5968,
      "Ġmisbeh": 5969,
      "Ġmelting": 5970,
      "Ġwealth": 5971,
      "Ġreaction": 5972,
      "Ġchatted": 5973,
      "Ġchirped": 5974,
      "Ġvanish": 5975,
      "Ġvanilla": 5976,
      "Ġapproval": 5977,
      "Ġdesigned": 5978,
      "Ġdesigns": 5979,
      "Ġjewelry": 5980,
      "Ġharmful": 5981,
      "Charles": 5982,
      "Emmy": 5983,
      "Emma": 5984,
      "Shh": 5985,
      "Shoo": 5986,
      "Ġcovering": 5987,
      "Ġpossible": 5988,
      "Ġclearly": 5989,
      "Ġdelayed": 5990,
      "Ġguessed": 5991,
      "Ġrepeating": 5992,
      "Ġcabinet": 5993,
      "Ġstrawberries": 5994,
      "Tweety": 5995,
      "Ġsymbol": 5996,
      "Ġcurled": 5997,
      "Ġcaptain": 5998,
      "Ġpaddle": 5999,
      "Ġoutfits": 6000,
      "Ġknocks": 6001,
      "Ġscattered": 6002,
      "Ġmuffins": 6003,
      "Ġdecorate": 6004,
      "Ġcrunching": 6005,
      "Ġcrystals": 6006,
      "Ġpatterns": 6007,
      "Ġsqueezed": 6008,
      "Ġartists": 6009,
      "...": 6010,
      "Ġtongues": 6011,
      "Ġcotton": 6012,
      "Ġsausages": 6013,
      "Ġneatly": 6014,
      "Ġencouraged": 6015,
      "Ġsniffs": 6016,
      "Ġsniffed": 6017,
      "Ġunpacked": 6018,
      "Ġspeaker": 6019,
      "Ġbalancing": 6020,
      "Ġreflective": 6021,
      "Ġpossession": 6022,
      "ival": 6023,
      "ivity": 6024,
      "Ġtargets": 6025,
      "Ġsighs": 6026,
      "Ġwiggle": 6027,
      "Ġwiggly": 6028,
      "Ġbiking": 6029,
      "Ġbikes": 6030,
      "Ġhurried": 6031,
      "Ġhurric": 6032,
      "Ġcaution": 6033,
      "Ġhesitant": 6034,
      "Ġhesitated": 6035,
      "Ġgaze": 6036,
      "Ġgazed": 6037,
      "ĠShapey": 6038,
      "Ġlibrary": 6039,
      "Ġlibrarian": 6040,
      "Ġsewed": 6041,
      "Ġclucked": 6042,
      "ĠWhoosh": 6043,
      "Ġscolded": 6044,
      "Ġflavors": 6045,
      "Ġcommunic": 6046,
      "Ġcomplain": 6047,
      "Ġcheeks": 6048,
      "Ġsneaks": 6049,
      "Ġsneaky": 6050,
      "Ġappreciate": 6051,
      "ĠInstead": 6052,
      "Ġpaintbrush": 6053,
      "Ġpaintbrushes": 6054,
      "Ġaccomplish": 6055,
      "Ġaccomplished": 6056,
      "Ġsurroundings": 6057,
      "Ġfluttering": 6058,
      "Ġsucceeded": 6059,
      "Ġrefreshing": 6060,
      "Ġrefreshed": 6061,
      "Ġfashionable": 6062,
      "Ġreceptionist": 6063,
      "Alice": 6064,
      "Really": 6065,
      "Slowly": 6066,
      "Ġtissue": 6067,
      "Ġflexible": 6068,
      "Ġfetch": 6069,
      "Ġmenu": 6070,
      "Ġmassage": 6071,
      "Ġpouted": 6072,
      "ĠTuesday": 6073,
      "Ġstriking": 6074,
      "Ġrewarding": 6075,
      "Ġannoy": 6076,
      "Ġgolden": 6077,
      "Ġspaceship": 6078,
      "Ġoutdoors": 6079,
      "Ġjunkyard": 6080,
      "Ġdecision": 6081,
      "Ġexploded": 6082,
      "Ġenvelope": 6083,
      "Ġadults": 6084,
      "Ġtemperature": 6085,
      "Ġgranted": 6086,
      "Ġsnooze": 6087,
      "Ġconfident": 6088,
      "Ġunkind": 6089,
      "Ġuniversity": 6090,
      "Ġsatisfaction": 6091,
      "Ġpopsic": 6092,
      "Ġexperienced": 6093,
      "Ġimpressive": 6094,
      "Excuse": 6095,
      "Ġgroceries": 6096,
      "Ġbehaviour": 6097,
      "Moral": 6098,
      "True": 6099,
      "rupt": 6100,
      "Ġaisle": 6101,
      "Ġsusp": 6102,
      "Ġsensors": 6103,
      "Ġwedding": 6104,
      "Ġbomb": 6105,
      "Ġbakery": 6106,
      "Ġbinoculars": 6107,
      "Ġfaint": 6108,
      "Ġfestival": 6109,
      "Ġdarlings": 6110,
      "Ġpanda": 6111,
      "Ġpants": 6112,
      "Ġglee": 6113,
      "Ġgestures": 6114,
      "Ġnuts": 6115,
      "immering": 6116,
      "Ġitems": 6117,
      "Ġobey": 6118,
      "Ġoccasion": 6119,
      "Ġinterrupt": 6120,
      "Ġrushing": 6121,
      "Ġbellowed": 6122,
      "Ġwhirlpool": 6123,
      "Ġnearer": 6124,
      "ĠWednesday": 6125,
      "Ġvictorious": 6126,
      "Ġswollen": 6127,
      "Ġenemies": 6128,
      "Ġbracelets": 6129,
      "Ġconcentrated": 6130,
      "Ġimpossible": 6131,
      "Ġrestaurant": 6132,
      "Ġtrustworthy": 6133,
      "Ġhurricane": 6134,
      "Ġcommunicate": 6135
    },
    "merges": [
      [
        "h",
        "e"
      ],
      [
        "Ġ",
        "t"
      ],
      [
        "Ġ",
        "a"
      ],
      [
        "Ġ",
        "s"
      ],
      [
        "Ġ",
        "w"
      ],
      [
        "n",
        "d"
      ],
      [
        "Ġt",
        "he"
      ],
      [
        "e",
        "d"
      ],
      [
        "Ġa",
        "nd"
      ],
      [
        "Ġ",
        "b"
      ],
      [
        "Ġt",
        "o"
      ],
      [
        "i",
        "n"
      ],
      [
        "Ġ",
        "h"
      ],
      [
        "r",
        "e"
      ],
      [
        "Ġw",
        "a"
      ],
      [
        "Ġ",
        "f"
      ],
      [
        "o",
        "u"
      ],
      [
        "i",
        "t"
      ],
      [
        "Ġ",
        "l"
      ],
      [
        "Ġ",
        "c"
      ],
      [
        "e",
        "r"
      ],
      [
        "Ġ",
        "d"
      ],
      [
        "Ġ",
        "he"
      ],
      [
        "Ġ",
        "m"
      ],
      [
        "Ġ",
        "p"
      ],
      [
        "Ġwa",
        "s"
      ],
      [
        "Ġ",
        "T"
      ],
      [
        "o",
        "m"
      ],
      [
        "o",
        "n"
      ],
      [
        "a",
        "y"
      ],
      [
        "a",
        "r"
      ],
      [
        "i",
        "s"
      ],
      [
        "in",
        "g"
      ],
      [
        "Ġ",
        "g"
      ],
      [
        "i",
        "l"
      ],
      [
        "i",
        "d"
      ],
      [
        "e",
        "n"
      ],
      [
        "a",
        "t"
      ],
      [
        "ĠT",
        "he"
      ],
      [
        "Ġ",
        "n"
      ],
      [
        "Ġ",
        "S"
      ],
      [
        "Ġh",
        "a"
      ],
      [
        "Ġs",
        "a"
      ],
      [
        "a",
        "n"
      ],
      [
        "o",
        "r"
      ],
      [
        "i",
        "m"
      ],
      [
        "l",
        "l"
      ],
      [
        "Ġ",
        "it"
      ],
      [
        "Ġt",
        "h"
      ],
      [
        "Ġ",
        "o"
      ],
      [
        "l",
        "e"
      ],
      [
        "Ġ",
        "H"
      ],
      [
        "e",
        "t"
      ],
      [
        "ĠS",
        "he"
      ],
      [
        "Ġhe",
        "r"
      ],
      [
        "e",
        "s"
      ],
      [
        "i",
        "r"
      ],
      [
        "ĠH",
        "e"
      ],
      [
        "o",
        "t"
      ],
      [
        "v",
        "er"
      ],
      [
        "c",
        "k"
      ],
      [
        "Ġ",
        "in"
      ],
      [
        "ĠThe",
        "y"
      ],
      [
        "o",
        "w"
      ],
      [
        "Ġ",
        "e"
      ],
      [
        "u",
        "t"
      ],
      [
        "l",
        "d"
      ],
      [
        "o",
        "o"
      ],
      [
        "Ġ",
        "u"
      ],
      [
        "Ġ",
        "y"
      ],
      [
        "Ġ",
        "r"
      ],
      [
        "Ġsa",
        "id"
      ],
      [
        "Ġb",
        "e"
      ],
      [
        "Ġ",
        "I"
      ],
      [
        "i",
        "g"
      ],
      [
        "Ġs",
        "t"
      ],
      [
        "Ġs",
        "he"
      ],
      [
        "Ġ",
        "\""
      ],
      [
        "k",
        "e"
      ],
      [
        "c",
        "e"
      ],
      [
        "it",
        "h"
      ],
      [
        "Ġw",
        "ith"
      ],
      [
        "v",
        "e"
      ],
      [
        "p",
        "p"
      ],
      [
        "k",
        "ed"
      ],
      [
        "il",
        "y"
      ],
      [
        "Ġs",
        "o"
      ],
      [
        "a",
        "m"
      ],
      [
        "Ġ",
        "on"
      ],
      [
        "Ġp",
        "l"
      ],
      [
        "a",
        "d"
      ],
      [
        "ver",
        "y"
      ],
      [
        "Ġy",
        "ou"
      ],
      [
        "Ġo",
        "f"
      ],
      [
        "r",
        "i"
      ],
      [
        "Ġh",
        "is"
      ],
      [
        "O",
        "n"
      ],
      [
        "n",
        "t"
      ],
      [
        "L",
        "ily"
      ],
      [
        "Ġth",
        "at"
      ],
      [
        "Ġw",
        "e"
      ],
      [
        "Ġd",
        "ay"
      ],
      [
        "Ġu",
        "p"
      ],
      [
        "T",
        "he"
      ],
      [
        "Ġha",
        "d"
      ],
      [
        "Ġpl",
        "ay"
      ],
      [
        "s",
        "t"
      ],
      [
        "e",
        "l"
      ],
      [
        "Ġthe",
        "y"
      ],
      [
        "Ġf",
        "or"
      ],
      [
        "Ġl",
        "i"
      ],
      [
        "Ġ",
        "B"
      ],
      [
        "c",
        "h"
      ],
      [
        "en",
        "t"
      ],
      [
        "ou",
        "ld"
      ],
      [
        "u",
        "n"
      ],
      [
        "'",
        "s"
      ],
      [
        "m",
        "y"
      ],
      [
        "Ġs",
        "h"
      ],
      [
        "it",
        "t"
      ],
      [
        "ou",
        "t"
      ],
      [
        "Ġwa",
        "nt"
      ],
      [
        "Ġha",
        "pp"
      ],
      [
        "he",
        "r"
      ],
      [
        "Ġ",
        "Lily"
      ],
      [
        "Ġm",
        "om"
      ],
      [
        "l",
        "y"
      ],
      [
        "om",
        "e"
      ],
      [
        "e",
        "nd"
      ],
      [
        "Ġs",
        "m"
      ],
      [
        "itt",
        "le"
      ],
      [
        "a",
        "ll"
      ],
      [
        "ou",
        "nd"
      ],
      [
        "a",
        "ck"
      ],
      [
        "Ġ",
        "is"
      ],
      [
        "Ġ",
        "very"
      ],
      [
        "Ġn",
        "ot"
      ],
      [
        "s",
        "e"
      ],
      [
        "Ġw",
        "h"
      ],
      [
        "Ġd",
        "o"
      ],
      [
        "Ġl",
        "ittle"
      ],
      [
        "ĠI",
        "t"
      ],
      [
        "h",
        "t"
      ],
      [
        "a",
        "l"
      ],
      [
        "Ġt",
        "im"
      ],
      [
        "Ġ",
        "k"
      ],
      [
        "Ġn",
        "e"
      ],
      [
        "Ġ",
        "Ċ"
      ],
      [
        "Ġtim",
        "e"
      ],
      [
        "Ġ",
        "re"
      ],
      [
        "u",
        "g"
      ],
      [
        "Ġthe",
        "re"
      ],
      [
        "r",
        "y"
      ],
      [
        "ri",
        "end"
      ],
      [
        ".",
        "\""
      ],
      [
        "Ġb",
        "ig"
      ],
      [
        "Ġf",
        "riend"
      ],
      [
        "Ġhapp",
        "y"
      ],
      [
        "Ġl",
        "oo"
      ],
      [
        "Ġ",
        "M"
      ],
      [
        "Ġs",
        "e"
      ],
      [
        "Ġsa",
        "w"
      ],
      [
        "Ġb",
        "ut"
      ],
      [
        "a",
        "ke"
      ],
      [
        "Ġa",
        "n"
      ],
      [
        "Ġwe",
        "re"
      ],
      [
        "t",
        "er"
      ],
      [
        "Ġa",
        "s"
      ],
      [
        "Ġb",
        "o"
      ],
      [
        "r",
        "a"
      ],
      [
        "'",
        "t"
      ],
      [
        "id",
        "e"
      ],
      [
        "Ġh",
        "im"
      ],
      [
        "o",
        "re"
      ],
      [
        "Ġa",
        "re"
      ],
      [
        "!",
        "\""
      ],
      [
        "On",
        "e"
      ],
      [
        "Ġg",
        "o"
      ],
      [
        "ir",
        "l"
      ],
      [
        "Ġthe",
        "m"
      ],
      [
        "ay",
        "s"
      ],
      [
        "Ġg",
        "irl"
      ],
      [
        "e",
        "c"
      ],
      [
        "Ġto",
        "o"
      ],
      [
        "On",
        "ce"
      ],
      [
        "Ġ",
        "A"
      ],
      [
        "v",
        "ed"
      ],
      [
        "Ġs",
        "p"
      ],
      [
        "Ġsm",
        "il"
      ],
      [
        "il",
        "l"
      ],
      [
        "Ġa",
        "t"
      ],
      [
        "Ġwant",
        "ed"
      ],
      [
        "f",
        "u"
      ],
      [
        "Ġl",
        "o"
      ],
      [
        "ar",
        "d"
      ],
      [
        "Ġ",
        "out"
      ],
      [
        "Ġthe",
        "ir"
      ],
      [
        "ĠB",
        "en"
      ],
      [
        "Ġ",
        "j"
      ],
      [
        "u",
        "r"
      ],
      [
        "Ġha",
        "ve"
      ],
      [
        "i",
        "nd"
      ],
      [
        "a",
        "in"
      ],
      [
        "Ġ",
        "J"
      ],
      [
        "Ġup",
        "on"
      ],
      [
        "Ġe",
        "x"
      ],
      [
        "i",
        "c"
      ],
      [
        "Ġc",
        "an"
      ],
      [
        "ĠT",
        "im"
      ],
      [
        "he",
        "n"
      ],
      [
        "Ġc",
        "ould"
      ],
      [
        "h",
        "ing"
      ],
      [
        "Ġd",
        "id"
      ],
      [
        "fu",
        "l"
      ],
      [
        "r",
        "ound"
      ],
      [
        "ar",
        "t"
      ],
      [
        "on",
        "e"
      ],
      [
        "Ġfriend",
        "s"
      ],
      [
        "Ġw",
        "ent"
      ],
      [
        "Ġb",
        "ack"
      ],
      [
        "r",
        "om"
      ],
      [
        "ig",
        "ht"
      ],
      [
        "he",
        "d"
      ],
      [
        "u",
        "m"
      ],
      [
        "Ġa",
        "ll"
      ],
      [
        "a",
        "re"
      ],
      [
        "Ġli",
        "ke"
      ],
      [
        "?",
        "\""
      ],
      [
        "oo",
        "d"
      ],
      [
        "Y",
        "ou"
      ],
      [
        "Ġc",
        "l"
      ],
      [
        "am",
        "e"
      ],
      [
        "Ġl",
        "e"
      ],
      [
        "Ġk",
        "n"
      ],
      [
        "Ġn",
        "o"
      ],
      [
        "Ġsmil",
        "ed"
      ],
      [
        "Ġf",
        "un"
      ],
      [
        "Ġf",
        "e"
      ],
      [
        "Ġloo",
        "ked"
      ],
      [
        "Ġhe",
        "l"
      ],
      [
        "om",
        "et"
      ],
      [
        "i",
        "ck"
      ],
      [
        "on",
        "g"
      ],
      [
        "Ġm",
        "e"
      ],
      [
        "Ġs",
        "ays"
      ],
      [
        "Ġse",
        "e"
      ],
      [
        "Ġbo",
        "y"
      ],
      [
        "o",
        "p"
      ],
      [
        "u",
        "re"
      ],
      [
        "ar",
        "k"
      ],
      [
        "i",
        "ce"
      ],
      [
        "Ã",
        "¢"
      ],
      [
        "â",
        "Ĥ"
      ],
      [
        "Ġm",
        "an"
      ],
      [
        "âĤ",
        "¬"
      ],
      [
        "a",
        "s"
      ],
      [
        "Ġs",
        "ome"
      ],
      [
        "Ġhel",
        "p"
      ],
      [
        "ĠT",
        "om"
      ],
      [
        ",",
        "\""
      ],
      [
        "ou",
        "g"
      ],
      [
        "Ġb",
        "r"
      ],
      [
        "Ġa",
        "l"
      ],
      [
        "s",
        "ide"
      ],
      [
        "el",
        "t"
      ],
      [
        "Ġw",
        "ould"
      ],
      [
        "Ġa",
        "round"
      ],
      [
        "Ġs",
        "omet"
      ],
      [
        "w",
        "ay"
      ],
      [
        "Ġf",
        "elt"
      ],
      [
        "ĠTim",
        "my"
      ],
      [
        "Ġf",
        "a"
      ],
      [
        "d",
        "d"
      ],
      [
        "Ġas",
        "ked"
      ],
      [
        "Ġ",
        "W"
      ],
      [
        "ad",
        "e"
      ],
      [
        "Ġto",
        "y"
      ],
      [
        "Ġst",
        "art"
      ],
      [
        "Ġ",
        "One"
      ],
      [
        "ing",
        "s"
      ],
      [
        "am",
        "ed"
      ],
      [
        "a",
        "g"
      ],
      [
        "Ġa",
        "way"
      ],
      [
        "Ġc",
        "h"
      ],
      [
        "Ġr",
        "o"
      ],
      [
        "g",
        "et"
      ],
      [
        "Ġa",
        "g"
      ],
      [
        "Ġlo",
        "ved"
      ],
      [
        "Ġs",
        "c"
      ],
      [
        "Ġsomet",
        "hing"
      ],
      [
        "Ġw",
        "or"
      ],
      [
        "Ġr",
        "an"
      ],
      [
        "Ġ",
        "You"
      ],
      [
        "Ġn",
        "amed"
      ],
      [
        "Ġwh",
        "at"
      ],
      [
        "Ġc",
        "ar"
      ],
      [
        "Ġm",
        "ake"
      ],
      [
        "b",
        "le"
      ],
      [
        "Ġm",
        "ade"
      ],
      [
        "k",
        "ing"
      ],
      [
        "it",
        "ed"
      ],
      [
        "Ġb",
        "ir"
      ],
      [
        "e",
        "p"
      ],
      [
        "Ġstart",
        "ed"
      ],
      [
        "Ġh",
        "ug"
      ],
      [
        "Ġb",
        "l"
      ],
      [
        "Ġex",
        "c"
      ],
      [
        "Ġf",
        "rom"
      ],
      [
        "get",
        "her"
      ],
      [
        "t",
        "her"
      ],
      [
        "Ġf",
        "l"
      ],
      [
        "ow",
        "n"
      ],
      [
        "Ġ",
        "L"
      ],
      [
        "ou",
        "d"
      ],
      [
        "Ġo",
        "ther"
      ],
      [
        "re",
        "e"
      ],
      [
        "ar",
        "a"
      ],
      [
        "Ġc",
        "o"
      ],
      [
        "Ġag",
        "ain"
      ],
      [
        "Ġ",
        "E"
      ],
      [
        "Ġw",
        "hen"
      ],
      [
        "e",
        "ll"
      ],
      [
        "Ġbir",
        "d"
      ],
      [
        "Ġthe",
        "n"
      ],
      [
        "Ġm",
        "u"
      ],
      [
        "Ġp",
        "ut"
      ],
      [
        "es",
        "t"
      ],
      [
        "h",
        "at"
      ],
      [
        "Ġwh",
        "o"
      ],
      [
        "Ġto",
        "gether"
      ],
      [
        "a",
        "ug"
      ],
      [
        "oo",
        "k"
      ],
      [
        "ar",
        "ed"
      ],
      [
        "i",
        "f"
      ],
      [
        "u",
        "ck"
      ],
      [
        "Ġe",
        "very"
      ],
      [
        "q",
        "u"
      ],
      [
        "Ġh",
        "ome"
      ],
      [
        "Ġne",
        "w"
      ],
      [
        "Ġg",
        "ood"
      ],
      [
        "Ġplay",
        "ing"
      ],
      [
        "Ġf",
        "ound"
      ],
      [
        "n",
        "n"
      ],
      [
        "Ġp",
        "r"
      ],
      [
        "Ġfe",
        "el"
      ],
      [
        "Ġm",
        "y"
      ],
      [
        "Ġsa",
        "d"
      ],
      [
        "ĠB",
        "ut"
      ],
      [
        "ou",
        "s"
      ],
      [
        "a",
        "ch"
      ],
      [
        "Ġ",
        "v"
      ],
      [
        "Ġexc",
        "ited"
      ],
      [
        "p",
        "l"
      ],
      [
        "s",
        "s"
      ],
      [
        "Ġd",
        "ec"
      ],
      [
        "Ġth",
        "an"
      ],
      [
        "Ġwa",
        "l"
      ],
      [
        "Ġp",
        "ark"
      ],
      [
        "pp",
        "ed"
      ],
      [
        "Ġg",
        "et"
      ],
      [
        "Ġth",
        "ings"
      ],
      [
        "Ġyou",
        "r"
      ],
      [
        "it",
        "e"
      ],
      [
        "nn",
        "a"
      ],
      [
        "Ġli",
        "ked"
      ],
      [
        "The",
        "y"
      ],
      [
        "oug",
        "ht"
      ],
      [
        "Ġc",
        "are"
      ],
      [
        "all",
        "y"
      ],
      [
        "Ġt",
        "a"
      ],
      [
        "Ġdec",
        "id"
      ],
      [
        "ri",
        "ed"
      ],
      [
        "ou",
        "r"
      ],
      [
        "Ġloo",
        "k"
      ],
      [
        "Ġdecid",
        "ed"
      ],
      [
        "a",
        "ve"
      ],
      [
        "i",
        "e"
      ],
      [
        "r",
        "o"
      ],
      [
        "Ġd",
        "ad"
      ],
      [
        "Ġ",
        "D"
      ],
      [
        "ec",
        "i"
      ],
      [
        "Ġa",
        "b"
      ],
      [
        "Ġg",
        "ot"
      ],
      [
        "u",
        "e"
      ],
      [
        "Ġt",
        "ake"
      ],
      [
        "nd",
        "er"
      ],
      [
        "u",
        "dd"
      ],
      [
        "Ġt",
        "r"
      ],
      [
        "ĠM",
        "om"
      ],
      [
        "u",
        "st"
      ],
      [
        "Ġg",
        "ra"
      ],
      [
        "Ġon",
        "e"
      ],
      [
        "Ġdo",
        "g"
      ],
      [
        "eci",
        "al"
      ],
      [
        "u",
        "s"
      ],
      [
        "ll",
        "y"
      ],
      [
        "Ġo",
        "ld"
      ],
      [
        "Ġsp",
        "ecial"
      ],
      [
        "Ġd",
        "own"
      ],
      [
        "Ġab",
        "out"
      ],
      [
        "ou",
        "se"
      ],
      [
        "Ġtoo",
        "k"
      ],
      [
        "is",
        "t"
      ],
      [
        "w",
        "ays"
      ],
      [
        "re",
        "t"
      ],
      [
        "Ġf",
        "ind"
      ],
      [
        "Ġh",
        "o"
      ],
      [
        "Ġal",
        "ways"
      ],
      [
        "Ġb",
        "all"
      ],
      [
        "er",
        "s"
      ],
      [
        "en",
        "ed"
      ],
      [
        "Ġin",
        "t"
      ],
      [
        "is",
        "e"
      ],
      [
        "Ġbe",
        "c"
      ],
      [
        "Ġm",
        "ore"
      ],
      [
        "or",
        "ry"
      ],
      [
        "n",
        "y"
      ],
      [
        "n",
        "ed"
      ],
      [
        "g",
        "ed"
      ],
      [
        "Ġ",
        "ke"
      ],
      [
        "Ġsc",
        "ared"
      ],
      [
        "a",
        "c"
      ],
      [
        "b",
        "b"
      ],
      [
        "i",
        "a"
      ],
      [
        "Ġp",
        "e"
      ],
      [
        "Ġs",
        "k"
      ],
      [
        "Ġc",
        "ame"
      ],
      [
        "ĠS",
        "ara"
      ],
      [
        "Ġl",
        "ot"
      ],
      [
        "Ġth",
        "ought"
      ],
      [
        "Ġtoy",
        "s"
      ],
      [
        "Ġout",
        "side"
      ],
      [
        "udd",
        "en"
      ],
      [
        "Ġs",
        "w"
      ],
      [
        "Ġst",
        "r"
      ],
      [
        "Ġkn",
        "ow"
      ],
      [
        "a",
        "nd"
      ],
      [
        "an",
        "t"
      ],
      [
        "Ġr",
        "un"
      ],
      [
        "an",
        "k"
      ],
      [
        "es",
        "s"
      ],
      [
        "udden",
        "ly"
      ],
      [
        "Ġle",
        "ar"
      ],
      [
        "Ġm",
        "o"
      ],
      [
        "Ġ",
        "F"
      ],
      [
        "Ġl",
        "aug"
      ],
      [
        "Ġp",
        "o"
      ],
      [
        "Ġs",
        "orry"
      ],
      [
        "a",
        "p"
      ],
      [
        "i",
        "ve"
      ],
      [
        "Ġw",
        "ill"
      ],
      [
        "Ġwa",
        "ter"
      ],
      [
        "a",
        "ce"
      ],
      [
        "Ġdid",
        "n"
      ],
      [
        "Ġmu",
        "ch"
      ],
      [
        "Ġt",
        "w"
      ],
      [
        "Ġkn",
        "e"
      ],
      [
        "f",
        "ter"
      ],
      [
        "B",
        "ut"
      ],
      [
        "Ġ",
        "qu"
      ],
      [
        "re",
        "at"
      ],
      [
        "ĠE",
        "very"
      ],
      [
        "Ġex",
        "pl"
      ],
      [
        "Ġt",
        "ree"
      ],
      [
        "ĠA",
        "nna"
      ],
      [
        "Ġwa",
        "t"
      ],
      [
        "Ġth",
        "is"
      ],
      [
        "Ġo",
        "p"
      ],
      [
        "Ġint",
        "o"
      ],
      [
        "o",
        "s"
      ],
      [
        "in",
        "k"
      ],
      [
        "Ġne",
        "ver"
      ],
      [
        "Ġe",
        "ach"
      ],
      [
        "a",
        "k"
      ],
      [
        "f",
        "e"
      ],
      [
        "an",
        "g"
      ],
      [
        "Ġan",
        "y"
      ],
      [
        "Ġs",
        "l"
      ],
      [
        "Ġs",
        "un"
      ],
      [
        "Ġf",
        "o"
      ],
      [
        "Ġro",
        "om"
      ],
      [
        "Ġ",
        "or"
      ],
      [
        "Ġc",
        "at"
      ],
      [
        "m",
        "a"
      ],
      [
        "o",
        "on"
      ],
      [
        "he",
        "re"
      ],
      [
        "Ġsm",
        "all"
      ],
      [
        "Ġh",
        "ow"
      ],
      [
        "Ġ",
        "en"
      ],
      [
        "ĠJ",
        "ack"
      ],
      [
        "in",
        "e"
      ],
      [
        "ĠA",
        "nd"
      ],
      [
        "Ġcould",
        "n"
      ],
      [
        "a",
        "u"
      ],
      [
        "v",
        "ent"
      ],
      [
        "ĠS",
        "am"
      ],
      [
        "Ġhug",
        "ged"
      ],
      [
        "Ġto",
        "ld"
      ],
      [
        "is",
        "h"
      ],
      [
        "Ġg",
        "ave"
      ],
      [
        "v",
        "ing"
      ],
      [
        "Ġbo",
        "x"
      ],
      [
        "Ġn",
        "ice"
      ],
      [
        "Ġman",
        "y"
      ],
      [
        "Ġpr",
        "oud"
      ],
      [
        "Ġa",
        "d"
      ],
      [
        "Ġsh",
        "ow"
      ],
      [
        "i",
        "on"
      ],
      [
        "Ġl",
        "ong"
      ],
      [
        "u",
        "ll"
      ],
      [
        "v",
        "es"
      ],
      [
        "Ġt",
        "e"
      ],
      [
        "Ġo",
        "ver"
      ],
      [
        "Ġin",
        "side"
      ],
      [
        "Ġe",
        "at"
      ],
      [
        "Ġbe",
        "ar"
      ],
      [
        "p",
        "t"
      ],
      [
        "ad",
        "y"
      ],
      [
        "ĠM",
        "ia"
      ],
      [
        "Ġkne",
        "w"
      ],
      [
        "d",
        "y"
      ],
      [
        "Ġ",
        "if"
      ],
      [
        "at",
        "e"
      ],
      [
        "v",
        "en"
      ],
      [
        "et",
        "ter"
      ],
      [
        "Ġmom",
        "my"
      ],
      [
        "ĠW",
        "e"
      ],
      [
        "M",
        "om"
      ],
      [
        "Ġp",
        "ick"
      ],
      [
        "e",
        "m"
      ],
      [
        "Ġh",
        "ouse"
      ],
      [
        "Ġhe",
        "ard"
      ],
      [
        "Ġp",
        "ret"
      ],
      [
        "il",
        "d"
      ],
      [
        "ot",
        "her"
      ],
      [
        "um",
        "p"
      ],
      [
        "Ġthan",
        "ked"
      ],
      [
        "b",
        "y"
      ],
      [
        "a",
        "x"
      ],
      [
        "Ġc",
        "om"
      ],
      [
        "Ġha",
        "nd"
      ],
      [
        "ĠJ",
        "o"
      ],
      [
        "ot",
        "h"
      ],
      [
        "Ġdo",
        "ll"
      ],
      [
        "Ġu",
        "nt"
      ],
      [
        "Ġc",
        "all"
      ],
      [
        "Ġd",
        "re"
      ],
      [
        "Ġd",
        "on"
      ],
      [
        "ar",
        "s"
      ],
      [
        "Ġne",
        "ed"
      ],
      [
        "T",
        "om"
      ],
      [
        "Ġs",
        "ay"
      ],
      [
        "Ġb",
        "est"
      ],
      [
        "Ġof",
        "f"
      ],
      [
        "Ġj",
        "ust"
      ],
      [
        "oug",
        "h"
      ],
      [
        "Ġunt",
        "il"
      ],
      [
        "Ġg",
        "ard"
      ],
      [
        "or",
        "t"
      ],
      [
        "Ġgard",
        "en"
      ],
      [
        "'",
        "m"
      ],
      [
        "u",
        "c"
      ],
      [
        "Ġcare",
        "ful"
      ],
      [
        "b",
        "er"
      ],
      [
        "Ġ",
        "Ã¢"
      ],
      [
        "Ġg",
        "l"
      ],
      [
        "Å",
        "ĵ"
      ],
      [
        "Ġt",
        "ried"
      ],
      [
        "ur",
        "p"
      ],
      [
        "Ġfa",
        "st"
      ],
      [
        "a",
        "ut"
      ],
      [
        "B",
        "en"
      ],
      [
        "Ġu",
        "s"
      ],
      [
        "Ġfl",
        "ow"
      ],
      [
        "ur",
        "t"
      ],
      [
        "um",
        "my"
      ],
      [
        "Ġsk",
        "y"
      ],
      [
        "au",
        "se"
      ],
      [
        "Ġt",
        "ry"
      ],
      [
        "Ġw",
        "o"
      ],
      [
        "Ġbe",
        "aut"
      ],
      [
        "o",
        "y"
      ],
      [
        "in",
        "y"
      ],
      [
        "im",
        "al"
      ],
      [
        "Ġan",
        "imal"
      ],
      [
        "n",
        "ing"
      ],
      [
        "o",
        "lly"
      ],
      [
        "Ġc",
        "u"
      ],
      [
        "âĤ¬",
        "â"
      ],
      [
        "h",
        "n"
      ],
      [
        "Ġc",
        "he"
      ],
      [
        "i",
        "ful"
      ],
      [
        "o",
        "ck"
      ],
      [
        "Ġb",
        "etter"
      ],
      [
        "a",
        "se"
      ],
      [
        "g",
        "ry"
      ],
      [
        "Ġplay",
        "ed"
      ],
      [
        "Ġcl",
        "os"
      ],
      [
        "Ġbeaut",
        "iful"
      ],
      [
        "i",
        "z"
      ],
      [
        "Ġ",
        "C"
      ],
      [
        "el",
        "f"
      ],
      [
        "Ġwa",
        "y"
      ],
      [
        "Ġlear",
        "ned"
      ],
      [
        "r",
        "m"
      ],
      [
        "Ġtr",
        "uck"
      ],
      [
        "Ġbec",
        "ause"
      ],
      [
        "Ġad",
        "vent"
      ],
      [
        "Ġr",
        "ed"
      ],
      [
        "o",
        "b"
      ],
      [
        "Ġit",
        "s"
      ],
      [
        "Ġr",
        "a"
      ],
      [
        "Ġcall",
        "ed"
      ],
      [
        "c",
        "hed"
      ],
      [
        "t",
        "y"
      ],
      [
        "Ġb",
        "u"
      ],
      [
        "Ġst",
        "ay"
      ],
      [
        "Ġso",
        "on"
      ],
      [
        "Ġsh",
        "are"
      ],
      [
        "Ġk",
        "ind"
      ],
      [
        "N",
        "o"
      ],
      [
        "Ġs",
        "urp"
      ],
      [
        "Ġb",
        "ook"
      ],
      [
        "il",
        "e"
      ],
      [
        "Ġsurp",
        "r"
      ],
      [
        "T",
        "h"
      ],
      [
        "Ġl",
        "ist"
      ],
      [
        "le",
        "w"
      ],
      [
        "ĠH",
        "er"
      ],
      [
        "I",
        "t"
      ],
      [
        "Ġ",
        "G"
      ],
      [
        "Ġtw",
        "o"
      ],
      [
        "Ġ",
        "im"
      ],
      [
        "Ħ",
        "¢"
      ],
      [
        "Ġc",
        "ome"
      ],
      [
        "ĠThe",
        "n"
      ],
      [
        "âĤ¬â",
        "Ħ¢"
      ],
      [
        "Y",
        "es"
      ],
      [
        "Ġf",
        "r"
      ],
      [
        "Ġc",
        "r"
      ],
      [
        "Ġn",
        "ow"
      ],
      [
        "Ġe",
        "ven"
      ],
      [
        "Ġre",
        "m"
      ],
      [
        "Ġadvent",
        "ure"
      ],
      [
        "Ġh",
        "ard"
      ],
      [
        "Ġlo",
        "ve"
      ],
      [
        "Ġj",
        "ump"
      ],
      [
        "Ġlaug",
        "hed"
      ],
      [
        "L",
        "et"
      ],
      [
        "Ġc",
        "le"
      ],
      [
        "Ġg",
        "r"
      ],
      [
        "Ġst",
        "ill"
      ],
      [
        "k",
        "es"
      ],
      [
        "Ġe",
        "nd"
      ],
      [
        "H",
        "e"
      ],
      [
        "Ġl",
        "oud"
      ],
      [
        "il",
        "a"
      ],
      [
        "ĠS",
        "o"
      ],
      [
        "ĠM",
        "ax"
      ],
      [
        "l",
        "ed"
      ],
      [
        "Ġf",
        "am"
      ],
      [
        "Ġsh",
        "iny"
      ],
      [
        "op",
        "le"
      ],
      [
        "Ġs",
        "n"
      ],
      [
        "Ġb",
        "y"
      ],
      [
        "Ġc",
        "ry"
      ],
      [
        "an",
        "e"
      ],
      [
        "Ġe",
        "y"
      ],
      [
        "oo",
        "l"
      ],
      [
        "Ġlot",
        "s"
      ],
      [
        "b",
        "e"
      ],
      [
        "f",
        "ore"
      ],
      [
        "Ġb",
        "ed"
      ],
      [
        "Ġg",
        "round"
      ],
      [
        "Ġco",
        "l"
      ],
      [
        "Ġpe",
        "ople"
      ],
      [
        "he",
        "s"
      ],
      [
        "Ġh",
        "urt"
      ],
      [
        "Ġf",
        "i"
      ],
      [
        "Ġl",
        "et"
      ],
      [
        "Ġu",
        "nder"
      ],
      [
        "ec",
        "t"
      ],
      [
        "dd",
        "ed"
      ],
      [
        "uc",
        "y"
      ],
      [
        "a",
        "st"
      ],
      [
        "i",
        "p"
      ],
      [
        "i",
        "es"
      ],
      [
        "Ġb",
        "oth"
      ],
      [
        "Ġf",
        "ly"
      ],
      [
        "Ġsh",
        "ould"
      ],
      [
        "ag",
        "e"
      ],
      [
        "f",
        "t"
      ],
      [
        "Ġw",
        "ind"
      ],
      [
        "Ġwal",
        "ked"
      ],
      [
        "Ġke",
        "pt"
      ],
      [
        "s",
        "elf"
      ],
      [
        "Ġb",
        "ra"
      ],
      [
        "Ġw",
        "r"
      ],
      [
        "ar",
        "y"
      ],
      [
        "Ġbe",
        "fore"
      ],
      [
        "ic",
        "ed"
      ],
      [
        "Ġsmil",
        "e"
      ],
      [
        "Ġop",
        "ened"
      ],
      [
        "W",
        "hen"
      ],
      [
        "Ġto",
        "w"
      ],
      [
        "Ġst",
        "or"
      ],
      [
        "Ġbo",
        "at"
      ],
      [
        "Ġstr",
        "ong"
      ],
      [
        "Ġexpl",
        "ore"
      ],
      [
        "Ġanimal",
        "s"
      ],
      [
        "Ġb",
        "ug"
      ],
      [
        "Ġf",
        "lew"
      ],
      [
        "Ġha",
        "s"
      ],
      [
        "Ġfeel",
        "ing"
      ],
      [
        "Ġey",
        "es"
      ],
      [
        "is",
        "ed"
      ],
      [
        "T",
        "hat"
      ],
      [
        "Ġf",
        "in"
      ],
      [
        "S",
        "ara"
      ],
      [
        "e",
        "et"
      ],
      [
        "t",
        "hing"
      ],
      [
        "x",
        "t"
      ],
      [
        "Ġfam",
        "ily"
      ],
      [
        "is",
        "hed"
      ],
      [
        "Ġno",
        "dded"
      ],
      [
        "Ġch",
        "ild"
      ],
      [
        "ĠF",
        "rom"
      ],
      [
        "Ġm",
        "ag"
      ],
      [
        "Ġnot",
        "iced"
      ],
      [
        "Ġbl",
        "ue"
      ],
      [
        "Ġevery",
        "one"
      ],
      [
        "le",
        "s"
      ],
      [
        "Ġe",
        "ver"
      ],
      [
        "ig",
        "h"
      ],
      [
        "W",
        "hat"
      ],
      [
        "c",
        "t"
      ],
      [
        "Ġa",
        "ma"
      ],
      [
        "Ġth",
        "r"
      ],
      [
        "aug",
        "ht"
      ],
      [
        "Ġwo",
        "nder"
      ],
      [
        "Ġama",
        "z"
      ],
      [
        "Ġf",
        "ore"
      ],
      [
        "Ġd",
        "e"
      ],
      [
        "Ġan",
        "gry"
      ],
      [
        "Ġgo",
        "ing"
      ],
      [
        "Ġqu",
        "ick"
      ],
      [
        "il",
        "ly"
      ],
      [
        "im",
        "my"
      ],
      [
        "Ġpl",
        "ace"
      ],
      [
        "Ġb",
        "ad"
      ],
      [
        "Ġo",
        "w"
      ],
      [
        "Ġno",
        "ise"
      ],
      [
        "Ġwat",
        "ch"
      ],
      [
        "Ġp",
        "ic"
      ],
      [
        "ay",
        "be"
      ],
      [
        "ĠH",
        "is"
      ],
      [
        "Ġli",
        "ved"
      ],
      [
        "ra",
        "w"
      ],
      [
        "as",
        "h"
      ],
      [
        "s",
        "o"
      ],
      [
        "Ġc",
        "on"
      ],
      [
        "Ġwal",
        "king"
      ],
      [
        "us",
        "h"
      ],
      [
        "Ġbra",
        "ve"
      ],
      [
        "Ġwa",
        "it"
      ],
      [
        "im",
        "b"
      ],
      [
        "ang",
        "e"
      ],
      [
        "k",
        "ay"
      ],
      [
        "Ġcl",
        "imb"
      ],
      [
        "Ġle",
        "a"
      ],
      [
        "Ġal",
        "so"
      ],
      [
        "ĠW",
        "hen"
      ],
      [
        "i",
        "ous"
      ],
      [
        "Ġg",
        "ive"
      ],
      [
        "Ġg",
        "reat"
      ],
      [
        "Ġne",
        "xt"
      ],
      [
        "Ġcol",
        "or"
      ],
      [
        "Ġ",
        "ide"
      ],
      [
        "Ġt",
        "ur"
      ],
      [
        "Ġf",
        "ar"
      ],
      [
        "Ġg",
        "re"
      ],
      [
        "Ġdo",
        "or"
      ],
      [
        "bb",
        "it"
      ],
      [
        "Ġim",
        "p"
      ],
      [
        "Ġrem",
        "em"
      ],
      [
        "Ġquick",
        "ly"
      ],
      [
        "Ġf",
        "ish"
      ],
      [
        "Ġp",
        "ain"
      ],
      [
        "is",
        "y"
      ],
      [
        "ĠS",
        "uddenly"
      ],
      [
        "Ġst",
        "o"
      ],
      [
        "Ġre",
        "al"
      ],
      [
        "S",
        "uddenly"
      ],
      [
        "a",
        "ble"
      ],
      [
        "d",
        "ay"
      ],
      [
        "Ġt",
        "re"
      ],
      [
        "Ġa",
        "fter"
      ],
      [
        "Ġn",
        "ame"
      ],
      [
        "le",
        "ep"
      ],
      [
        "Ġv",
        "o"
      ],
      [
        "Ġho",
        "le"
      ],
      [
        "Ġwat",
        "ched"
      ],
      [
        "j",
        "oy"
      ],
      [
        "n",
        "g"
      ],
      [
        "u",
        "ch"
      ],
      [
        "Ġd",
        "el"
      ],
      [
        "ll",
        "ow"
      ],
      [
        "Ġr",
        "u"
      ],
      [
        "Ġme",
        "an"
      ],
      [
        "Ġide",
        "a"
      ],
      [
        "g",
        "e"
      ],
      [
        "Ġpick",
        "ed"
      ],
      [
        "Ġcle",
        "an"
      ],
      [
        "Ġd",
        "if"
      ],
      [
        "Ġfa",
        "ce"
      ],
      [
        "Ġmag",
        "ic"
      ],
      [
        "A",
        "nna"
      ],
      [
        "a",
        "isy"
      ],
      [
        "ir",
        "st"
      ],
      [
        "Ġsh",
        "out"
      ],
      [
        "Ġse",
        "en"
      ],
      [
        "Ġball",
        "oon"
      ],
      [
        "Ġke",
        "ep"
      ],
      [
        "by",
        "e"
      ],
      [
        "Ġflow",
        "ers"
      ],
      [
        "Ġcu",
        "ri"
      ],
      [
        "Ġclos",
        "er"
      ],
      [
        "Ġra",
        "bbit"
      ],
      [
        "g",
        "an"
      ],
      [
        "i",
        "ed"
      ],
      [
        "Ġd",
        "is"
      ],
      [
        "Ġm",
        "a"
      ],
      [
        "ir",
        "ed"
      ],
      [
        "Ġwor",
        "k"
      ],
      [
        "Ġfo",
        "llow"
      ],
      [
        "Ġfore",
        "st"
      ],
      [
        "Ġsa",
        "fe"
      ],
      [
        "Ġloo",
        "king"
      ],
      [
        "ĠMom",
        "my"
      ],
      [
        "Ġremem",
        "ber"
      ],
      [
        "Ġ",
        "our"
      ],
      [
        "Ġhe",
        "ad"
      ],
      [
        "Ġth",
        "ink"
      ],
      [
        "Ġbl",
        "ock"
      ],
      [
        "bb",
        "ed"
      ],
      [
        "Ġen",
        "joy"
      ],
      [
        "Ġlist",
        "en"
      ],
      [
        "Ġp",
        "u"
      ],
      [
        "Ġwh",
        "ile"
      ],
      [
        "Ġdo",
        "es"
      ],
      [
        "Ġpret",
        "ty"
      ],
      [
        "t",
        "ure"
      ],
      [
        "Ġa",
        "r"
      ],
      [
        "Ġwa",
        "rm"
      ],
      [
        "is",
        "s"
      ],
      [
        "Ġy",
        "ell"
      ],
      [
        "pp",
        "y"
      ],
      [
        "Ġpic",
        "ture"
      ],
      [
        "Ġvo",
        "ice"
      ],
      [
        "t",
        "h"
      ],
      [
        "Ġl",
        "ady"
      ],
      [
        "Ġst",
        "ick"
      ],
      [
        "Ġgood",
        "bye"
      ],
      [
        "Ġsw",
        "eet"
      ],
      [
        "Th",
        "ank"
      ],
      [
        "Ġsto",
        "pped"
      ],
      [
        "t",
        "ing"
      ],
      [
        "Ġ",
        "N"
      ],
      [
        "Ġ",
        "P"
      ],
      [
        "Ġt",
        "ired"
      ],
      [
        "Ġw",
        "here"
      ],
      [
        "Ġbe",
        "en"
      ],
      [
        "ĠM",
        "olly"
      ],
      [
        "Ġbr",
        "o"
      ],
      [
        "Ġfa",
        "v"
      ],
      [
        "Ġcuri",
        "ous"
      ],
      [
        "f",
        "f"
      ],
      [
        "n",
        "er"
      ],
      [
        "ĠL",
        "ucy"
      ],
      [
        "ĠJo",
        "hn"
      ],
      [
        "S",
        "o"
      ],
      [
        "t",
        "ed"
      ],
      [
        "Ġt",
        "ell"
      ],
      [
        "Ġhe",
        "re"
      ],
      [
        "Ġg",
        "ame"
      ],
      [
        "le",
        "ase"
      ],
      [
        "Ġu",
        "se"
      ],
      [
        "Ġbe",
        "h"
      ],
      [
        "Ġbe",
        "l"
      ],
      [
        "Ġcar",
        "s"
      ],
      [
        "Ġwal",
        "k"
      ],
      [
        "fe",
        "re"
      ],
      [
        "S",
        "he"
      ],
      [
        "Ġt",
        "al"
      ],
      [
        "er",
        "ed"
      ],
      [
        "Ġp",
        "at"
      ],
      [
        "Ġp",
        "ull"
      ],
      [
        "Ġy",
        "e"
      ],
      [
        "st",
        "er"
      ],
      [
        "Ġse",
        "es"
      ],
      [
        "as",
        "s"
      ],
      [
        "Ġwor",
        "ld"
      ],
      [
        "ĠD",
        "ad"
      ],
      [
        "Ġhand",
        "s"
      ],
      [
        "Ġdre",
        "ss"
      ],
      [
        "Ġgl",
        "ad"
      ],
      [
        "Ġdif",
        "fere"
      ],
      [
        "Ġf",
        "irst"
      ],
      [
        "Ġth",
        "ree"
      ],
      [
        "Ġu",
        "n"
      ],
      [
        "el",
        "y"
      ],
      [
        "ĠB",
        "ob"
      ],
      [
        "Ġne",
        "ar"
      ],
      [
        "Ġre",
        "ady"
      ],
      [
        "Ġro",
        "ck"
      ],
      [
        "ĠL",
        "ila"
      ],
      [
        "Ġp",
        "en"
      ],
      [
        "Ġas",
        "k"
      ],
      [
        "Ġgra",
        "ss"
      ],
      [
        "ĠEvery",
        "one"
      ],
      [
        "Ġsl",
        "ide"
      ],
      [
        "iz",
        "ed"
      ],
      [
        "Ġdiffere",
        "nt"
      ],
      [
        "Ġre",
        "pl"
      ],
      [
        "Ġpret",
        "end"
      ],
      [
        "s",
        "h"
      ],
      [
        "Ġs",
        "ure"
      ],
      [
        "Ġs",
        "qu"
      ],
      [
        "Ġb",
        "it"
      ],
      [
        "re",
        "am"
      ],
      [
        "Ġf",
        "ood"
      ],
      [
        "Ġhapp",
        "ened"
      ],
      [
        "Ġbr",
        "other"
      ],
      [
        "Ġa",
        "pp"
      ],
      [
        "Ġh",
        "op"
      ],
      [
        "ou",
        "nt"
      ],
      [
        "Ġbe",
        "gan"
      ],
      [
        "Ġli",
        "kes"
      ],
      [
        "ĠD",
        "aisy"
      ],
      [
        "Ġbec",
        "ame"
      ],
      [
        "ĠJo",
        "e"
      ],
      [
        "J",
        "o"
      ],
      [
        "L",
        "ook"
      ],
      [
        "m",
        "ore"
      ],
      [
        "Ġwa",
        "ved"
      ],
      [
        "Ġd",
        "ark"
      ],
      [
        "Ġbut",
        "ter"
      ],
      [
        "ĠA",
        "s"
      ],
      [
        "Ġco",
        "ld"
      ],
      [
        "Ġop",
        "en"
      ],
      [
        "Ġany",
        "more"
      ],
      [
        "Ġthr",
        "ough"
      ],
      [
        "Ġshout",
        "ed"
      ],
      [
        "c",
        "o"
      ],
      [
        "i",
        "ent"
      ],
      [
        "Ġs",
        "leep"
      ],
      [
        "ĠT",
        "h"
      ],
      [
        "Ġn",
        "ight"
      ],
      [
        "W",
        "e"
      ],
      [
        "re",
        "n"
      ],
      [
        "Ġf",
        "ill"
      ],
      [
        "Ġm",
        "or"
      ],
      [
        "an",
        "c"
      ],
      [
        "Ġy",
        "ummy"
      ],
      [
        "Ġre",
        "l"
      ],
      [
        "Ġfl",
        "o"
      ],
      [
        "Ġlook",
        "s"
      ],
      [
        "Ġgra",
        "bbed"
      ],
      [
        "Ġgre",
        "en"
      ],
      [
        "Ġ",
        "ice"
      ],
      [
        "Ġs",
        "ound"
      ],
      [
        "Ġb",
        "ow"
      ],
      [
        "Ġm",
        "ouse"
      ],
      [
        "Ġat",
        "e"
      ],
      [
        "ĠL",
        "et"
      ],
      [
        "ac",
        "hed"
      ],
      [
        "Ġsurpr",
        "ise"
      ],
      [
        "Ġchild",
        "ren"
      ],
      [
        "Ġfav",
        "or"
      ],
      [
        "w",
        "here"
      ],
      [
        "Ġa",
        "c"
      ],
      [
        "Ġg",
        "i"
      ],
      [
        "at",
        "her"
      ],
      [
        "Ġr",
        "ain"
      ],
      [
        "Ġbe",
        "ing"
      ],
      [
        "fu",
        "lly"
      ],
      [
        "ĠSara",
        "h"
      ],
      [
        "Ġsl",
        "ow"
      ],
      [
        "Ġ",
        "-"
      ],
      [
        "ĠS",
        "ue"
      ],
      [
        "Ġwh",
        "y"
      ],
      [
        "Ġk",
        "id"
      ],
      [
        "Ġj",
        "o"
      ],
      [
        "ort",
        "ant"
      ],
      [
        "Ġimp",
        "ortant"
      ],
      [
        "Ġfavor",
        "ite"
      ],
      [
        "H",
        "er"
      ],
      [
        "Ġs",
        "ing"
      ],
      [
        "Ġo",
        "kay"
      ],
      [
        "Ġbig",
        "g"
      ],
      [
        "Ġbr",
        "ight"
      ],
      [
        "ak",
        "es"
      ],
      [
        "Mom",
        "my"
      ],
      [
        "Ġpu",
        "ppy"
      ],
      [
        "k",
        "en"
      ],
      [
        "Ġb",
        "a"
      ],
      [
        "Ġd",
        "ri"
      ],
      [
        "Ġm",
        "on"
      ],
      [
        "Ġr",
        "ight"
      ],
      [
        "Ġst",
        "op"
      ],
      [
        "Ġjump",
        "ed"
      ],
      [
        "Ġyell",
        "ow"
      ],
      [
        "Ġbeh",
        "ind"
      ],
      [
        "o",
        "se"
      ],
      [
        "Ġhe",
        "ar"
      ],
      [
        "Ġrun",
        "ning"
      ],
      [
        "ĠC",
        "an"
      ],
      [
        "Ġcon",
        "t"
      ],
      [
        "Ġrepl",
        "ied"
      ],
      [
        "C",
        "an"
      ],
      [
        "Ġc",
        "ake"
      ],
      [
        "Ġm",
        "um"
      ],
      [
        "im",
        "es"
      ],
      [
        "Ġcare",
        "fully"
      ],
      [
        "Ġta",
        "st"
      ],
      [
        "Ġshow",
        "ed"
      ],
      [
        "Ġfi",
        "x"
      ],
      [
        "Ġlea",
        "ves"
      ],
      [
        "Ġa",
        "m"
      ],
      [
        "Ġs",
        "ig"
      ],
      [
        "Ġb",
        "re"
      ],
      [
        "Ġon",
        "ly"
      ],
      [
        "Ġfor",
        "g"
      ],
      [
        "Ġfe",
        "ll"
      ],
      [
        "Ġsome",
        "one"
      ],
      [
        "Ġpr",
        "in"
      ],
      [
        "Ġthan",
        "k"
      ],
      [
        "Ġkid",
        "s"
      ],
      [
        "'",
        "re"
      ],
      [
        "it",
        "c"
      ],
      [
        "Ġl",
        "ess"
      ],
      [
        "ĠT",
        "hat"
      ],
      [
        "Ġha",
        "ving"
      ],
      [
        "nt",
        "s"
      ],
      [
        "ro",
        "om"
      ],
      [
        "H",
        "ell"
      ],
      [
        "Ġ",
        "z"
      ],
      [
        "on",
        "s"
      ],
      [
        "Ġhelp",
        "ed"
      ],
      [
        "Ġdre",
        "am"
      ],
      [
        "Ġunder",
        "st"
      ],
      [
        "Ġblock",
        "s"
      ],
      [
        "Hell",
        "o"
      ],
      [
        "W",
        "ow"
      ],
      [
        "ed",
        "dy"
      ],
      [
        "Ġf",
        "ull"
      ],
      [
        "Ġl",
        "ight"
      ],
      [
        "Ġm",
        "ess"
      ],
      [
        "ri",
        "es"
      ],
      [
        "Ġre",
        "ached"
      ],
      [
        "ĠJ",
        "ane"
      ],
      [
        "Ġlear",
        "n"
      ],
      [
        "Ġte",
        "ac"
      ],
      [
        "Jo",
        "hn"
      ],
      [
        "Ġbutter",
        "f"
      ],
      [
        "D",
        "on"
      ],
      [
        "Ġh",
        "at"
      ],
      [
        "Ġh",
        "igh"
      ],
      [
        "Ġp",
        "re"
      ],
      [
        "Ġp",
        "er"
      ],
      [
        "Ġth",
        "ing"
      ],
      [
        "Ġsmil",
        "es"
      ],
      [
        "Ġwr",
        "ong"
      ],
      [
        "Ġde",
        "ep"
      ],
      [
        "Ġfill",
        "ed"
      ],
      [
        "A",
        "fter"
      ],
      [
        "Ġw",
        "ished"
      ],
      [
        "in",
        "ed"
      ],
      [
        "Ġd",
        "r"
      ],
      [
        "Ġr",
        "i"
      ],
      [
        "ĠI",
        "n"
      ],
      [
        "Ġsm",
        "ell"
      ],
      [
        "ard",
        "s"
      ],
      [
        "ĠD",
        "o"
      ],
      [
        "Ġgra",
        "nd"
      ],
      [
        "Ġmo",
        "ve"
      ],
      [
        "Ġlaug",
        "h"
      ],
      [
        "Ġflow",
        "er"
      ],
      [
        "Ġwonder",
        "ful"
      ],
      [
        "ĠN",
        "ow"
      ],
      [
        "Ġteac",
        "her"
      ],
      [
        "J",
        "ack"
      ],
      [
        "u",
        "ed"
      ],
      [
        "Ġh",
        "or"
      ],
      [
        "Ġst",
        "e"
      ],
      [
        "Ġst",
        "ore"
      ],
      [
        "Ġsh",
        "o"
      ],
      [
        "Ġre",
        "ally"
      ],
      [
        "Ġj",
        "u"
      ],
      [
        "Ġreal",
        "ized"
      ],
      [
        "Ġmagic",
        "al"
      ],
      [
        "h",
        "y"
      ],
      [
        "Ġ",
        "ve"
      ],
      [
        "Ġf",
        "ight"
      ],
      [
        "Ġwe",
        "ar"
      ],
      [
        "Ġre",
        "ad"
      ],
      [
        "Ġwor",
        "ry"
      ],
      [
        "Ġus",
        "ed"
      ],
      [
        "Ġbigg",
        "er"
      ],
      [
        "z",
        "y"
      ],
      [
        "Ġ",
        "R"
      ],
      [
        "re",
        "ed"
      ],
      [
        "Ġc",
        "ook"
      ],
      [
        "Ġd",
        "in"
      ],
      [
        "Ġd",
        "raw"
      ],
      [
        "Ġp",
        "art"
      ],
      [
        "ĠThe",
        "re"
      ],
      [
        "Ġe",
        "l"
      ],
      [
        "Ġcat",
        "ch"
      ],
      [
        "Ġcom",
        "ing"
      ],
      [
        "Ġsurpr",
        "ised"
      ],
      [
        "Ġtre",
        "es"
      ],
      [
        "Ġdel",
        "ic"
      ],
      [
        "Ġye",
        "ars"
      ],
      [
        "Ġt",
        "all"
      ],
      [
        "Ġt",
        "ra"
      ],
      [
        "Ġa",
        "ir"
      ],
      [
        "Ġh",
        "id"
      ],
      [
        "Ġf",
        "ro"
      ],
      [
        "Ġp",
        "are"
      ],
      [
        "or",
        "ing"
      ],
      [
        "Ġso",
        "ft"
      ],
      [
        "Ġpl",
        "an"
      ],
      [
        "Ġre",
        "st"
      ],
      [
        "Ġbird",
        "s"
      ],
      [
        "Ġho",
        "ld"
      ],
      [
        "ang",
        "er"
      ],
      [
        "Ġremember",
        "ed"
      ],
      [
        "Ġbutterf",
        "ly"
      ],
      [
        "Ġpare",
        "nts"
      ],
      [
        "c",
        "ret"
      ],
      [
        "Ġa",
        "ble"
      ],
      [
        "Ġto",
        "p"
      ],
      [
        "Ġd",
        "ro"
      ],
      [
        "Ġm",
        "ight"
      ],
      [
        "Ġk",
        "ite"
      ],
      [
        "Ġse",
        "cret"
      ],
      [
        "ĠA",
        "fter"
      ],
      [
        "Ġta",
        "il"
      ],
      [
        "Ġstor",
        "y"
      ],
      [
        "Ġbro",
        "ken"
      ],
      [
        "Ġless",
        "on"
      ],
      [
        "Ġs",
        "u"
      ],
      [
        "Ġb",
        "ag"
      ],
      [
        "Ġc",
        "ried"
      ],
      [
        "Ġc",
        "ool"
      ],
      [
        "Ġg",
        "one"
      ],
      [
        "en",
        "s"
      ],
      [
        "pp",
        "ing"
      ],
      [
        "The",
        "n"
      ],
      [
        "Ġfriend",
        "ly"
      ],
      [
        "Ġsee",
        "m"
      ],
      [
        "Ġstr",
        "ange"
      ],
      [
        "Ġper",
        "f"
      ],
      [
        "Ġto",
        "uch"
      ],
      [
        "Ġc",
        "reat"
      ],
      [
        "Ġd",
        "one"
      ],
      [
        "Ġm",
        "akes"
      ],
      [
        "Ġp",
        "lease"
      ],
      [
        "at",
        "ed"
      ],
      [
        "Ġsa",
        "il"
      ],
      [
        "Ġy",
        "es"
      ],
      [
        "Ġhapp",
        "ily"
      ],
      [
        "Ġta",
        "ble"
      ],
      [
        "Ġany",
        "thing"
      ],
      [
        "Ġfin",
        "ally"
      ],
      [
        "\"",
        "."
      ],
      [
        "T",
        "im"
      ],
      [
        "Ġs",
        "at"
      ],
      [
        "Ġwant",
        "s"
      ],
      [
        "Ġhim",
        "self"
      ],
      [
        "Ġwor",
        "ked"
      ],
      [
        "Ġevery",
        "thing"
      ],
      [
        "Ġfi",
        "re"
      ],
      [
        "Ġamaz",
        "ing"
      ],
      [
        "Ġcont",
        "in"
      ],
      [
        "Ġbre",
        "ak"
      ],
      [
        "Ġel",
        "se"
      ],
      [
        "d",
        "s"
      ],
      [
        "g",
        "s"
      ],
      [
        "p",
        "s"
      ],
      [
        "Ġa",
        "rm"
      ],
      [
        "Ġw",
        "ood"
      ],
      [
        "Ġh",
        "ill"
      ],
      [
        "Ġwa",
        "ll"
      ],
      [
        "Ġm",
        "et"
      ],
      [
        "Ġha",
        "ir"
      ],
      [
        "ir",
        "t"
      ],
      [
        "Ġv",
        "is"
      ],
      [
        "Ġtur",
        "n"
      ],
      [
        "Ġma",
        "king"
      ],
      [
        "Ġenjoy",
        "ed"
      ],
      [
        "Ġar",
        "ri"
      ],
      [
        "Ġcontin",
        "ued"
      ],
      [
        "Ġs",
        "ong"
      ],
      [
        "ou",
        "p"
      ],
      [
        "Ġc",
        "ount"
      ],
      [
        "Ġm",
        "ar"
      ],
      [
        "Ġp",
        "et"
      ],
      [
        "at",
        "er"
      ],
      [
        "an",
        "ce"
      ],
      [
        "am",
        "es"
      ],
      [
        "Ġse",
        "ar"
      ],
      [
        "Ġan",
        "other"
      ],
      [
        "Ġbl",
        "ank"
      ],
      [
        "Ġpo",
        "nd"
      ],
      [
        "Ġcr",
        "ay"
      ],
      [
        "Ġamaz",
        "ed"
      ],
      [
        "Ġow",
        "n"
      ],
      [
        "Ġfollow",
        "ed"
      ],
      [
        "F",
        "rom"
      ],
      [
        "M",
        "aybe"
      ],
      [
        "u",
        "l"
      ],
      [
        "Ġb",
        "uck"
      ],
      [
        "Ġh",
        "un"
      ],
      [
        "Ġc",
        "ut"
      ],
      [
        "ĠS",
        "p"
      ],
      [
        "ow",
        "s"
      ],
      [
        "Ġwh",
        "ite"
      ],
      [
        "Ġlo",
        "st"
      ],
      [
        "Ġcl",
        "ose"
      ],
      [
        "Ġfa",
        "ir"
      ],
      [
        "Ġmo",
        "st"
      ],
      [
        "ĠG",
        "ra"
      ],
      [
        "Ġfar",
        "m"
      ],
      [
        "Ġpicture",
        "s"
      ],
      [
        "Ġtal",
        "k"
      ],
      [
        "Ġslow",
        "ly"
      ],
      [
        "Ġju",
        "ice"
      ],
      [
        "Ġblank",
        "et"
      ],
      [
        "a",
        "ir"
      ],
      [
        "o",
        "l"
      ],
      [
        "u",
        "ally"
      ],
      [
        "Ġt",
        "ight"
      ],
      [
        "Ġb",
        "at"
      ],
      [
        "Ġm",
        "at"
      ],
      [
        "Ġher",
        "self"
      ],
      [
        "Ġbe",
        "e"
      ],
      [
        "Ġsp",
        "l"
      ],
      [
        "ĠJ",
        "en"
      ],
      [
        "ĠJ",
        "ill"
      ],
      [
        "Ġro",
        "ll"
      ],
      [
        "Ġag",
        "reed"
      ],
      [
        "Ġsw",
        "im"
      ],
      [
        "Ġcom",
        "p"
      ],
      [
        "Ġmon",
        "ster"
      ],
      [
        "T",
        "immy"
      ],
      [
        "in",
        "s"
      ],
      [
        "ĠT",
        "o"
      ],
      [
        "ĠBen",
        "ny"
      ],
      [
        "Ġj",
        "oy"
      ],
      [
        "Ġfun",
        "ny"
      ],
      [
        "ĠTom",
        "my"
      ],
      [
        "Th",
        "is"
      ],
      [
        "Ġclimb",
        "ed"
      ],
      [
        "Ġcolor",
        "s"
      ],
      [
        "Ġflo",
        "or"
      ],
      [
        "Ġunderst",
        "and"
      ],
      [
        "Ġarri",
        "ved"
      ],
      [
        "O",
        "K"
      ],
      [
        "p",
        "e"
      ],
      [
        "u",
        "ff"
      ],
      [
        "Ġl",
        "and"
      ],
      [
        "Ġc",
        "and"
      ],
      [
        "Ġhe",
        "ld"
      ],
      [
        "Ġm",
        "ine"
      ],
      [
        "Ġli",
        "on"
      ],
      [
        "Ġk",
        "itc"
      ],
      [
        "ra",
        "g"
      ],
      [
        "Ġcl",
        "a"
      ],
      [
        "ĠW",
        "hat"
      ],
      [
        "Ġbl",
        "ack"
      ],
      [
        "Ġhor",
        "se"
      ],
      [
        "Ġste",
        "pped"
      ],
      [
        "Ġdelic",
        "ious"
      ],
      [
        "Ġkitc",
        "hen"
      ],
      [
        "Ġw",
        "on"
      ],
      [
        "ĠA",
        "ll"
      ],
      [
        "Ġsp",
        "ot"
      ],
      [
        "Ġsp",
        "oon"
      ],
      [
        "as",
        "k"
      ],
      [
        "Ġfast",
        "er"
      ],
      [
        "Ġstay",
        "ed"
      ],
      [
        "Ġpull",
        "ed"
      ],
      [
        "Ġmor",
        "ning"
      ],
      [
        "'",
        "ll"
      ],
      [
        "A",
        "t"
      ],
      [
        "O",
        "h"
      ],
      [
        "d",
        "er"
      ],
      [
        "Ġt",
        "ri"
      ],
      [
        "Ġd",
        "uck"
      ],
      [
        "Ġp",
        "ap"
      ],
      [
        "Ġg",
        "ent"
      ],
      [
        "Ġbr",
        "ought"
      ],
      [
        "ĠE",
        "m"
      ],
      [
        "Ġget",
        "ting"
      ],
      [
        "Ġen",
        "ough"
      ],
      [
        "Ġlong",
        "er"
      ],
      [
        "Ġthink",
        "s"
      ],
      [
        "Ġsho",
        "es"
      ],
      [
        "Ġdin",
        "ner"
      ],
      [
        "Ġperf",
        "ect"
      ],
      [
        "Ġvis",
        "it"
      ],
      [
        "ĠSp",
        "ot"
      ],
      [
        "S",
        "am"
      ],
      [
        "m",
        "e"
      ],
      [
        "m",
        "ent"
      ],
      [
        "r",
        "ow"
      ],
      [
        "Ġs",
        "et"
      ],
      [
        "Ġf",
        "ree"
      ],
      [
        "Ġl",
        "on"
      ],
      [
        "Ġp",
        "ink"
      ],
      [
        "is",
        "ter"
      ],
      [
        "an",
        "ch"
      ],
      [
        "ot",
        "t"
      ],
      [
        "Ġr",
        "ace"
      ],
      [
        "ĠM",
        "aybe"
      ],
      [
        "as",
        "ure"
      ],
      [
        "Ġbr",
        "anch"
      ],
      [
        "Ġal",
        "one"
      ],
      [
        "Ġho",
        "pped"
      ],
      [
        "Ġbu",
        "y"
      ],
      [
        "Ġbook",
        "s"
      ],
      [
        "Ġlist",
        "ened"
      ],
      [
        "Ġbuck",
        "et"
      ],
      [
        "b",
        "or"
      ],
      [
        "b",
        "ble"
      ],
      [
        "e",
        "ared"
      ],
      [
        "l",
        "c"
      ],
      [
        "s",
        "p"
      ],
      [
        "Ġw",
        "et"
      ],
      [
        "Ġb",
        "us"
      ],
      [
        "Ġf",
        "all"
      ],
      [
        "Ġp",
        "us"
      ],
      [
        "Ġsa",
        "nd"
      ],
      [
        "Ġmom",
        "ent"
      ],
      [
        "Ġcl",
        "oud"
      ],
      [
        "Ġsomet",
        "imes"
      ],
      [
        "vent",
        "ually"
      ],
      [
        "Ġneed",
        "ed"
      ],
      [
        "Ġfin",
        "ished"
      ],
      [
        "Ġpain",
        "t"
      ],
      [
        "Ġsig",
        "n"
      ],
      [
        "Ġforg",
        "ot"
      ],
      [
        "H",
        "is"
      ],
      [
        "i",
        "et"
      ],
      [
        "Ġs",
        "ide"
      ],
      [
        "Ġs",
        "ister"
      ],
      [
        "in",
        "ally"
      ],
      [
        "Ġh",
        "ide"
      ],
      [
        "Ġd",
        "anc"
      ],
      [
        "Ġsa",
        "me"
      ],
      [
        "ow",
        "er"
      ],
      [
        "Ġsh",
        "ap"
      ],
      [
        "Ġpo",
        "in"
      ],
      [
        "Ġqu",
        "iet"
      ],
      [
        "Ġstor",
        "ies"
      ],
      [
        "Ġask",
        "s"
      ],
      [
        "ĠTh",
        "is"
      ],
      [
        "Ġba",
        "by"
      ],
      [
        "Ġlon",
        "ely"
      ],
      [
        "a",
        "w"
      ],
      [
        "i",
        "re"
      ],
      [
        "l",
        "ight"
      ],
      [
        "Ġs",
        "ch"
      ],
      [
        "Ġm",
        "other"
      ],
      [
        "Ġp",
        "rom"
      ],
      [
        "is",
        "es"
      ],
      [
        "Ġn",
        "ap"
      ],
      [
        "Ġn",
        "aught"
      ],
      [
        "ĠB",
        "e"
      ],
      [
        "un",
        "ch"
      ],
      [
        "Ġsp",
        "ark"
      ],
      [
        "ur",
        "se"
      ],
      [
        "ic",
        "y"
      ],
      [
        "Ġfe",
        "w"
      ],
      [
        "Ġsc",
        "ary"
      ],
      [
        "ro",
        "ss"
      ],
      [
        "Ġadventure",
        "s"
      ],
      [
        "Ġgr",
        "ow"
      ],
      [
        "Ġfly",
        "ing"
      ],
      [
        "Ġtow",
        "ards"
      ],
      [
        "ĠDad",
        "dy"
      ],
      [
        "Ġpart",
        "y"
      ],
      [
        "Ġsch",
        "ool"
      ],
      [
        "a",
        "v"
      ],
      [
        "e",
        "ver"
      ],
      [
        "g",
        "le"
      ],
      [
        "i",
        "ke"
      ],
      [
        "Ġt",
        "eddy"
      ],
      [
        "Ġs",
        "illy"
      ],
      [
        "Ġf",
        "ig"
      ],
      [
        "Ġc",
        "raw"
      ],
      [
        "Ġd",
        "anger"
      ],
      [
        "Ġk",
        "itt"
      ],
      [
        "op",
        "e"
      ],
      [
        "Ġch",
        "ick"
      ],
      [
        "Ġevery",
        "where"
      ],
      [
        "Ġpr",
        "o"
      ],
      [
        "Ġfeel",
        "s"
      ],
      [
        "our",
        "s"
      ],
      [
        "Ġrun",
        "s"
      ],
      [
        "Ġdoll",
        "s"
      ],
      [
        "Ġtry",
        "ing"
      ],
      [
        "Ġbat",
        "h"
      ],
      [
        "H",
        "i"
      ],
      [
        "L",
        "ucy"
      ],
      [
        "b",
        "o"
      ],
      [
        "c",
        "ess"
      ],
      [
        "p",
        "h"
      ],
      [
        "Ġb",
        "ar"
      ],
      [
        "re",
        "l"
      ],
      [
        "Ġwa",
        "ited"
      ],
      [
        "Ġf",
        "ur"
      ],
      [
        "Ġfl",
        "ash"
      ],
      [
        "Ġsw",
        "ing"
      ],
      [
        "Ġexpl",
        "oring"
      ],
      [
        "Ġfo",
        "x"
      ],
      [
        "Ġsn",
        "ack"
      ],
      [
        "Ġfro",
        "g"
      ],
      [
        "Ġhun",
        "gry"
      ],
      [
        "M",
        "olly"
      ],
      [
        "e",
        "y"
      ],
      [
        "y",
        "ard"
      ],
      [
        "Ġs",
        "it"
      ],
      [
        "Ġb",
        "ott"
      ],
      [
        "Ġp",
        "ass"
      ],
      [
        "ot",
        "hes"
      ],
      [
        "Ġpl",
        "ant"
      ],
      [
        "Ġsm",
        "o"
      ],
      [
        "Ġdo",
        "ing"
      ],
      [
        "Ġat",
        "t"
      ],
      [
        "ain",
        "ed"
      ],
      [
        "um",
        "b"
      ],
      [
        "Ġcl",
        "othes"
      ],
      [
        "Ġtur",
        "ned"
      ],
      [
        "Ġhop",
        "ed"
      ],
      [
        "Ġseem",
        "ed"
      ],
      [
        "Ġpap",
        "er"
      ],
      [
        "Ġnaught",
        "y"
      ],
      [
        "L",
        "ila"
      ],
      [
        "i",
        "x"
      ],
      [
        "o",
        "om"
      ],
      [
        "Ġs",
        "uch"
      ],
      [
        "Ġc",
        "ast"
      ],
      [
        "Ġc",
        "ush"
      ],
      [
        "Ġd",
        "es"
      ],
      [
        "Ġwas",
        "n"
      ],
      [
        "Ġg",
        "em"
      ],
      [
        "id",
        "ge"
      ],
      [
        "at",
        "ion"
      ],
      [
        "or",
        "m"
      ],
      [
        "Ġwe",
        "lc"
      ],
      [
        "Ġne",
        "igh"
      ],
      [
        "Ġta",
        "kes"
      ],
      [
        "Ġclos",
        "ed"
      ],
      [
        "Ġbu",
        "ild"
      ],
      [
        "ct",
        "or"
      ],
      [
        "Ġcush",
        "ion"
      ],
      [
        "S",
        "ure"
      ],
      [
        "l",
        "f"
      ],
      [
        "u",
        "it"
      ],
      [
        "Ġb",
        "un"
      ],
      [
        "Ġh",
        "ot"
      ],
      [
        "re",
        "w"
      ],
      [
        "Ġc",
        "aught"
      ],
      [
        "ar",
        "ing"
      ],
      [
        "or",
        "ed"
      ],
      [
        "le",
        "ph"
      ],
      [
        "Ġyou",
        "ng"
      ],
      [
        "Ġsm",
        "art"
      ],
      [
        "Ġback",
        "yard"
      ],
      [
        "Ġme",
        "et"
      ],
      [
        "Ġor",
        "ange"
      ],
      [
        "Ġche",
        "ered"
      ],
      [
        "Ġcry",
        "ing"
      ],
      [
        "Ġdis",
        "co"
      ],
      [
        "uff",
[...]
