{
  "version": "1.0",
  "truncation": null,
  "padding": null,
  "added_tokens": [
    {
      "id": 0,
      "content": "<pad>",
      "single_word": false,
      "lstrip": false,
      "rstrip": false,
      "normalized": false,
      "special": true
    },
    {
      "id": 1,
      "content": "<unk>",
      "single_word": false,
      "lstrip": false,
      "rstrip": false,
      "normalized": false,
      "special": true
    },
    {
      "id": 2,
      "content": "<bos>",
      "single_word": false,
      "lstrip": false,
      "rstrip": false,
      "normalized": false,
      "special": true
    },
    {
      "id": 3,
      "content": "<eos>",
      "single_word": false,
      "lstrip": false,
      "rstrip": false,
      "normalized": false,
      "special": true
    },
    {
      "id": 4,
      "content": "<|user|>",
      "single_word": false,
      "lstrip": false,
      "rstrip": false,
      "normalized": false,
      "special": true
    },
    {
      "id": 5,
      "content": "<|assistant|>",
      "single_word": false,
      "lstrip": false,
      "rstrip": false,
      "normalized": false,
      "special": true
    },
    {
      "id": 6,
      "content": "<|system|>",
      "single_word": false,
      "lstrip": false,
      "rstrip": false,
      "normalized": false,
      "special": true
    },
    {
      "id": 7,
      "content": "<|tool|>",
      "single_word": false,
      "lstrip": false,
      "rstrip": false,
      "normalized": false,
      "special": true
    },
    {
      "id": 8,
      "content": "<|tool_result|>",
      "single_word": false,
      "lstrip": false,
      "rstrip": false,
      "normalized": false,
      "special": true
    }
  ],
  "normalizer": null,
  "pre_tokenizer": {
    "type": "ByteLevel",
    "add_prefix_space": false,
    "trim_offsets": true,
    "use_regex": true
  },
  "post_processor": null,
  "decoder": {
    "type": "ByteLevel",
    "add_prefix_space": true,
    "trim_offsets": true,
    "use_regex": true
  },
  "model": {
    "type": "BPE",
    "dropout": null,
    "unk_token": "<unk>",
    "continuing_subword_prefix": null,
    "end_of_word_suffix": null,
    "fuse_unk": false,
    "byte_fallback": false,
    "ignore_merges": false,
    "vocab": {
      "<pad>": 0,
      "<unk>": 1,
      "<bos>": 2,
      "<eos>": 3,
      "<|user|>": 4,
      "<|assistant|>": 5,
      "<|system|>": 6,
      "<|tool|>": 7,
      "<|tool_result|>": 8,
      "!": 9,
      "\"": 10,
      "#": 11,
      "$": 12,
      "%": 13,
      "&": 14,
      "'": 15,
      "(": 16,
      ")": 17,
      "*": 18,
      "+": 19,
      ",": 20,
      "-": 21,
      ".": 22,
      "/": 23,
      "0": 24,
      "1": 25,
      "2": 26,
      "3": 27,
      "4": 28,
      "5": 29,
      "6": 30,
      "7": 31,
      "8": 32,
      "9": 33,
      ":": 34,
      ";": 35,
      "<": 36,
      "=": 37,
      ">": 38,
      "?": 39,
      "@": 40,
      "A": 41,
      "B": 42,
      "C": 43,
      "D": 44,
      "E": 45,
      "F": 46,
      "G": 47,
      "H": 48,
      "I": 49,
      "J": 50,
      "K": 51,
      "L": 52,
      "M": 53,
      "N": 54,
      "O": 55,
      "P": 56,
      "Q": 57,
      "R": 58,
      "S": 59,
      "T": 60,
      "U": 61,
      "V": 62,
      "W": 63,
      "X": 64,
      "Y": 65,
      "Z": 66,
      "[": 67,
      "\\": 68,
      "]": 69,
      "^": 70,
      "_": 71,
      "`": 72,
      "a": 73,
      "b": 74,
      "c": 75,
      "d": 76,
      "e": 77,
      "f": 78,
      "g": 79,
      "h": 80,
      "i": 81,
      "j": 82,
      "k": 83,
      "l": 84,
      "m": 85,
      "n": 86,
      "o": 87,
      "p": 88,
      "q": 89,
      "r": 90,
      "s": 91,
      "t": 92,
      "u": 93,
      "v": 94,
      "w": 95,
      "x": 96,
      "y": 97,
      "z": 98,
      "{": 99,
      "|": 100,
      "}": 101,
      "~": 102,
      "¡": 103,
      "¢": 104,
      "£": 105,
      "¤": 106,
      "¥": 107,
      "¦": 108,
      "§": 109,
      "¨": 110,
      "©": 111,
      "ª": 112,
      "«": 113,
      "¬": 114,
      "®": 115,
      "¯": 116,
      "°": 117,
      "±": 118,
      "²": 119,
      "³": 120,
      "´": 121,
      "µ": 122,
      "¶": 123,
      "·": 124,
      "¸": 125,
      "¹": 126,
      "º": 127,
      "»": 128,
      "¼": 129,
      "½": 130,
      "¾": 131,
      "¿": 132,
      "Â": 133,
      "Ã": 134,
      "Ä": 135,
      "Å": 136,
      "Æ": 137,
      "Ç": 138,
      "È": 139,
      "É": 140,
      "Ê": 141,
      "Ë": 142,
      "Ì": 143,
      "Î": 144,
      "Ï": 145,
      "Ð": 146,
      "Ñ": 147,
      "Ö": 148,
      "×": 149,
      "Ø": 150,
      "Ù": 151,
      "Ú": 152,
      "Û": 153,
      "à": 154,
      "á": 155,
      "â": 156,
      "ã": 157,
      "ä": 158,
      "å": 159,
      "æ": 160,
      "ç": 161,
      "è": 162,
      "é": 163,
      "ê": 164,
      "ë": 165,
      "ì": 166,
      "í": 167,
      "î": 168,
      "ï": 169,
      "ð": 170,
      "ĉ": 171,
      "Ċ": 172,
      "č": 173,
      "Ġ": 174,
      "Ģ": 175,
      "ģ": 176,
      "Ĥ": 177,
      "ĥ": 178,
      "Ħ": 179,
      "ħ": 180,
      "Ĩ": 181,
      "ĩ": 182,
      "Ī": 183,
      "ī": 184,
      "Ĭ": 185,
      "ĭ": 186,
      "Į": 187,
      "į": 188,
      "İ": 189,
      "ı": 190,
      "Ĳ": 191,
      "ĳ": 192,
      "Ĵ": 193,
      "ĵ": 194,
      "Ķ": 195,
      "ķ": 196,
      "ĸ": 197,
      "Ĺ": 198,
      "ĺ": 199,
      "Ļ": 200,
      "ļ": 201,
      "Ľ": 202,
      "ľ": 203,
      "Ŀ": 204,
      "ŀ": 205,
      "Ł": 206,
      "ł": 207,
      "Ń": 208,
      "Ġt": 209,
      "he": 210,
      "Ġa": 211,
      "in": 212,
      "Ġs": 213,
      "Ġthe": 214,
      "re": 215,
      "Ġw": 216,
      "nd": 217,
      "on": 218,
      "er": 219,
      "at": 220,
      "ed": 221,
      "Ġc": 222,
      "Ġo": 223,
      "it": 224,
      "Ġb": 225,
      "Ġf": 226,
      "Ġand": 227,
      "Ġto": 228,
      "en": 229,
      "is": 230,
      "Ġp": 231,
      "ou": 232,
      "or": 233,
      "es": 234,
      "ing": 235,
      "an": 236,
      "Ġm": 237,
      "al": 238,
      "Ġd": 239,
      "ar": 240,
      "Ġh": 241,
      "as": 242,
      "Ġof": 243,
      "Ġin": 244,
      "Ġl": 245,
      "om": 246,
      "ion": 247,
      "ic": 248,
      "le": 249,
      "Ġth": 250,
      "Ġn": 251,
      "Ġe": 252,
      "il": 253,
      "Ġg": 254,
      "ĠT": 255,
      "id": 256,
      "et": 257,
      "ent": 258,
      "Ġhe": 259,
      "im": 260,
      "ay": 261,
      "ct": 262,
      "Ġwas": 263,
      "ve": 264,
      "Ġre": 265,
      "ro": 266,
      "ut": 267,
      "st": 268,
      "ĠS": 269,
      "ly": 270,
      "ad": 271,
      "ot": 272,
      "Ġbe": 273,
      "ig": 274,
      "ow": 275,
      "Ġu": 276,
      "ĠĠ": 277,
      "ce": 278,
      "ver": 279,
      "am": 280,
      "Ġit": 281,
      "Ġst": 282,
      "Ġis": 283,
      "ir": 284,
      "ol": 285,
      "se": 286,
      "Ġy": 287,
      "ĠThe": 288,
      "Ġfor": 289,
      "Ġthat": 290,
      "Ġon": 291,
      "ĠI": 292,
      "ch": 293,
      "ation": 294,
      "ith": 295,
      "el": 296,
      "ur": 297,
      "ĠH": 298,
      "Ġwith": 299,
      "ra": 300,
      "ul": 301,
      "Ġyou": 302,
      "ld": 303,
      "Ġsa": 304,
      "ĠA": 305,
      "Ġha": 306,
      "pp": 307,
      "Ġan": 308,
      "Ġas": 309,
      "ri": 310,
      "Ġ\"": 311,
      "ke": 312,
      "if": 313,
      "Ġal": 314,
      "her": 315,
      "Ġwh": 316,
      "Ġwe": 317,
      "um": 318,
      "un": 319,
      "oo": 320,
      "ĠM": 321,
      "ck": 322,
      "Ġher": 323,
      "ter": 324,
      "Ġex": 325,
      "ant": 326,
      "ore": 327,
      "ĠC": 328,
      "Ġcon": 329,
      "Ġare": 330,
      "ht": 331,
      "ĠHe": 332,
      "Ġpro": 333,
      "'s": 334,
      "pe": 335,
      "ould": 336,
      "Ġor": 337,
      "Ġso": 338,
      "âĢ": 339,
      "ĠB": 340,
      "Ġ(": 341,
      "qu": 342,
      "Ġne": 343,
      "ate": 344,
      "Ġde": 345,
      "Ġr": 346,
      "Ġpl": 347,
      "ge": 348,
      "The": 349,
      "Ġ1": 350,
      "ĠL": 351,
      "ĠShe": 352,
      "ers": 353,
      "Ġsh": 354,
      "Ġse": 355,
      "ill": 356,
      "ist": 357,
      "ure": 358,
      "Ġshe": 359,
      "Ġv": 360,
      "ab": 361,
      "est": 362,
      "Ġsaid": 363,
      "rom": 364,
      "Ġcom": 365,
      "very": 366,
      "Ġat": 367,
      "Ġcan": 368,
      "On": 369,
      "Ġhis": 370,
      "rou": 371,
      "ain": 372,
      "Ġnot": 373,
      "us": 374,
      "os": 375,
      "ked": 376,
      "ess": 377,
      "ĠP": 378,
      "Ġup": 379,
      "ive": 380,
      "th": 381,
      "all": 382,
      "em": 383,
      "Ġthey": 384,
      "ight": 385,
      "ity": 386,
      "od": 387,
      "ime": 388,
      "nt": 389,
      "iv": 390,
      "op": 391,
      "Ġday": 392,
      "ud": 393,
      "Ġk": 394,
      "ies": 395,
      "art": 396,
      "ction": 397,
      "ome": 398,
      "ide": 399,
      "red": 400,
      "ily": 401,
      "Ġch": 402,
      "Ġhad": 403,
      "ment": 404,
      "Ġby": 405,
      "ĠW": 406,
      "ard": 407,
      "Ġ2": 408,
      "Ġdo": 409,
      "pl": 410,
      "Ġsu": 411,
      "res": 412,
      "Ġ\\": 413,
      "Ġhave": 414,
      "Ġfrom": 415,
      "and": 416,
      "ĠJ": 417,
      "ĠThey": 418,
      "ĠĠĠĠ": 419,
      "Ġbut": 420,
      "ĠE": 421,
      "ial": 422,
      "Ġthere": 423,
      "Ġtime": 424,
      "ack": 425,
      "ĠF": 426,
      "pt": 427,
      "ĠD": 428,
      "itt": 429,
      "Ġma": 430,
      "ort": 431,
      "fe": 432,
      "Ġle": 433,
      "ry": 434,
      "hen": 435,
      "end": 436,
      "ind": 437,
      "Ġwor": 438,
      "Ġout": 439,
      "Ġj": 440,
      "Ġtheir": 441,
      "Ġthis": 442,
      "Ġall": 443,
      "Ġplay": 444,
      "ther": 445,
      "ame": 446,
      "Ġwere": 447,
      "Ġint": 448,
      "ĠR": 449,
      "Ġsm": 450,
      "out": 451,
      "Ġcl": 452,
      "ĠN": 453,
      "Ġ$": 454,
      "Ġli": 455,
      "per": 456,
      "Ġab": 457,
      "ell": 458,
      "Ġ=": 459,
      "Ġlo": 460,
      "my": 461,
      "ĠĊ": 462,
      "ical": 463,
      "Ġmom": 464,
      "Ġvery": 465,
      "ittle": 466,
      "ust": 467,
      "Ġhapp": 468,
      "Ġus": 469,
      "00": 470,
      "Ġwant": 471,
      "Ġlittle": 472,
      "ine": 473,
      "iz": 474,
      "ĠIt": 475,
      "Ġme": 476,
      "Ġim": 477,
      "are": 478,
      "one": 479,
      "Ġcould": 480,
      "ue": 481,
      "Ġen": 482,
      "ong": 483,
      "ag": 484,
      "'t": 485,
      "ac": 486,
      ".\"": 487,
      "ple": 488,
      "ast": 489,
      "Ġyour": 490,
      "ous": 491,
      "ie": 492,
      "king": 493,
      "ved": 494,
      "Ġgo": 495,
      "ug": 496,
      "Ġfun": 497,
      "Ġmore": 498,
      "ood": 499,
      "Ġloo": 500,
      "ĠG": 501,
      "Ġman": 502,
      "act": 503,
      "Ġthem": 504,
      "our": 505,
      "Ġad": 506,
      "ich": 507,
      "ound": 508,
      "Ġsc": 509,
      "low": 510,
      "ach": 511,
      "age": 512,
      "ĠĠĠ": 513,
      "ice": 514,
      "Ġco": 515,
      "One": 516,
      "ult": 517,
      "ations": 518,
      "Ġbig": 519,
      "round": 520,
      "ated": 521,
      "ass": 522,
      "Ġkn": 523,
      "og": 524,
      "ĠLily": 525,
      "Ġother": 526,
      "riend": 527,
      "Ġhel": 528,
      "Ġhappy": 529,
      "Ġsp": 530,
      "hed": 531,
      "ally": 532,
      "orm": 533,
      "so": 534,
      "ions": 535,
      "Ġfe": 536,
      "Ġfriend": 537,
      "Once": 538,
      "Ġwould": 539,
      "Ġsome": 540,
      "Ġro": 541,
      "way": 542,
      "Ġres": 543,
      "ase": 544,
      "Ġsaw": 545,
      "Ġone": 546,
      "Ġtr": 547,
      "Ġhim": 548,
      "int": 549,
      "ark": 550,
      "Ġbo": 551,
      "ĠTh": 552,
      "Ġhelp": 553,
      "ree": 554,
      "Ġspe": 555,
      "Ġcont": 556,
      "ans": 557,
      "ace": 558,
      "ear": 559,
      "eth": 560,
      "Ġwill": 561,
      "ber": 562,
      "ep": 563,
      "able": 564,
      "irl": 565,
      "Ġ-": 566,
      "Ġdis": 567,
      "Ġpo": 568,
      "cc": 569,
      "ence": 570,
      "ite": 571,
      "Ġwhich": 572,
      "ary": 573,
      "Ġlike": 574,
      "ance": 575,
      "ile": 576,
      "cl": 577,
      "Ġtoo": 578,
      "Ġgirl": 579,
      "ings": 580,
      "Ġupon": 581,
      "Ġwho": 582,
      "Ġev": 583,
      "Ġun": 584,
      "ful": 585,
      "Ġta": 586,
      "ign": 587,
      "Ġar": 588,
      "ip": 589,
      "ang": 590,
      "ble": 591,
      "ex": 592,
      "Ġper": 593,
      "Ġqu": 594,
      "gh": 595,
      "Ġmo": 596,
      "Ġnew": 597,
      "ect": 598,
      "ater": 599,
      "ia": 600,
      "Ġstr": 601,
      "!\"": 602,
      "Ġapp": 603,
      "av": 604,
      "Ġabout": 605,
      "own": 606,
      "Ġwhen": 607,
      "ress": 608,
      "Ġag": 609,
      "ĠIn": 610,
      "Ġif": 611,
      "ap": 612,
      "ents": 613,
      "vel": 614,
      "Ġhas": 615,
      "Ġcomp": 616,
      "Ġwanted": 617,
      "here": 618,
      "Ġthan": 619,
      "âĢĻ": 620,
      "Ġtw": 621,
      "reat": 622,
      "Ġback": 623,
      "Ġwhat": 624,
      "get": 625,
      "nder": 626,
      "ĠU": 627,
      "\":": 628,
      "Ġalso": 629,
      "uc": 630,
      "ory": 631,
      "Ġ3": 632,
      "ks": 633,
      "Ġaround": 634,
      "Ġmake": 635,
      "we": 636,
      "ade": 637,
      "ild": 638,
      "ited": 639,
      "port": 640,
      "Ġbec": 641,
      "Ġthen": 642,
      "Ġdid": 643,
      "Ġno": 644,
      "ĠâĢ": 645,
      "ĠTim": 646,
      "Ġstart": 647,
      ",\"": 648,
      "Ġbet": 649,
      "ys": 650,
      "form": 651,
      "Ġinto": 652,
      "__": 653,
      "iled": 654,
      "Ġover": 655,
      "ll": 656,
      "ft": 657,
      "Ġwent": 658,
      "ren": 659,
      "cial": 660,
      "Ġhow": 661,
      "hat": 662,
      "You": 663,
      "ĠO": 664,
      "side": 665,
      "Ġpre": 666,
      "ors": 667,
      "ens": 668,
      "old": 669,
      "âĤ": 670,
      "Ġany": 671,
      "use": 672,
      "ph": 673,
      "ub": 674,
      "Ã¢": 675,
      "âĤ¬": 676,
      "ew": 677,
      "Ġdec": 678,
      "ob": 679,
      "ire": 680,
      "ish": 681,
      "Ġget": 682,
      "Ġnum": 683,
      "ise": 684,
      "urn": 685,
      "Ġpe": 686,
      "ces": 687,
      "ount": 688,
      "ition": 689,
      "ĠThis": 690,
      "ord": 691,
      "Ġsee": 692,
      "Ġra": 693,
      "Ġsom": 694,
      "ff": 695,
      "Ġtwo": 696,
      "Ġits": 697,
      ").": 698,
      "ick": 699,
      "Ġfriends": 700,
      "Ġpart": 701,
      "Ġneed": 702,
      "amed": 703,
      "Ġbl": 704,
      "Ġdif": 705,
      "Ġfind": 706,
      "ious": 707,
      "oc": 708,
      "rent": 709,
      "elt": 710,
      "wn": 711,
      "Ġke": 712,
      "ght": 713,
      "Ġsmiled": 714,
      "Ġfunction": 715,
      "Ġfound": 716,
      "ose": 717,
      "ict": 718,
      "ĠK": 719,
      "ath": 720,
      "Ġte": 721,
      "Ġam": 722,
      "Ġem": 723,
      "ty": 724,
      "Ġasked": 725,
      "Ġcol": 726,
      "ĠOne": 727,
      "ject": 728,
      "Ġpr": 729,
      "ird": 730,
      "Ġsy": 731,
      "arn": 732,
      "Ġmy": 733,
      "les": 734,
      "als": 735,
      "Ġla": 736,
      "ons": 737,
      "Ġunder": 738,
      "ething": 739,
      "**": 740,
      "fect": 741,
      "?\"": 742,
      "ĊĠĠĠĠ": 743,
      "ared": 744,
      "fter": 745,
      "irst": 746,
      "ĊĠĠĠ": 747,
      "Ġsay": 748,
      "str": 749,
      "uct": 750,
      "Ġsomething": 751,
      "Ġcar": 752,
      "oth": 753,
      "ause": 754,
      "),": 755,
      "Ġmade": 756,
      "Ġbeen": 757,
      "Ġnamed": 758,
      "igh": 759,
      "uch": 760,
      "Ġran": 761,
      "Ġind": 762,
      "ext": 763,
      "Ġob": 764,
      "Ġevery": 765,
      "Ġagain": 766,
      "Ġrel": 767,
      "Ġoff": 768,
      "Ġlooked": 769,
      "sel": 770,
      "Ġeach": 771,
      "Ġstud": 772,
      "Ġexc": 773,
      "ates": 774,
      "Ġfelt": 775,
      "Ġuse": 776,
      "Ġloved": 777,
      "Ġyear": 778,
      "co": 779,
      "ific": 780,
      "ci": 781,
      "Ġtoget": 782,
      "Ġtogether": 783,
      "Ġexpl": 784,
      "ave": 785,
      "Ġboy": 786,
      "Ġsuch": 787,
      "Ġway": 788,
      "Ġ4": 789,
      "Ġstarted": 790,
      "Ġknow": 791,
      "Ġdiffe": 792,
      "pped": 793,
      "ak": 794,
      "Ġcomm": 795,
      "ative": 796,
      "ility": 797,
      "te": 798,
      "ied": 799,
      "Ġcall": 800,
      "Ġ+": 801,
      "ĠBut": 802,
      "Ġthese": 803,
      "erm": 804,
      "Ġdes": 805,
      "Ġset": 806,
      "Ġinter": 807,
      "Ġaway": 808,
      "ided": 809,
      "ract": 810,
      "Ġ{": 811,
      "Ġdown": 812,
      "Ġrec": 813,
      "ople": 814,
      "Ġ5": 815,
      "Ġcons": 816,
      "Ġwhere": 817,
      "vers": 818,
      "..": 819,
      "Ġ0": 820,
      "Ġmod": 821,
      "Ġsur": 822,
      "Ġhome": 823,
      "Ġthou": 824,
      "Ġbird": 825,
      "Ġform": 826,
      "Ġshow": 827,
      "Ġrem": 828,
      "ĠV": 829,
      "ollow": 830,
      "ating": 831,
      "eg": 832,
      "Âł": 833,
      "Ġgood": 834,
      "rough": 835,
      "Ġgen": 836,
      "ata": 837,
      "Ġfirst": 838,
      "ian": 839,
      "Ġjust": 840,
      "cre": 841,
      "clud": 842,
      "ĠSt": 843,
      "Ġfl": 844,
      "Ġ19": 845,
      "rib": 846,
      "01": 847,
      "ĠTimmy": 848,
      "Ġtra": 849,
      "lect": 850,
      "Ġval": 851,
      "Ġacc": 852,
      "ities": 853,
      "fore": 854,
      "Ġmay": 855,
      "ween": 856,
      "oss": 857,
      "ail": 858,
      "Ġused": 859,
      "ution": 860,
      "Ġsk": 861,
      "ics": 862,
      "Ġput": 863,
      "Ġlearn": 864,
      "hes": 865,
      "Ġour": 866,
      "Ġonly": 867,
      "ĠCh": 868,
      "ual": 869,
      "Ġfollow": 870,
      "Ġmany": 871,
      "Ġbetween": 872,
      "Ġtake": 873,
      "Ġfeel": 874,
      "ĠBen": 875,
      "Ġshould": 876,
      "Ġreg": 877,
      "Ġprov": 878,
      "ib": 879,
      "stem": 880,
      "Ġcare": 881,
      "Ġpeople": 882,
      "Ġthrough": 883,
      "ĠYou": 884,
      "pr": 885,
      "ular": 886,
      "``": 887,
      "Ġph": 888,
      "ures": 889,
      "Ġold": 890,
      "Ġadd": 891,
      "Ġexcited": 892,
      "ook": 893,
      "row": 894,
      "olog": 895,
      "Ġeven": 896,
      "Ġwork": 897,
      "ways": 898,
      "ouse": 899,
      "ving": 900,
      "cess": 901,
      "Ġwal": 902,
      "##": 903,
      "Th": 904,
      "In": 905,
      "Ġthings": 906,
      "Ġtri": 907,
      "Ġmuch": 908,
      "Ġbr": 909,
      "den": 910,
      "Ġbecause": 911,
      "ffect": 912,
      "Ġcur": 913,
      "Ġbu": 914,
      "ĠWe": 915,
      "iss": 916,
      "ink": 917,
      "Ġlong": 918,
      "ample": 919,
      "}{": 920,
      "Ġgra": 921,
      "oy": 922,
      "ient": 923,
      "self": 924,
      "ning": 925,
      "vent": 926,
      "Ġpark": 927,
      "Ġsmall": 928,
      "âĢĿ": 929,
      "Ġhand": 930,
      "Ġnumber": 931,
      "ĠTom": 932,
      "Ġboth": 933,
      "Ġimp": 934,
      "Ġwater": 935,
      "Ġcre": 936,
      "Ġdifferent": 937,
      "ari": 938,
      "Ġ&": 939,
      "ased": 940,
      "Ġinclud": 941,
      "ize": 942,
      "Ġact": 943,
      "Ġret": 944,
      "Ġ'": 945,
      "ax": 946,
      "Ġthought": 947,
      "Ġalways": 948,
      "ption": 949,
      "ef": 950,
      "pect": 951,
      "Ġgot": 952,
      "ange": 953,
      "Ġequ": 954,
      "led": 955,
      "Ġpoint": 956,
      "arm": 957,
      "ments": 958,
      "ny": 959,
      "Ġspecial": 960,
      "ne": 961,
      "put": 962,
      "gan": 963,
      "Ġlist": 964,
      "Ġop": 965,
      "Ġplaying": 966,
      "enc": 967,
      "ower": 968,
      "other": 969,
      "Ġmost": 970,
      "Ġend": 971,
      "tern": 972,
      "ting": 973,
      "Ġfam": 974,
      "ible": 975,
      "Ġsad": 976,
      "ric": 977,
      "velop": 978,
      "ool": 979,
      "Ġser": 980,
      "Ġdet": 981,
      "Ġworld": 982,
      "Ġac": 983,
      "Ġusing": 984,
      "Ġtrans": 985,
      "Ġprod": 986,
      "Ġdata": 987,
      "Ġgiv": 988,
      "Ġdist": 989,
      "Ġcame": 990,
      "its": 991,
      "Ġche": 992,
      "ert": 993,
      "_{": 994,
      "ever": 995,
      "Ġhigh": 996,
      "Ġsystem": 997,
      "Ġdecided": 998,
      "Ġsub": 999,
      "Ġgr": 1000,
      "lic": 1001,
      "Ġlot": 1002,
      "Ġchild": 1003,
      "Ġ`": 1004,
      "ational": 1005,
      "fra": 1006,
      "ix": 1007,
      "uck": 1008,
      "ider": 1009,
      "ened": 1010,
      "atch": 1011,
      "Ġatt": 1012,
      "ĊĠĠĠĠĠĠĠ": 1013,
      "Ġexper": 1014,
      "rit": 1015,
      "Ġread": 1016,
      "Ġyears": 1017,
      "imes": 1018,
      "Ġred": 1019,
      "Ġsol": 1020,
      "ĠAs": 1021,
      "Ġresult": 1022,
      "Ġfin": 1023,
      "ars": 1024,
      "Ġexp": 1025,
      "ĠAn": 1026,
      "ged": 1027,
      "ized": 1028,
      "Ġwhile": 1029,
      "Ġimport": 1030,
      "Ġsays": 1031,
      "ake": 1032,
      "oh": 1033,
      "Ġliv": 1034,
      "uring": 1035,
      "resent": 1036,
      "ife": 1037,
      "Ġtree": 1038,
      "ock": 1039,
      "ane": 1040,
      "Ġreal": 1041,
      "ram": 1042,
      "Ġright": 1043,
      "ues": 1044,
      "Ġchar": 1045,
      "Ġsim": 1046,
      "Ġgener": 1047,
      "Ġafter": 1048,
      "ĠâĢľ": 1049,
      "ident": 1050,
      "Ġcor": 1051,
      "Ġsw": 1052,
      "Ġpers": 1053,
      "ature": 1054,
      "udden": 1055,
      "Ġtook": 1056,
      "Ġdevelop": 1057,
      "arch": 1058,
      "Ġlook": 1059,
      "Ġcle": 1060,
      "Ġ200": 1061,
      "ward": 1062,
      "ĠIf": 1063,
      "Ġspec": 1064,
      "Ġbefore": 1065,
      "Ġreturn": 1066,
      "Ġrun": 1067,
      "Ġty": 1068,
      "ĠSo": 1069,
      "Ġtry": 1070,
      "Ġbeing": 1071,
      "Ġhug": 1072,
      "blem": 1073,
      "ethod": 1074,
      "anc": 1075,
      "Ġsun": 1076,
      "Ġinv": 1077,
      "Ġcomple": 1078,
      "Ġoutside": 1079,
      "ves": 1080,
      "Ġho": 1081,
      "Ġx": 1082,
      "Ġdidn": 1083,
      "Ġthree": 1084,
      "ered": 1085,
      "ere": 1086,
      "Ġ6": 1087,
      "Ġbro": 1088,
      "Ġstill": 1089,
      "Ġsign": 1090,
      "bb": 1091,
      "Ġdef": 1092,
      "Ġwell": 1093,
      "ctions": 1094,
      "Ġgl": 1095,
      "Ġnever": 1096,
      "Ġown": 1097,
      "Ġcalled": 1098,
      "uddenly": 1099,
      "ined": 1100,
      "ins": 1101,
      "Ġdon": 1102,
      "ohn": 1103,
      "formation": 1104,
      "ull": 1105,
      "Ġtest": 1106,
      "Ġwa": 1107,
      "Ġbra": 1108,
      "air": 1109,
      "Ġeffect": 1110,
      "Ġunt": 1111,
      "ĠUn": 1112,
      "\",": 1113,
      "ara": 1114,
      "Ġlet": 1115,
      "Ġsupp": 1116,
      "frac": 1117,
      "ases": 1118,
      "ential": 1119,
      "Ġdoes": 1120,
      "____": 1121,
      "Ġide": 1122,
      "ros": 1123,
      "ough": 1124,
      "stand": 1125,
      "$$": 1126,
      "ond": 1127,
      "It": 1128,
      "}}": 1129,
      "^{": 1130,
      "mer": 1131,
      "ps": 1132,
      ".,": 1133,
      "ability": 1134,
      "Ġscared": 1135,
      "ma": 1136,
      "Ġsl": 1137,
      "Ġnow": 1138,
      "right": 1139,
      "ont": 1140,
      "ired": 1141,
      "Ġbest": 1142,
      "Ġanim": 1143,
      "What": 1144,
      "ray": 1145,
      "Ġcount": 1146,
      "ness": 1147,
      "ually": 1148,
      "Lily": 1149,
      "bers": 1150,
      "Ġclass": 1151,
      "Ġball": 1152,
      "iel": 1153,
      "ather": 1154,
      "Ġdad": 1155,
      "Ġmon": 1156,
      "ished": 1157,
      "Ġpol": 1158,
      "Ġuntil": 1159,
      "by": 1160,
      "Ġknew": 1161,
      "ank": 1162,
      "ode": 1163,
      "ner": 1164,
      "alth": 1165,
      "Ġrep": 1166,
      "iew": 1167,
      "ser": 1168,
      "Ġlar": 1169,
      "Ġliked": 1170,
      "Ġmight": 1171,
      "Ġpat": 1172,
      "Ġflow": 1173,
      "gy": 1174,
      "Ġsame": 1175,
      "cept": 1176,
      "Ġass": 1177,
      "val": 1178,
      "Ġbetter": 1179,
      "ĠEvery": 1180,
      "Ġhouse": 1181,
      "Ġproblem": 1182,
      "aut": 1183,
      "ince": 1184,
      "'m": 1185,
      "cri": 1186,
      "Ġmat": 1187,
      "Ġdog": 1188,
      "Ġfore": 1189,
      "ĠY": 1190,
      "kes": 1191,
      "na": 1192,
      "ost": 1193,
      "Ġexample": 1194,
      "10": 1195,
      "Ġvari": 1196,
      "ĠAnd": 1197,
      "Ġfr": 1198,
      "ĠHow": 1199,
      "Ġquest": 1200,
      "Ġlaug": 1201,
      "der": 1202,
      "ants": 1203,
      "Ġappro": 1204,
      "ute": 1205,
      "Ġfact": 1206,
      "ds": 1207,
      "eng": 1208,
      "Ġ10": 1209,
      "ĠFor": 1210,
      "Ġmed": 1211,
      "Ġ201": 1212,
      "hip": 1213,
      "Ġimportant": 1214,
      "Ġpar": 1215,
      "xt": 1216,
      "Ġvis": 1217,
      "Ġed": 1218,
      "Ġfamily": 1219,
      "Ġinside": 1220,
      "Ġcareful": 1221,
      "Ġincre": 1222,
      "Ġdi": 1223,
      "Ġrequ": 1224,
      "Ġ[": 1225,
      "Ġele": 1226,
      "Ġloc": 1227,
      "Ġpartic": 1228,
      "Ġcouldn": 1229,
      "Ġgreat": 1230,
      "Ġbeh": 1231,
      "chn": 1232,
      "Ġca": 1233,
      "Ġ7": 1234,
      "Ġext": 1235,
      "pend": 1236,
      "ines": 1237,
      "Ġcond": 1238,
      "Ġgiven": 1239,
      "az": 1240,
      "ĠWhen": 1241,
      "ĠâĢĵ": 1242,
      "ically": 1243,
      "But": 1244,
      "Ġcharact": 1245,
      "Ġent": 1246,
      "Ġunderstand": 1247,
      "Ġhard": 1248,
      ");": 1249,
      "ven": 1250,
      "Ġroom": 1251,
      "When": 1252,
      "Ġtop": 1253,
      "ised": 1254,
      "Ġinf": 1255,
      "Ġanal": 1256,
      "This": 1257,
      "Ġexplore": 1258,
      "Ġref": 1259,
      "ĠPro": 1260,
      "Ġposs": 1261,
      "con": 1262,
      "read": 1263,
      "ify": 1264,
      "Ġinformation": 1265,
      "ural": 1266,
      "text": 1267,
      "ten": 1268,
      "ĠMom": 1269,
      "Åĵ": 1270,
      "Ġcome": 1271,
      "Ġtold": 1272,
      "up": 1273,
      "Ġtre": 1274,
      "cul": 1275,
      "Ġmommy": 1276,
      "Ġmin": 1277,
      "Ġprocess": 1278,
      "//": 1279,
      "Ġ}": 1280,
      "Ġmean": 1281,
      "Ġcontin": 1282,
      "ator": 1283,
      "Ġheard": 1284,
      "Ġgave": 1285,
      "Ġplan": 1286,
      "roud": 1287,
      "Ġhum": 1288,
      "Ġbel": 1289,
      "raw": 1290,
      "ump": 1291,
      "Ġconf": 1292,
      "Ġinst": 1293,
      "ĠJack": 1294,
      "ides": 1295,
      "ts": 1296,
      "Ġprog": 1297,
      "'re": 1298,
      "cent": 1299,
      "Ġproud": 1300,
      "Ġgre": 1301,
      "ience": 1302,
      "ork": 1303,
      "Ġstate": 1304,
      "They": 1305,
      "Ġkind": 1306,
      "ng": 1307,
      "Ġmethod": 1308,
      "ove": 1309,
      "Ġplace": 1310,
      "Ġcat": 1311,
      "Ġkeep": 1312,
      "com": 1313,
      "ĠAl": 1314,
      "Ġpass": 1315,
      "Ġdel": 1316,
      "ense": 1317,
      "Ġcell": 1318,
      "omet": 1319,
      "Ġfood": 1320,
      "ists": 1321,
      "Ġcal": 1322,
      "ism": 1323,
      "Ġ9": 1324,
      "Ġ$\\": 1325,
      "br": 1326,
      "uss": 1327,
      "Ġlead": 1328,
      "Ġz": 1329,
      "Ġmem": 1330,
      "Ġbeaut": 1331,
      "Ġthose": 1332,
      "ology": 1333,
      "Ġ8": 1334,
      "Ġve": 1335,
      "ĠÃ¢": 1336,
      "):": 1337,
      "Ġang": 1338,
      "Ġwr": 1339,
      "Ġless": 1340,
      "Ġperson": 1341,
      "day": 1342,
      "Ġstrong": 1343,
      "}$": 1344,
      "itive": 1345,
      "Ġfollowing": 1346,
      "Ġmodel": 1347,
      "Ġtried": 1348,
      "Ġlife": 1349,
      "Ġresp": 1350,
      "ched": 1351,
      "Ġnext": 1352,
      "Ġtoy": 1353,
      "Ġcreate": 1354,
      "Ġdire": 1355,
      "to": 1356,
      "Ġgoing": 1357,
      "Ġtechn": 1358,
      "19": 1359,
      "ctor": 1360,
      "Ġclos": 1361,
      "Ġstand": 1362,
      "Ġcent": 1363,
      "Ġhere": 1364,
      "```": 1365,
      "ices": 1366,
      "ublic": 1367,
      "oice": 1368,
      "Ġpower": 1369,
      "Ġmust": 1370,
      "Ġline": 1371,
      "gg": 1372,
      "Ġtoys": 1373,
      "ĠHis": 1374,
      "arden": 1375,
      "Ġconsider": 1376,
      "ted": 1377,
      "âĢ¢": 1378,
      "rence": 1379,
      "Ġ**": 1380,
      "ox": 1381,
      "ages": 1382,
      "Ġbus": 1383,
      "Ġpot": 1384,
      "Ġrese": 1385,
      "que": 1386,
      "land": 1387,
      "chool": 1388,
      "Ġduring": 1389,
      "So": 1390,
      "ffic": 1391,
      "Ġvalue": 1392,
      "par": 1393,
      "Ġchildren": 1394,
      "Ġmain": 1395,
      "ency": 1396,
      "Ġmet": 1397,
      "ety": 1398,
      "Ġplayed": 1399,
      "Ġnear": 1400,
      "left": 1401,
      "ĠSam": 1402,
      "ier": 1403,
      "Ġcommun": 1404,
      "As": 1405,
      "Ġest": 1406,
      "iful": 1407,
      "Ġwithout": 1408,
      "ross": 1409,
      "ash": 1410,
      "name": 1411,
      "He": 1412,
      "ĠRe": 1413,
      "Ġfle": 1414,
      "Ġear": 1415,
      "Ġgarden": 1416,
      "Ġart": 1417,
      "We": 1418,
      "und": 1419,
      "uction": 1420,
      "Ġobject": 1421,
      "Ġturn": 1422,
      "Ġlight": 1423,
      "Ġfew": 1424,
      "Ġpos": 1425,
      "cription": 1426,
      "Ġbox": 1427,
      "Ġdisc": 1428,
      "mat": 1429,
      "ral": 1430,
      "Ġsn": 1431,
      "iron": 1432,
      "Ġlots": 1433,
      "Ġ<": 1434,
      "Ġwind": 1435,
      "Ġthink": 1436,
      "ets": 1437,
      "thing": 1438,
      "imate": 1439,
      "Ġstay": 1440,
      "ument": 1441,
      "Ġprob": 1442,
      "ield": 1443,
      "Ġname": 1444,
      "ization": 1445,
      "Let": 1446,
      "Ġey": 1447,
      "ĠThen": 1448,
      "Ġmag": 1449,
      "Ġstudy": 1450,
      "Ġstory": 1451,
      "ĠHer": 1452,
      "Ġbeautiful": 1453,
      "ining": 1454,
      "Ġgu": 1455,
      "Ġans": 1456,
      "cond": 1457,
      "the": 1458,
      "oud": 1459,
      "Ġgrou": 1460,
      "Ġperform": 1461,
      "ĠWhat": 1462,
      "rel": 1463,
      "Ġpur": 1464,
      "io": 1465,
      "Ġanimals": 1466,
      "Ġinteg": 1467,
      "ern": 1468,
      "Ġbear": 1469,
      "lease": 1470,
      "ivers": 1471,
      "iny": 1472,
      "ĠMax": 1473,
      "oun": 1474,
      "Ġel": 1475,
      "arent": 1476,
      "yth": 1477,
      "Ġidea": 1478,
      "Ġproper": 1479,
      "Ġgrow": 1480,
      "Ġpret": 1481,
      "ale": 1482,
      "...": 1483,
      "Ġav": 1484,
      "ional": 1485,
      "ger": 1486,
      "elf": 1487,
      "12": 1488,
      "Ġcreat": 1489,
      "Ġthanked": 1490,
      "Ġsky": 1491,
      "Ġsure": 1492,
      "ream": 1493,
      "pos": 1494,
      "Ġhealth": 1495,
      "ĠJohn": 1496,
      "erest": 1497,
      "âĦ": 1498,
      "Ġins": 1499,
      "Ġmeas": 1500,
      "Ġbuild": 1501,
      "amet": 1502,
      "Ġaut": 1503,
      "ĠSe": 1504,
      "Ġrepl": 1505,
      "Ġstudents": 1506,
      "yn": 1507,
      "itions": 1508,
      "ĠThere": 1509,
      "Ġallow": 1510,
      "Ġhugged": 1511,
      "uce": 1512,
      "Ġ20": 1513,
      "ĠFrom": 1514,
      "Ġ18": 1515,
      "wer": 1516,
      "Ġland": 1517,
      "âĦ¢": 1518,
      "Ġcharacter": 1519,
      "ality": 1520,
      "rol": 1521,
      "Ġanother": 1522,
      "Ġpop": 1523,
      "be": 1524,
      "ĠCom": 1525,
      "Ġgive": 1526,
      "Ġobser": 1527,
      "rod": 1528,
      "ried": 1529,
      "ĊĠĠĠĠĠĠĠĠ": 1530,
      "oe": 1531,
      "any": 1532,
      "ken": 1533,
      "ĠX": 1534,
      "Ġsafe": 1535,
      "Ġsoon": 1536,
      "ained": 1537,
      "20": 1538,
      "âĤ¬âĦ¢": 1539,
      "Ġsqu": 1540,
      "Ġsound": 1541,
      "000": 1542,
      "{\"": 1543,
      "Ġlived": 1544,
      "Ġcase": 1545,
      "Ġmult": 1546,
      "Ġmaking": 1547,
      "ucy": 1548,
      "ences": 1549,
      "Ġseem": 1550,
      "app": 1551,
      "Ġeat": 1552,
      "Ġeng": 1553,
      "Ġmove": 1554,
      "Ġmark": 1555,
      "Ġlearned": 1556,
      "Ġlarge": 1557,
      "Ġpa": 1558,
      "ids": 1559,
      "Ġground": 1560,
      "Ġlaughed": 1561,
      "Ġopen": 1562,
      "Ġpresent": 1563,
      "'ll": 1564,
      "dy": 1565,
      "ries": 1566,
      "Ġorgan": 1567,
      "Ġkey": 1568,
      "vern": 1569,
      "Ġmus": 1570,
      "aces": 1571,
      "Ġproduct": 1572,
      "Ġtreat": 1573,
      "Ġoften": 1574,
      "Ġrest": 1575,
      "viron": 1576,
      "Ġinterest": 1577,
      "Ġlove": 1578,
      "Ġpic": 1579,
      "orry": 1580,
      "Ġsupport": 1581,
      "Ġcr": 1582,
      "Ġprogram": 1583,
      "Ġener": 1584,
      "Ġocc": 1585,
      "Ġquick": 1586,
      "Ġsum": 1587,
      "ĠSara": 1588,
      "ains": 1589,
      "Ġcour": 1590,
      "Ġnice": 1591,
      "Ġactiv": 1592,
      "Ġident": 1593,
      "**:": 1594,
      "lo": 1595,
      "Ġsing": 1596,
      "Ġprom": 1597,
      "Ġhead": 1598,
      "Ġfeeling": 1599,
      "Ġkept": 1600,
      "inal": 1601,
      "ling": 1602,
      "\":\"": 1603,
      "set": 1604,
      "Ġself": 1605,
      ")$": 1606,
      "Ġoper": 1607,
      "iced": 1608,
      "Ġbit": 1609,
      "Ġpract": 1610,
      "Ġchang": 1611,
      "Ġsurpr": 1612,
      "Ġpain": 1613,
      "Ġshare": 1614,
      "To": 1615,
      "Ġwhy": 1616,
      "ters": 1617,
      "Ġtem": 1618,
      "Ġmar": 1619,
      "Ġlooking": 1620,
      "Ġterm": 1621,
      "ĠIs": 1622,
      "Ġadvent": 1623,
      "oll": 1624,
      "Ġnumbers": 1625,
      "Ġpress": 1626,
      "type": 1627,
      "Ġdeterm": 1628,
      "Ġbre": 1629,
      "Ġ$$": 1630,
      "olution": 1631,
      "ike": 1632,
      "Ġdem": 1633,
      "cle": 1634,
      "err": 1635,
      "Ġseen": 1636,
      "An": 1637,
      "Ġcomplex": 1638,
      "line": 1639,
      "Ġbed": 1640,
      "ĠSp": 1641,
      "Ġleft": 1642,
      "Ġable": 1643,
      "Ġadv": 1644,
      "Ġincluding": 1645,
      "Ġdri": 1646,
      "}\\": 1647,
      "Ġfly": 1648,
      "Ġprovide": 1649,
      "ster": 1650,
      "Ġstep": 1651,
      "ertain": 1652,
      "Mom": 1653,
      "Yes": 1654,
      "Ġtext": 1655,
      "ody": 1656,
      "Ġhuman": 1657,
      "Ġair": 1658,
      "Ġfish": 1659,
      "Ġdr": 1660,
      "Ġeas": 1661,
      "ination": 1662,
      "Ġinc": 1663,
      "ec": 1664,
      "Ġmor": 1665,
      "view": 1666,
      "Ġsoft": 1667,
      "ified": 1668,
      "Ġdesign": 1669,
      "ote": 1670,
      "Ġstore": 1671,
      "ccess": 1672,
      "Ġbas": 1673,
      "ĠAr": 1674,
      "ĠWh": 1675,
      "ĠQ": 1676,
      "ieve": 1677,
      "âĪ": 1678,
      "Ġcir": 1679,
      "vironment": 1680,
      "ead": 1681,
      "Ġorder": 1682,
      "Ġsorry": 1683,
      "Ġreally": 1684,
      "ital": 1685,
      "Ġconc": 1686,
      "Ġsent": 1687,
      "Ġet": 1688,
      "ames": 1689,
      "Ġschool": 1690,
      "iting": 1691,
      "Ġhaving": 1692,
      "ifold": 1693,
      "ivid": 1694,
      "Ġpres": 1695,
      "ysis": 1696,
      "{\\": 1697,
      "Ġjump": 1698,
      "Ġpossible": 1699,
      "joy": 1700,
      "()": 1701,
      "ision": 1702,
      "Ġrock": 1703,
      "arr": 1704,
      "ann": 1705,
      "Ġspace": 1706,
      "meric": 1707,
      "Ġenergy": 1708,
      "face": 1709,
      "Ġ.": 1710,
      "Ġsto": 1711,
      "Ġchange": 1712,
      "ĠHowever": 1713,
      "Ġwo": 1714,
      "escription": 1715,
      "math": 1716,
      "Ġarea": 1717,
      "Ġlevel": 1718,
      "(\"": 1719,
      "amp": 1720,
      "lu": 1721,
      "Ġhig": 1722,
      "Ġsecond": 1723,
      "Ġelect": 1724,
      "sc": 1725,
      "Ġopt": 1726,
      "Ġpotential": 1727,
      "oring": 1728,
      "Ġflew": 1729,
      "rought": 1730,
      "Ġcode": 1731,
      "Ġhur": 1732,
      "Ġever": 1733,
      "Ġbegan": 1734,
      "Ġforest": 1735,
      "ĠNew": 1736,
      "Ġris": 1737,
      "Ġ15": 1738,
      "Ġtype": 1739,
      "Ġquestion": 1740,
      "That": 1741,
      "Ġtyp": 1742,
      "Ġquickly": 1743,
      "ued": 1744,
      "Ġwalked": 1745,
      "Ġcalcul": 1746,
      "iles": 1747,
      "Ġcurrent": 1748,
      "ä¸": 1749,
      "âĢĵ": 1750,
      "Ġeveryone": 1751,
      "Ġtal": 1752,
      "let": 1753,
      "Ġreport": 1754,
      "ives": 1755,
      "Ġcost": 1756,
      "Ġremem": 1757,
      "iversity": 1758,
      "Ġmot": 1759,
      "illed": 1760,
      "used": 1761,
      "Ġrelations": 1762,
      "Ġimpro": 1763,
      "Ġeyes": 1764,
      "How": 1765,
      "St": 1766,
      "ced": 1767,
      "hing": 1768,
      "ov": 1769,
      "Ġwithin": 1770,
      "Ġ{\"": 1771,
      "Ġhist": 1772,
      "Ġbecame": 1773,
      "Ġsit": 1774,
      "ĠBob": 1775,
      "Ġfur": 1776,
      "Ġbrave": 1777,
      "Ġpie": 1778,
      "ĠCan": 1779,
      "Ġproject": 1780,
      "Ġenjoy": 1781,
      "Ġi": 1782,
      "Ġsignific": 1783,
      "Ġphys": 1784,
      "ython": 1785,
      "aw": 1786,
      "ded": 1787,
      "ables": 1788,
      "Ġwhe": 1789,
      "Ġpublic": 1790,
      "Ġexam": 1791,
      "Ġnoticed": 1792,
      "Ġjo": 1793,
      "Ġjob": 1794,
      "itional": 1795,
      "Ġspecific": 1796,
      "Ġfull": 1797,
      "Ġdev": 1798,
      "ude": 1799,
      "Ġtell": 1800,
      "Ġinput": 1801,
      "Ġresearch": 1802,
      "\".": 1803,
      "of": 1804,
      "If": 1805,
      "me": 1806,
      "Ġdone": 1807,
      "Ġstruct": 1808,
      "Ġwalking": 1809,
      "Tom": 1810,
      "Ġnod": 1811,
      "ources": 1812,
      "Ġfunctions": 1813,
      "ĠPh": 1814,
      "Ġknown": 1815,
      "'ve": 1816,
      "Ġface": 1817,
      "ulation": 1818,
      "Ġconst": 1819,
      "Ġstopped": 1820,
      "where": 1821,
      "Ġfree": 1822,
      "aster": 1823,
      "Ġlim": 1824,
      "ĠTo": 1825,
      "ummy": 1826,
      "Ġwords": 1827,
      "aves": 1828,
      "Ġnon": 1829,
      "Ġsugg": 1830,
      "ression": 1831,
      "Ġsuggest": 1832,
      "ape": 1833,
      "Ġgame": 1834,
      "Ġclean": 1835,
      "Ġfar": 1836,
      "ĠAmeric": 1837,
      "ĠCl": 1838,
      "ĠLucy": 1839,
      "ret": 1840,
      "Ġothers": 1841,
      "Ġanswer": 1842,
      "work": 1843,
      "Ġfast": 1844,
      "orn": 1845,
      "Ġsuccess": 1846,
      "less": 1847,
      "Ġsense": 1848,
      "Ġfield": 1849,
      "ĠCon": 1850,
      "Ġben": 1851,
      "ung": 1852,
      "Ġrad": 1853,
      "ĠRes": 1854,
      "ength": 1855,
      "Ġ>": 1856,
      "els": 1857,
      "Ġclim": 1858,
      "Ġhands": 1859,
      "Ġfoc": 1860,
      "olly": 1861,
      "Ġcry": 1862,
      "ĠLet": 1863,
      "dd": 1864,
      "ively": 1865,
      "Ġbad": 1866,
      "Ġtool": 1867,
      "Ġopened": 1868,
      "Ġresults": 1869,
      "ples": 1870,
      "ached": 1871,
      "Ġtimes": 1872,
      "Ġvoice": 1873,
      "Ġlaw": 1874,
      "more": 1875,
      "requ": 1876,
      "Ġcommon": 1877,
      "Ġmulti": 1878,
      "ĠEm": 1879,
      "Ġpri": 1880,
      "Ġnight": 1881,
      "Ġgovern": 1882,
      "Ġarg": 1883,
      "erv": 1884,
      "osp": 1885,
      "Ġpict": 1886,
      "Ġrepresent": 1887,
      "Ġdoor": 1888,
      "ĠDe": 1889,
      "Ġparent": 1890,
      "Ġorig": 1891,
      "________": 1892,
      "Ġhy": 1893,
      "Ġenough": 1894,
      "Ġamaz": 1895,
      "oid": 1896,
      "tle": 1897,
      "Ġge": 1898,
      "Ġiss": 1899,
      "raph": 1900,
      "Ġsize": 1901,
      "Ġdiv": 1902,
      "ason": 1903,
      "illy": 1904,
      "Ġgroup": 1905,
      "$.": 1906,
      "oot": 1907,
      "Ġwat": 1908,
      "Ġwarm": 1909,
      "Ġlast": 1910,
      "ĠSuddenly": 1911,
      "angu": 1912,
      "Ġclear": 1913,
      "Ġopp": 1914,
      "Ġanalysis": 1915,
      "ah": 1916,
      "description": 1917,
      "Ġsat": 1918,
      "Ġenvironment": 1919,
      "hemat": 1920,
      "align": 1921,
      "Ġcontrol": 1922,
      "ique": 1923,
      "Ġrecord": 1924,
      "iod": 1925,
      "rect": 1926,
      "11": 1927,
      "ault": 1928,
      "ior": 1929,
      "pro": 1930,
      "Ġloud": 1931,
      "omen": 1932,
      "ards": 1933,
      "ek": 1934,
      "Ġsever": 1935,
      "Ġrabb": 1936,
      "ĠAnna": 1937,
      "Ġes": 1938,
      "pping": 1939,
      "Ġstring": 1940,
      "Ġinvol": 1941,
      "Ġprot": 1942,
      "Tim": 1943,
      "ms": 1944,
      "ury": 1945,
      "âĢĶ": 1946,
      "Wh": 1947,
      "icy": 1948,
      "Ġclose": 1949,
      "Ġdise": 1950,
      "Ġside": 1951,
      "Ġdiscuss": 1952,
      "verse": 1953,
      "ĠThese": 1954,
      "crib": 1955,
      "atural": 1956,
      "Ġmess": 1957,
      "angle": 1958,
      "uced": 1959,
      "idence": 1960,
      "Ġbeg": 1961,
      "igure": 1962,
      "Ġneeded": 1963,
      "Ġshowed": 1964,
      "Ġstat": 1965,
      "irt": 1966,
      "ĠAt": 1967,
      "Ġvalues": 1968,
      "Ġ12": 1969,
      "ron": 1970,
      "Ġ/": 1971,
      "Ġdraw": 1972,
      "ĠEx": 1973,
      "Ġdistrib": 1974,
      "Ġlocal": 1975,
      "Ġparticular": 1976,
      "wards": 1977,
      "ware": 1978,
      "Ġindivid": 1979,
      "mb": 1980,
      "ties": 1981,
      "ule": 1982,
      "Ġacross": 1983,
      "Ġmeasure": 1984,
      "ients": 1985,
      "Ġinclude": 1986,
      "Ġoccur": 1987,
      "def": 1988,
      "ories": 1989,
      "Ġequation": 1990,
      "conom": 1991,
      "bs": 1992,
      "},": 1993,
      "Ġimm": 1994,
      "::": 1995,
      "Ġste": 1996,
      "Ġlog": 1997,
      "plement": 1998,
      "inally": 1999,
      "Ġdoll": 2000,
      "Ġleg": 2001,
      "Ġpost": 2002,
      "Ġnoise": 2003,
      "Ġfall": 2004,
      "Ġrelationship": 2005,
      "lish": 2006,
      "Ġthing": 2007,
      "Ġprof": 2008,
      "Ġdirect": 2009,
      "zy": 2010,
      "outh": 2011,
      "aring": 2012,
      "Ġcheck": 2013,
      "man": 2014,
      "Ġbook": 2015,
      "ilar": 2016,
      "Ġpercent": 2017,
      "ission": 2018,
      "ĊĠĠĠĠĠĠĠĠĠĠĠ": 2019,
      "Ġbased": 2020,
      "aterial": 2021,
      "Ġhold": 2022,
      "ental": 2023,
      "Ġcolor": 2024,
      "icle": 2025,
      "ĠAfter": 2026,
      "Ġprint": 2027,
      "Ġtrying": 2028,
      "Suddenly": 2029,
      "ä»": 2030,
      "ee": 2031,
      "ĊĊĠĠĠ": 2032,
      "ently": 2033,
      "weet": 2034,
      "Ġaccess": 2035,
      "Ġcloser": 2036,
      "Ġpretty": 2037,
      "Ġmusic": 2038,
      "Ġblue": 2039,
      "50": 2040,
      "Ġdevelopment": 2041,
      "ention": 2042,
      "Ġslow": 2043,
      "Ġdays": 2044,
      "Ġsmile": 2045,
      "ĠZ": 2046,
      "Ġlearning": 2047,
      "Ġgreen": 2048,
      "Ġwatch": 2049,
      "Ġagainst": 2050,
      "Ġhigher": 2051,
      "16": 2052,
      "18": 2053,
      "Ġvar": 2054,
      "oney": 2055,
      "ĠTr": 2056,
      "Ġareas": 2057,
      "Ġsignificant": 2058,
      "iness": 2059,
      "Ġshiny": 2060,
      "Ġcomb": 2061,
      "Ġevent": 2062,
      "Ġseveral": 2063,
      "||": 2064,
      "ï¼": 2065,
      "Ġfire": 2066,
      "Ġdisco": 2067,
      "Ġsocial": 2068,
      "Ġmeans": 2069,
      "ots": 2070,
      "Ġdeep": 2071,
      "ĠUniversity": 2072,
      "Ġpicked": 2073,
      "hor": 2074,
      "leep": 2075,
      "Ġalong": 2076,
      "ploy": 2077,
      "Ġbecome": 2078,
      "Ġapproach": 2079,
      "Ġlow": 2080,
      "aining": 2081,
      "Ġbright": 2082,
      "\",\"": 2083,
      "uments": 2084,
      "Ġneg": 2085,
      "Ġess": 2086,
      "Ġsince": 2087,
      "ills": 2088,
      "--": 2089,
      "Ġfarm": 2090,
      "ĠBy": 2091,
      "ener": 2092,
      "Ġcla": 2093,
      "ught": 2094,
      "Ġbehav": 2095,
      "Ġlangu": 2096,
      "rog": 2097,
      "Ġsand": 2098,
      "Ġdoing": 2099,
      "Ġtruck": 2100,
      "cient": 2101,
      "Ġrabbit": 2102,
      "30": 2103,
      "ium": 2104,
      "Ġ#": 2105,
      "Ġblock": 2106,
      "22": 2107,
      "bed": 2108,
      "oon": 2109,
      "Ġimpact": 2110,
      "Ġwrit": 2111,
      "Ġdro": 2112,
      "Ġdepend": 2113,
      "Ġseries": 2114,
      "ton": 2115,
      "Ġlay": 2116,
      "stract": 2117,
      "Ġcomput": 2118,
      "Ġreplied": 2119,
      "Ġbehind": 2120,
      "for": 2121,
      "Ġ*": 2122,
      "Ġrunning": 2123,
      "Ġpressure": 2124,
      "Ġpast": 2125,
      "Ġpath": 2126,
      "Ġmaterial": 2127,
      "Ġlater": 2128,
      "Ġtrue": 2129,
      "Ġprobability": 2130,
      "Ġavail": 2131,
      "Ġwonder": 2132,
      "sh": 2133,
      "Ġdiff": 2134,
      "ĠJane": 2135,
      "Ġparamet": 2136,
      "orth": 2137,
      "son": 2138,
      "ither": 2139,
      "Ġmum": 2140,
      "ĠInd": 2141,
      "soci": 2142,
      "Ġparents": 2143,
      "Ġerr": 2144,
      "isy": 2145,
      "Ġnet": 2146,
      "Ġyell": 2147,
      "ze": 2148,
      "ĠThat": 2149,
      "jor": 2150,
      "Ġthin": 2151,
      "Ġpaper": 2152,
      "No": 2153,
      "ĉĉ": 2154,
      "reed": 2155,
      "ney": 2156,
      "vious": 2157,
      "Ġcertain": 2158,
      "Ġbase": 2159,
      "Ġdark": 2160,
      "$,": 2161,
      "Ġlad": 2162,
      "istic": 2163,
      "ĠJew": 2164,
      "Ġquestions": 2165,
      "Ġabove": 2166,
      "acher": 2167,
      "Ġ199": 2168,
      "John": 2169,
      "rt": 2170,
      "Ġyoung": 2171,
      "Ġteam": 2172,
      "arg": 2173,
      "Ġlab": 2174,
      "ĠAb": 2175,
      "âĢī": 2176,
      "ĠDad": 2177,
      "Ġrespect": 2178,
      "aps": 2179,
      "Ġmoment": 2180,
      "ours": 2181,
      "Ġflo": 2182,
      "rag": 2183,
      "ĠAll": 2184,
      "Ġ17": 2185,
      "\":{\"": 2186,
      "anced": 2187,
      "Ġelse": 2188,
      "25": 2189,
      "ats": 2190,
      "Ġcurious": 2191,
      "Ġconditions": 2192,
      "asing": 2193,
      "Ġleast": 2194,
      "ĠOn": 2195,
      "ering": 2196,
      "Ġfour": 2197,
      "plic": 2198,
      "Ġlisten": 2199,
      "Ġexperience": 2200,
      "Ġgeneral": 2201,
      "Ġcells": 2202,
      "kay": 2203,
      "iding": 2204,
      "verage": 2205,
      ")(": 2206,
      "ateg": 2207,
      "play": 2208,
      "Ġworking": 2209,
      "Ġvisit": 2210,
      "Ġinit": 2211,
      "Ġwalk": 2212,
      "bye": 2213,
      "AT": 2214,
      "pper": 2215,
      "Ġnodded": 2216,
      "Ġeconom": 2217,
      "Ġbutter": 2218,
      "Ġimplement": 2219,
      "Ġsurface": 2220,
      "Ġtemper": 2221,
      "not": 2222,
      "Ġsal": 2223,
      "ush": 2224,
      "atic": 2225,
      "Ġfav": 2226,
      "Ġ16": 2227,
      "Ġapplic": 2228,
      "Ġblack": 2229,
      "15": 2230,
      "Ġcourse": 2231,
      "epend": 2232,
      "ĊĠĠ": 2233,
      "ration": 2234,
      "tool": 2235,
      "lished": 2236,
      "Ġexist": 2237,
      "Ġrange": 2238,
      "Ġhurt": 2239,
      "onse": 2240,
      "ended": 2241,
      "Ġmil": 2242,
      "rand": 2243,
      "ately": 2244,
      "Ġwatched": 2245,
      "ww": 2246,
      "Ġri": 2247,
      "ask": 2248,
      "Ġenc": 2249,
      "Ġpoints": 2250,
      "Ġadventure": 2251,
      "ording": 2252,
      "Ġmarket": 2253,
      "Ġbi": 2254,
      "ances": 2255,
      "Ġscient": 2256,
      "Ġperiod": 2257,
      "light": 2258,
      "Ġcap": 2259,
      "ortun": 2260,
      "17": 2261,
      "Ġant": 2262,
      "After": 2263,
      "ĠSh": 2264,
      "Ġfocus": 2265,
      "Ġfix": 2266,
      "ises": 2267,
      "Ġliving": 2268,
      "43": 2269,
      "ST": 2270,
      "Ġcult": 2271,
      "ference": 2272,
      "oint": 2273,
      "Ġreach": 2274,
      "utions": 2275,
      "Ġchall": 2276,
      "Ġgoodbye": 2277,
      "Ġready": 2278,
      "Ġbody": 2279,
      "Ġtown": 2280,
      "acy": 2281,
      "ring": 2282,
      "Ġdescrib": 2283,
      "Ġpattern": 2284,
      "Ġunderstanding": 2285,
      "Ġdep": 2286,
      "Ġhimself": 2287,
      "fficient": 2288,
      "Ġwood": 2289,
      "itc": 2290,
      "Ġbal": 2291,
      "Can": 2292,
      "Ġhappened": 2293,
      "Ġens": 2294,
      "Ġarri": 2295,
      "string": 2296,
      "ource": 2297,
      "ormal": 2298,
      "\")": 2299,
      "Ġnatural": 2300,
      "ooks": 2301,
      "ĠDo": 2302,
      "Ġmeet": 2303,
      "Ġangry": 2304,
      "14": 2305,
      "Ġrece": 2306,
      "Ġfurther": 2307,
      "room": 2308,
      "Ġmathemat": 2309,
      "NA": 2310,
      "aking": 2311,
      "ĠMia": 2312,
      "equ": 2313,
      "Ġcoming": 2314,
      "ï¼Į": 2315,
      "Ġview": 2316,
      "Ġgetting": 2317,
      "Ġbirds": 2318,
      "Ġflowers": 2319,
      "Ġeduc": 2320,
      "For": 2321,
      ".âĢĿ": 2322,
      "yle": 2323,
      "pecial": 2324,
      "lim": 2325,
      "Ġfil": 2326,
      "Ġfrequ": 2327,
      "print": 2328,
      "Ġavailable": 2329,
      "200": 2330,
      "201": 2331,
      "Ġach": 2332,
      "Ġprote": 2333,
      "Ġsomeone": 2334,
      "Ġgovernment": 2335,
      "Ġshout": 2336,
      "Ġheld": 2337,
      "Ġmakes": 2338,
      "Ġpositive": 2339,
      "Ġmid": 2340,
      "Ġlength": 2341,
      "etic": 2342,
      "iction": 2343,
      "Ġchanges": 2344,
      "rown": 2345,
      "ott": 2346,
      "Ġblood": 2347,
      "Ġinvest": 2348,
      "Ġmen": 2349,
      "Ġdue": 2350,
      "ilities": 2351,
      "Ġwhite": 2352,
      "13": 2353,
      "aisy": 2354,
      "min": 2355,
      "ĠMay": 2356,
      "Ġmajor": 2357,
      "Ġhelped": 2358,
      "ological": 2359,
      "Ġstandard": 2360,
      "Ġmother": 2361,
      "Ġrain": 2362,
      "Ġgeomet": 2363,
      "Ġmouse": 2364,
      "Ġmonth": 2365,
      "ĠHere": 2366,
      "###": 2367,
      "Ġgrass": 2368,
      "Ġcarefully": 2369,
      "Ġanything": 2370,
      "Ġwait": 2371,
      "Ġcontinued": 2372,
      "Ġvarious": 2373,
      "dle": 2374,
      "Ġdig": 2375,
      "Ġreached": 2376,
      "Ġstop": 2377,
      "Ġbrother": 2378,
      "Ġdisease": 2379,
      "=\\": 2380,
      "por": 2381,
      "Ġworked": 2382,
      "Ġinflu": 2383,
      "Ġwhether": 2384,
      "ĠJoe": 2385,
      "Ġsystems": 2386,
      "Ġsingle": 2387,
      "lam": 2388,
      "Ġamount": 2389,
      "Ġhopped": 2390,
      "At": 2391,
      "ians": 2392,
      "Ġhair": 2393,
      "Ġworks": 2394,
      "Ġsmo": 2395,
      "Ġcrit": 2396,
      "Ġvill": 2397,
      "ĠFr": 2398,
      "egin": 2399,
      "There": 2400,
      "orts": 2401,
      "Ġarray": 2402,
      "Ġappear": 2403,
      "Ġimprove": 2404,
      "Ġsens": 2405,
      "Ġtot": 2406,
      "Ġmind": 2407,
      "icult": 2408,
      "imal": 2409,
      "Ġperfect": 2410,
      "Ġlanguage": 2411,
      "))": 2412,
      "bit": 2413,
      "qrt": 2414,
      "ugg": 2415,
      "onstr": 2416,
      "Ġheart": 2417,
      "vert": 2418,
      "ĠBe": 2419,
      "aby": 2420,
      "Ġprin": 2421,
      "Ġproblems": 2422,
      "illion": 2423,
      "osed": 2424,
      "Ġincrease": 2425,
      "inary": 2426,
      "utes": 2427,
      "Ġexpect": 2428,
      "Ġcool": 2429,
      "Ġestab": 2430,
      "Ġcold": 2431,
      "Ġask": 2432,
      "Ġtrad": 2433,
      "nal": 2434,
      "Ġitself": 2435,
      "Ġamong": 2436,
      "Ġgrabb": 2437,
      "Ġcountry": 2438,
      "Ġbenef": 2439,
      "Ġoriginal": 2440,
      "Ġpu": 2441,
      "Ġmic": 2442,
      "omm": 2443,
      "Ġnecess": 2444,
      "Ġsecre": 2445,
      "Ġboat": 2446,
      "Ġserv": 2447,
      "Ġfair": 2448,
      "stit": 2449,
      "unction": 2450,
      "ĠPl": 2451,
      "Ġ30": 2452,
      "Thank": 2453,
      "Ġcorrect": 2454,
      "value": 2455,
      "time": 2456,
      "uit": 2457,
      "Ġda": 2458,
      "Ġdress": 2459,
      "ement": 2460,
      "ived": 2461,
      "Ġtravel": 2462,
      "ibility": 2463,
      "ĠEveryone": 2464,
      "Ġearly": 2465,
      "Ġstructure": 2466,
      "ming": 2467,
      "Ġplant": 2468,
      "nection": 2469,
      "Ġcatch": 2470,
      "lying": 2471,
      "unny": 2472,
      "Ġkids": 2473,
      "Ġgrand": 2474,
      "Ġsimilar": 2475,
      "ĠUnited": 2476,
      "Ġbreak": 2477,
      "arc": 2478,
      "Ġsearch": 2479,
      "ĠEng": 2480,
      "ĠGod": 2481,
      "selves": 2482,
      "ik": 2483,
      "sing": 2484,
      "Ġaffect": 2485,
      "âĢľ": 2486,
      "ably": 2487,
      "Ex": 2488,
      "Man": 2489,
      "Ġtast": 2490,
      "Ġtheory": 2491,
      "chan": 2492,
      "Ġshort": 2493,
      "ledge": 2494,
      "ready": 2495,
      "Ġterms": 2496,
      "Now": 2497,
      "Ġtoday": 2498,
      "ĠMommy": 2499,
      "Ġtrees": 2500,
      "Ġcases": 2501,
      "ĠNow": 2502,
      "Ġmanage": 2503,
      "Ġways": 2504,
      "ele": 2505,
      "Ġ|": 2506,
      "Ġsweet": 2507,
      "Ġindic": 2508,
      "Ġsleep": 2509,
      "Ġheav": 2510,
      "Ġvol": 2511,
      "Ġjour": 2512,
      "cop": 2513,
      "ina": 2514,
      "eter": 2515,
      "Ġmultiple": 2516,
      "Ġbutterf": 2517,
      "She": 2518,
      "Ġage": 2519,
      "Ġfac": 2520,
      "Ġdelic": 2521,
      "Ġbegin": 2522,
      "åĨ": 2523,
      "ister": 2524,
      "vered": 2525,
      "ows": 2526,
      "Ġalready": 2527,
      "Ġeffects": 2528,
      "action": 2529,
      "cur": 2530,
      "rist": 2531,
      "Ġbrought": 2532,
      "Ġcomplete": 2533,
      "Ġwrong": 2534,
      "sy": 2535,
      "edi": 2536,
      "alf": 2537,
      "Ġessential": 2538,
      "Ġgrabbed": 2539,
      "Ġlost": 2540,
      "clus": 2541,
      "Ġresponse": 2542,
      "begin": 2543,
      "Ġsea": 2544,
      "Ġfeet": 2545,
      "Ġtaking": 2546,
      "Ġcolle": 2547,
      "Ġlonger": 2548,
      "Ġrisk": 2549,
      "Ġpick": 2550,
      "Ġplease": 2551,
      "aries": 2552,
      "aging": 2553,
      "ä»£": 2554,
      "sqrt": 2555,
      "tr": 2556,
      "Ġconcept": 2557,
      "Ġword": 2558,
      "Ġunique": 2559,
      "ĊĊ": 2560,
      "ored": 2561,
      "Ġequal": 2562,
      "Ġmorning": 2563,
      "Ġwriting": 2564,
      "pecially": 2565,
      "cer": 2566,
      "uation": 2567,
      "Ġpay": 2568,
      "ume": 2569,
      "Ġsequ": 2570,
      "Ġtotal": 2571,
      "Al": 2572,
      "Here": 2573,
      "çļ": 2574,
      "het": 2575,
      "çļĦ": 2576,
      "ene": 2577,
      "ĠCol": 2578,
      "Ġbelieve": 2579,
      "Ġtypes": 2580,
      "iet": 2581,
      "erc": 2582,
      "Ġbug": 2583,
      "arget": 2584,
      "version": 2585,
      "ails": 2586,
      "Ġfollowed": 2587,
      "Ġsolution": 2588,
      "oph": 2589,
      "Ġneeds": 2590,
      "Ġflower": 2591,
      "Her": 2592,
      "fer": 2593,
      "Ġfell": 2594,
      "ivity": 2595,
      "Ġcommunity": 2596,
      "ones": 2597,
      "Ġpred": 2598,
      "Ġjumped": 2599,
      "',": 2600,
      "iation": 2601,
      "inner": 2602,
      "nect": 2603,
      "rm": 2604,
      "uro": 2605,
      "Ġfilled": 2606,
      "Ġrequired": 2607,
      "ĠCent": 2608,
      "Ġphot": 2609,
      "word": 2610,
      "Ġforg": 2611,
      "ĠCons": 2612,
      "Ġemploy": 2613,
      "Ġspecies": 2614,
      "Ġtreatment": 2615,
      "Ben": 2616,
      "ieved": 2617,
      "Ġbuy": 2618,
      "Ġexperi": 2619,
      "Ġwaved": 2620,
      "Ġdistribution": 2621,
      "And": 2622,
      "most": 2623,
      "obal": 2624,
      "Ġprim": 2625,
      "ãĢ": 2626,
      "Ġthough": 2627,
      "Ġidentify": 2628,
      "ators": 2629,
      "ustom": 2630,
      "AS": 2631,
      "Ġcand": 2632,
      "Ġauthor": 2633,
      "Ġbat": 2634,
      "ĠWith": 2635,
      "Ġeverything": 2636,
      "Ġdifficult": 2637,
      "Ġcra": 2638,
      "Ġcard": 2639,
      "izing": 2640,
      "rences": 2641,
      "Ġprovides": 2642,
      "40": 2643,
      "ires": 2644,
      "atures": 2645,
      "Ġhot": 2646,
      "Ġbelow": 2647,
      "Ġspot": 2648,
      "Ġcontent": 2649,
      "Ġsimple": 2650,
      "ynam": 2651,
      "Ġfavor": 2652,
      "Ġmix": 2653,
      "ĠSue": 2654,
      "though": 2655,
      "Ġelements": 2656,
      "ison": 2657,
      "Ġmoney": 2658,
      "Ġstars": 2659,
      "cos": 2660,
      "Ġtable": 2661,
      "Ġbound": 2662,
      "rap": 2663,
      "anger": 2664,
      "Ġglad": 2665,
      "Ġhistory": 2666,
      "Manifold": 2667,
      "inter": 2668,
      "oman": 2669,
      "Ġ\\(": 2670,
      "ĠDaisy": 2671,
      "Ġ--": 2672,
      "Ġteacher": 2673,
      "Ġrespons": 2674,
      "cean": 2675,
      "ope": 2676,
      "oose": 2677,
      "Ġpack": 2678,
      "une": 2679,
      "Ġsepar": 2680,
      "Ġespecially": 2681,
      "],": 2682,
      "oes": 2683,
      "reen": 2684,
      "ama": 2685,
      "Ġcompany": 2686,
      "Ġindust": 2687,
      "Ġsurprise": 2688,
      "Ġtemperature": 2689,
      "pty": 2690,
      "Ġintrod": 2691,
      "Ġnegative": 2692,
      "uture": 2693,
      "Ġfinally": 2694,
      "Ġmethods": 2695,
      "Ġperformance": 2696,
      "Ġprofess": 2697,
      "itchen": 2698,
      "call": 2699,
      "come": 2700,
      "ges": 2701,
      "etimes": 2702,
      "ogn": 2703,
      "Ġanimal": 2704,
      "Ġbuilding": 2705,
      "45": 2706,
      "</": 2707,
      "rad": 2708,
      "ilt": 2709,
      "key": 2710,
      "ighb": 2711,
      "ĠStates": 2712,
      "cal": 2713,
      "Ġtired": 2714,
      "Ġmiss": 2715,
      "erson": 2716,
      "Ġkitchen": 2717,
      "ĠEar": 2718,
      "Ġleaves": 2719,
      "ograph": 2720,
      "Ġwhole": 2721,
      "Ġstrange": 2722,
      "Ġinstead": 2723,
      "*}": 2724,
      "}^{": 2725,
      "Ġcause": 2726,
      "Ġhid": 2727,
      "umber": 2728,
      "Ġworry": 2729,
      "Ġevents": 2730,
      "Ġtakes": 2731,
      "Ġregion": 2732,
      "Jack": 2733,
      "Ġwomen": 2734,
      "Ġtowards": 2735,
      "Ġhor": 2736,
      "Ġassoci": 2737,
      "Ġ100": 2738,
      "Ġcollect": 2739,
      "Ġfund": 2740,
      "Ġloss": 2741,
      "imum": 2742,
      "Ġmembers": 2743,
      "ĠAmerican": 2744,
      "(\\": 2745,
      "back": 2746,
      "Ġspl": 2747,
      "Ġregular": 2748,
      "Ġexperim": 2749,
      "Ġpicture": 2750,
      "Ġlady": 2751,
      "Ġeither": 2752,
      "Ġrele": 2753,
      "ights": 2754,
      "Ġoutput": 2755,
      "ugh": 2756,
      "tain": 2757,
      "Ġcity": 2758,
      "unch": 2759,
      "itten": 2760,
      "åĨĻ": 2761,
      "istics": 2762,
      "ĠĠĠĠĠĠĠĠ": 2763,
      "Ġrole": 2764,
      "Ġtaken": 2765,
      "Ġpopulation": 2766,
      "Ġtall": 2767,
      "itch": 2768,
      "Ġrev": 2769,
      "Ġthemselves": 2770,
      "Ġaccount": 2771,
      "Don": 2772,
      "Ġnature": 2773,
      "Ġprevent": 2774,
      "ĠChrist": 2775,
      "35": 2776,
      "bered": 2777,
      "Ġmass": 2778,
      "Ġlit": 2779,
      "lex": 2780,
      "imens": 2781,
      "rop": 2782,
      "Ġalone": 2783,
      "Ġlikely": 2784,
      "Ġemot": 2785,
      "Ġhole": 2786,
      "Ġenjoyed": 2787,
      "bra": 2788,
      "Ġrather": 2789,
      "Ġmax": 2790,
      "Ġanymore": 2791,
      "Ġformat": 2792,
      "Ġanaly": 2793,
      "ĠSarah": 2794,
      "Ġarrived": 2795,
      "bl": 2796,
      "Ġaud": 2797,
      "Ġtouch": 2798,
      "Ġsometimes": 2799,
      "Ġknowledge": 2800,
      "Ġflu": 2801,
      "Ġsubject": 2802,
      "Ġyellow": 2803,
      "Ġshouted": 2804,
      "Ġ25": 2805,
      "Ġwide": 2806,
      "ndom": 2807,
      "Ġokay": 2808,
      "cket": 2809,
      "Ġrate": 2810,
      "Ġprotect": 2811,
      "Ġwon": 2812,
      "Ġlower": 2813,
      "ila": 2814,
      "Ġpractice": 2815,
      "Ġwonderful": 2816,
      ",âĢĿ": 2817,
      "iling": 2818,
      "Ġforce": 2819,
      "ĠMus": 2820,
      "ival": 2821,
      "ressed": 2822,
      "Ġrandom": 2823,
      "Ġoffic": 2824,
      "Ġbring": 2825,
      "ĠSpot": 2826,
      "Ġphysical": 2827,
      "bo": 2828,
      "cy": 2829,
      "åŃ": 2830,
      "Ġpul": 2831,
      "Ġgas": 2832,
      "Ġlooks": 2833,
      "Ġwrite": 2834,
      "Ġsentence": 2835,
      "af": 2836,
      "pose": 2837,
      "anch": 2838,
      "Ġcannot": 2839,
      "Ġskills": 2840,
      "From": 2841,
      "Pro": 2842,
      "Sara": 2843,
      "Ġgone": 2844,
      "ift": 2845,
      "Ġevidence": 2846,
      "Look": 2847,
      "Ġfile": 2848,
      "Ġhours": 2849,
      "Ġreason": 2850,
      "Ġonce": 2851,
      "Ġplants": 2852,
      "Ġcoll": 2853,
      "Ġindividual": 2854,
      "://": 2855,
      "Ġcaus": 2856,
      "Mommy": 2857,
      "Ġbutterfly": 2858,
      "orld": 2859,
      "Ġherself": 2860,
      "Ġconstr": 2861,
      "aged": 2862,
      "aches": 2863,
      "Ġfeed": 2864,
      "ava": 2865,
      "Ġrealized": 2866,
      "Ġcou": 2867,
      "Ġcut": 2868,
      "Ġhowever": 2869,
      "Ġelement": 2870,
      "åŃ¦": 2871,
      "rew": 2872,
      "Ġbunny": 2873,
      "Ġreve": 2874,
      "Ġmechan": 2875,
      "Ġfinished": 2876,
      "Ġdemonstr": 2877,
      "Ġcustom": 2878,
      "Ġbag": 2879,
      "Ġswim": 2880,
      "Ġbusiness": 2881,
      "iver": 2882,
      "Ġhear": 2883,
      "ĠMed": 2884,
      "Ġdoctor": 2885,
      "Ġfa": 2886,
      "Ġabs": 2887,
      "Ġtechnology": 2888,
      "Ġconcern": 2889,
      "hib": 2890,
      "Ġbooks": 2891,
      "Ġweek": 2892,
      "Ġdeg": 2893,
      "Ġdoc": 2894,
      ".\",": 2895,
      "Ġrequire": 2896,
      "Ġclaim": 2897,
      "Ġ,": 2898,
      "Ġfit": 2899,
      "ĠSy": 2900,
      "Ġroll": 2901,
      "Ġmatter": 2902,
      "Ġfactors": 2903,
      "Ġerror": 2904,
      "99": 2905,
      "Ġwall": 2906,
      "alph": 2907,
      "Ġinstr": 2908,
      "ĠComm": 2909,
      "Ġill": 2910,
      "Ġhop": 2911,
      "ĠSome": 2912,
      "irth": 2913,
      "Ġ13": 2914,
      "Ġactivities": 2915,
      "dot": 2916,
      "Ġyes": 2917,
      "Ġneighb": 2918,
      "ĠNational": 2919,
      "Ġgraph": 2920,
      "Ġbehavior": 2921,
      "Ġsample": 2922,
      "Ġdest": 2923,
      "sequ": 2924,
      "Ġideas": 2925,
      "Ġbaby": 2926,
      "ĠAd": 2927,
      "Ġcolors": 2928,
      "Ġtrack": 2929,
      "ches": 2930,
      "ppy": 2931,
      "ĠEn": 2932,
      "Ġprec": 2933,
      "Ġprovided": 2934,
      "Ġsteps": 2935,
      "Ġopportun": 2936,
      "23": 2937,
      "Ġengine": 2938,
      "aur": 2939,
      "ru": 2940,
      "Ġice": 2941,
      "ief": 2942,
      "Ġstudies": 2943,
      "Ġcentury": 2944,
      "Ġproperties": 2945,
      "iqu": 2946,
      "Ġtarget": 2947,
      "Ġbar": 2948,
      "Ġfigure": 2949,
      "Ġdream": 2950,
      "Ġreview": 2951,
      "Ġshown": 2952,
      "Ġpond": 2953,
      "Ġexploring": 2954,
      "Ġremember": 2955,
      "tt": 2956,
      "Ġfuture": 2957,
      "oms": 2958,
      "Ġround": 2959,
      "Ġuser": 2960,
      "Ġaverage": 2961,
      "Ġwild": 2962,
      "Ġfriendly": 2963,
      "Ġprime": 2964,
      ")^": 2965,
      "head": 2966,
      "othes": 2967,
      "Ġ\\\\": 2968,
      "ello": 2969,
      "Ġsurprised": 2970,
      "Ch": 2971,
      "ler": 2972,
      "Ġleave": 2973,
      "Ġwindow": 2974,
      "Ġproperty": 2975,
      "Ġamazing": 2976,
      "Ġensure": 2977,
      "mod": 2978,
      "over": 2979,
      "Ġsou": 2980,
      "Ġfaster": 2981,
      "Ġnormal": 2982,
      "Ġvide": 2983,
      "Ġshows": 2984,
      "Ġfamil": 2985,
      "Ġdistance": 2986,
      "Ġinitial": 2987,
      "ember": 2988,
      "ification": 2989,
      "Ġrecogn": 2990,
      "hers": 2991,
      "Ġresources": 2992,
      "Ġdifference": 2993,
      "Ġuses": 2994,
      "Ġcontain": 2995,
      "Ġcompon": 2996,
      "imately": 2997,
      "Ġmagical": 2998,
      "Ġpiece": 2999,
      "Ġhalf": 3000,
      "resp": 3001,
      "itting": 3002,
      "Ġhappily": 3003,
      "Ġprevious": 3004,
      "Ġskin": 3005,
      "Ġclimb": 3006,
      "80": 3007,
      "ony": 3008,
      "Ġlesson": 3009,
      "Ġactivity": 3010,
      "Ġremembered": 3011,
      "ĠÂ": 3012,
      "Ġden": 3013,
      "Ġur": 3014,
      "raction": 3015,
      "Ġrat": 3016,
      "Then": 3017,
      "Ġ14": 3018,
      "Ġate": 3019,
      "ĠPython": 3020,
      "Ġindepend": 3021,
      "Ġaddition": 3022,
      "Ġbroken": 3023,
      "ĠSally": 3024,
      "orem": 3025,
      "Ġturned": 3026,
      "ĠEarth": 3027,
      "atory": 3028,
      "Ġfive": 3029,
      "Ġsuper": 3030,
      "Ġbrain": 3031,
      "Ġfoot": 3032,
      "Ġconnect": 3033,
      "aced": 3034,
      "Ġaddress": 3035,
      "'d": 3036,
      "Ġcook": 3037,
      "Ġdom": 3038,
      "Ġstates": 3039,
      "Ġimag": 3040,
      "Ġcompet": 3041,
      "Ġmyster": 3042,
      "Ġmedic": 3043,
      "Ġmedia": 3044,
      "sp": 3045,
      "Ġaction": 3046,
      "Ġwar": 3047,
      "ising": 3048,
      "reng": 3049,
      "Ġaccept": 3050,
      "Ġgrowth": 3051,
      "ero": 3052,
      "Ġeff": 3053,
      "Ġann": 3054,
      "ands": 3055,
      "ĠOr": 3056,
      "haps": 3057,
      "Ġcy": 3058,
      "Ġstream": 3059,
      "Ġspeed": 3060,
      "Ġspect": 3061,
      "earch": 3062,
      "Ġglobal": 3063,
      "year": 3064,
      "ĠII": 3065,
      "Ġagreed": 3066,
      "Ġrecomm": 3067,
      "Ġvariables": 3068,
      "Ġeval": 3069,
      "Ġcalls": 3070,
      "Ġintern": 3071,
      "Ġslide": 3072,
      "Ġcharacters": 3073,
      "ĠWhile": 3074,
      "Ġchalleng": 3075,
      "21": 3076,
      "ery": 3077,
      "ĠGe": 3078,
      "Ġvector": 3079,
      "Ġslowly": 3080,
      "ĠSci": 3081,
      "ĠMar": 3082,
      "ĠCal": 3083,
      "Ġ50": 3084,
      "Ġtools": 3085,
      "60": 3086,
      "ES": 3087,
      "}(": 3088,
      "Ġtight": 3089,
      "Ġdeath": 3090,
      "Ġcancer": 3091,
      "Ġusually": 3092,
      "Ġgives": 3093,
      "Ġobjects": 3094,
      "Ġobserved": 3095,
      "Ġsecret": 3096,
      "Ġfavorite": 3097,
      "apt": 3098,
      "eared": 3099,
      "like": 3100,
      "itude": 3101,
      "Ġfrog": 3102,
      "Ġyummy": 3103,
      "ĠLe": 3104,
      "Ġsym": 3105,
      "Ġincreased": 3106,
      "alse": 3107,
      "ĠAI": 3108,
      "Ġcomes": 3109,
      "ips": 3110,
      "Ġbecom": 3111,
      "Ġempty": 3112,
      "Ġentire": 3113,
      "Ġcommunic": 3114,
      "By": 3115,
      "ĠMolly": 3116,
      "Ġpolit": 3117,
      "Timmy": 3118,
      "Ġheavy": 3119,
      "Ġdelicious": 3120,
      "Ġsequence": 3121,
      "ging": 3122,
      "iol": 3123,
      "Ġcast": 3124,
      "Ġder": 3125,
      "Ġstick": 3126,
      "abor": 3127,
      "Ġmeaning": 3128,
      "wise": 3129,
      "Ġsource": 3130,
      "Ġcake": 3131,
      "Ġpet": 3132,
      "Ġcreated": 3133,
      "Ġestim": 3134,
      "Con": 3135,
      "ius": 3136,
      "python": 3137,
      "rite": 3138,
      "Ġlive": 3139,
      "iven": 3140,
      "Ġjoy": 3141,
      "Ġimage": 3142,
      "Ġmole": 3143,
      "Ġrights": 3144,
      "Ġsmooth": 3145,
      "ä»£åĨĻ": 3146,
      "uary": 3147,
      "Ġ:": 3148,
      "Ġalmost": 3149,
      "Ġweight": 3150,
      "ĠMary": 3151,
      "aving": 3152,
      "Ġdetermine": 3153,
      "Ġconstant": 3154,
      "Hello": 3155,
      "itation": 3156,
      "Ġdecl": 3157,
      "Ġrul": 3158,
      "Ġhappen": 3159,
      "Ġformul": 3160,
      "Ġpieces": 3161,
      "zz": 3162,
      "Ġsong": 3163,
      "Ġconnection": 3164,
      "Ġrot": 3165,
      "Ġactually": 3166,
      "Ġsoftware": 3167,
      "Ġtalk": 3168,
      "urope": 3169,
      "27": 3170,
      "ground": 3171,
      "ror": 3172,
      "atives": 3173,
      "Ġbow": 3174,
      "ley": 3175,
      "vey": 3176,
      "Ġshared": 3177,
      "osis": 3178,
      "ER": 3179,
      "ĠEd": 3180,
      "Ġju": 3181,
      "Ġinteger": 3182,
      "Ġproducts": 3183,
      "Ġbalance": 3184,
      "Ġbirth": 3185,
      "Ġfight": 3186,
      "Ġyet": 3187,
      "ĠIm": 3188,
      "Ġsection": 3189,
      "Ġfunny": 3190,
      "ĠâĢĶ": 3191,
      "Ġcars": 3192,
      "Ġrelated": 3193,
      "Ġcountries": 3194,
      "Ġclosed": 3195,
      "Ġposition": 3196,
      "Ġsquare": 3197,
      "26": 3198,
      "cast": 3199,
      "gor": 3200,
      "roll": 3201,
      "acks": 3202,
      "Ġconsist": 3203,
      "ields": 3204,
      "elebr": 3205,
      "part": 3206,
      "uge": 3207,
      "Ġtail": 3208,
      "Ġsmaller": 3209,
      ")\\": 3210,
      "gest": 3211,
      "rated": 3212,
      "Ġaltern": 3213,
      "Ġpatient": 3214,
      "Ġ<<": 3215,
      "Ġachieve": 3216,
      "His": 3217,
      "Ġsite": 3218,
      "Ġwasn": 3219,
      "Ġreflect": 3220,
      "ottom": 3221,
      "Ġnecessary": 3222,
      "Ġsix": 3223,
      "reg": 3224,
      "Ġstreng": 3225,
      "umb": 3226,
      "Ġtrade": 3227,
      "Ġtrain": 3228,
      "ĠQu": 3229,
      "cular": 3230,
      "Ġoil": 3231,
      "Ġbreat": 3232,
      "rain": 3233,
      "Ġadded": 3234,
      "Ġhope": 3235,
      "Ġeconomic": 3236,
      "nown": 3237,
      "Ġlate": 3238,
      "itted": 3239,
      "Ġsolve": 3240,
      "Ġeffective": 3241,
      "Ġassum": 3242,
      "Ġargument": 3243,
      "Ġreveal": 3244,
      "iant": 3245,
      "Ġspark": 3246,
      "Ġcontrib": 3247,
      "Ġquant": 3248,
      "Ġbuilt": 3249,
      "Ġlinear": 3250,
      "uted": 3251,
      "Ġcondition": 3252,
      "Ġmagn": 3253,
      "ole": 3254,
      "uel": 3255,
      "ÃĹ": 3256,
      "Ġfollows": 3257,
      "Ġdoesn": 3258,
      "Ġissues": 3259,
      "AR": 3260,
      "met": 3261,
      "ype": 3262,
      "ĠMr": 3263,
      "Ġoffer": 3264,
      "Ġmodern": 3265,
      "Ġdiag": 3266,
      "Ġinteresting": 3267,
      "Ab": 3268,
      "inite": 3269,
      "Ġcelebr": 3270,
      "ured": 3271,
      "ĠEurope": 3272,
      "Ġmanifold": 3273,
      "Ġperm": 3274,
      "Ġgroups": 3275,
      "24": 3276,
      "Ġport": 3277,
      "org": 3278,
      "Ġdinner": 3279,
      "Ġlines": 3280,
      "Ġbeach": 3281,
      "Ġmemory": 3282,
      "Ġforgot": 3283,
      "Finally": 3284,
      "Ġbul": 3285,
      "Ġdynam": 3286,
      "Ġpoly": 3287,
      "airs": 3288,
      "Ġcomputer": 3289,
      "Ġfloor": 3290,
      "Ġhidden": 3291,
      "28": 3292,
      "29": 3293,
      "Ġ11": 3294,
      "Ġchem": 3295,
      "Ġobserv": 3296,
      "________________": 3297,
      "33": 3298,
      "nds": 3299,
      "Ġplaces": 3300,
      "Ġrob": 3301,
      "cript": 3302,
      "Ġriver": 3303,
      "ĠMuslim": 3304,
      "70": 3305,
      "mber": 3306,
      "pre": 3307,
      "uly": 3308,
      "Ġadditional": 3309,
      "Ġcapt": 3310,
      "Ġwoods": 3311,
      "Ġeducation": 3312,
      "wh": 3313,
      "Ã©": 3314,
      "Ġcontext": 3315,
      "Ġcorrel": 3316,
      "log": 3317,
      "uals": 3318,
      "Ġocean": 3319,
      "Ġpub": 3320,
      "Ġmillion": 3321,
      "Ġplane": 3322,
      "Ġevolution": 3323,
      "Ġappl": 3324,
      "ĠâĢĺ": 3325,
      "ply": 3326,
      "Ġsort": 3327,
      "Ġforward": 3328,
      "Ġrelative": 3329,
      "Ġeasy": 3330,
      "Ġblocks": 3331,
      "Ġinvestig": 3332,
      "Hi": 3333,
      "based": 3334,
      "function": 3335,
      "Ġlat": 3336,
      "idge": 3337,
      "ĠCar": 3338,
      "Ġconver": 3339,
      "ĠNorth": 3340,
      "Ġscience": 3341,
      "apan": 3342,
      "ucing": 3343,
      "Ġemer": 3344,
      "Ġassist": 3345,
      "Ġfront": 3346,
      "LA": 3347,
      "Ġdry": 3348,
      "Ġheat": 3349,
      "ĠAct": 3350,
      "ĠApp": 3351,
      "Ġsmell": 3352,
      "sidered": 3353,
      "Ġindex": 3354,
      "Ġlarger": 3355,
      "Ġmedical": 3356,
      "Ġpriv": 3357,
      "ai": 3358,
      "eal": 3359,
      "ä½": 3360,
      "æľ": 3361,
      "Ġversion": 3362,
      "immy": 3363,
      "ithm": 3364,
      "Ġ==": 3365,
      "Ġconduct": 3366,
      "Ġpersonal": 3367,
      "Ġfrequency": 3368,
      "cdot": 3369,
      "eed": 3370,
      "ĠSc": 3371,
      "ĠSince": 3372,
      "Ġnothing": 3373,
      "Ġscore": 3374,
      "Ġhelping": 3375,
      "Ġtraining": 3376,
      "col": 3377,
      "Ġcoun": 3378,
      "Ġfox": 3379,
      "Ġdanger": 3380,
      "Ġcompos": 3381,
      "Ġcarry": 3382,
      "Ġconsum": 3383,
      "Ġdeveloped": 3384,
      "Ġmilk": 3385,
      "dis": 3386,
      "Ġcop": 3387,
      "Ġdat": 3388,
      "irrel": 3389,
      "Ġord": 3390,
      "Ġparts": 3391,
      "Ġteach": 3392,
      "ĠVal": 3393,
      "Ġreduce": 3394,
      "Ġsnow": 3395,
      "Ġcreating": 3396,
      "Ġflying": 3397,
      "hood": 3398,
      "mosp": 3399,
      "Ġax": 3400,
      "Ġmut": 3401,
      "Ġdam": 3402,
      "Ġstar": 3403,
      "Ġconsidered": 3404,
      "Ġability": 3405,
      "elling": 3406,
      "astic": 3407,
      "Ġthank": 3408,
      "Ġgreater": 3409,
      "Ġpaint": 3410,
      "Ġdrought": 3411,
      "Ġking": 3412,
      "default": 3413,
      "Ġparameters": 3414,
      "box": 3415,
      "dom": 3416,
      "Â°": 3417,
      "itle": 3418,
      "Ġlion": 3419,
      "Ġcoin": 3420,
      "Ġaccur": 3421,
      "Ġcontinue": 3422,
      "Ġsuccessful": 3423,
      "uff": 3424,
      "ĠAlex": 3425,
      "Ġweak": 3426,
      "ushed": 3427,
      "Ġdecision": 3428,
      "Ġ2012": 3429,
      "100": 3430,
      "Cl": 3431,
      "Wow": 3432,
      "bur": 3433,
      "Ġstri": 3434,
      "Ġmach": 3435,
      "Ġaccording": 3436,
      "Ġdetails": 3437,
      "Ġ2010": 3438,
      "Ġparticip": 3439,
      "Ġseems": 3440,
      "Ġissue": 3441,
      "Why": 3442,
      "curity": 3443,
      "da": 3444,
      "yal": 3445,
      "Ġhon": 3446,
      "Ġhom": 3447,
      "empt": 3448,
      "ĠJapan": 3449,
      "Ġ40": 3450,
      "Ġsurv": 3451,
      "Ġmanagement": 3452,
      "respond": 3453,
      "48": 3454,
      "eper": 3455,
      "ĠTe": 3456,
      "ests": 3457,
      "Ġsust": 3458,
      "resh": 3459,
      "Ġstrugg": 3460,
      "Ġlaugh": 3461,
      "Ġcircle": 3462,
      "Ġnav": 3463,
      "ays": 3464,
      "uls": 3465,
      "Ġselect": 3466,
      "Ġclimate": 3467,
      "Ġdisapp": 3468,
      "ĠIntern": 3469,
      "Ġattention": 3470,
      "Ġswing": 3471,
      "Ġbelong": 3472,
      "Ġseemed": 3473,
      "Ġmonths": 3474,
      "fort": 3475,
      "fact": 3476,
      "Ġtrou": 3477,
      "Ġgames": 3478,
      "adem": 3479,
      "Ġlake": 3480,
      "Ġlevels": 3481,
      "Ġhistor": 3482,
      "\"}}": 3483,
      "åħ": 3484,
      "Ġtur": 3485,
      "Ġlic": 3486,
      "import": 3487,
      "ĠUS": 3488,
      "Ġprep": 3489,
      "Ġincluded": 3490,
      "Ġresearc": 3491,
      "Ġsquirrel": 3492,
      "Ġprior": 3493,
      "Ġjourney": 3494,
      "Ġassociated": 3495,
      "Sam": 3496,
      "Ġcamp": 3497,
      "icles": 3498,
      "Ġshap": 3499,
      "ems": 3500,
      "class": 3501,
      "Ġexpression": 3502,
      "Ġfactor": 3503,
      "Ġeventually": 3504,
      "Ġgeometry": 3505,
      "Ġtask": 3506,
      "enny": 3507,
      "array": 3508,
      "ĠInt": 3509,
      "ager": 3510,
      "Ġthroughout": 3511,
      "Ġtransport": 3512,
      "Ġmaterials": 3513,
      "64": 3514,
      "go": 3515,
      "ipped": 3516,
      "Ã±": 3517,
      "Ġ//": 3518,
      "Ġwet": 3519,
      "umn": 3520,
      "Ġpropos": 3521,
      "Ġvariable": 3522,
      "Ġallows": 3523,
      "ĠAre": 3524,
      "ĠNo": 3525,
      "Ġminutes": 3526,
      "âĪĴ": 3527,
      "Ġcosts": 3528,
      "Ġparticularly": 3529,
      "ĠJewish": 3530,
      "iques": 3531,
      "Ġter": 3532,
      "Ġmap": 3533,
      "Ġspread": 3534,
      "Ġoverall": 3535,
      "Ġnumer": 3536,
      "Ġpeace": 3537,
      "Ġvalid": 3538,
      "Ġreality": 3539,
      "Ġstayed": 3540,
      "Ġmessage": 3541,
      "board": 3542,
      "ME": 3543,
      "lor": 3544,
      "pi": 3545,
      "Ġsides": 3546,
      "Ġcross": 3547,
      "itor": 3548,
      "arily": 3549,
      "ĠAust": 3550,
      "iff": 3551,
      "order": 3552,
      "Ġapprox": 3553,
      "Ġpurpose": 3554,
      "Ġincor": 3555,
      "Ġnetwork": 3556,
      "Ġthinking": 3557,
      "Ġpatterns": 3558,
      "alpha": 3559,
      "ĠMe": 3560,
      "Ġshape": 3561,
      "Ġchoice": 3562,
      "Ġspent": 3563,
      "Ġunit": 3564,
      "Ġmotor": 3565,
      "mbol": 3566,
      "Ġdirectly": 3567,
      "Ġq": 3568,
      "Ġhill": 3569,
      "Ġparty": 3570,
      "actions": 3571,
      "bon": 3572,
      "Ġled": 3573,
      "ulations": 3574,
      "Ġarr": 3575,
      "Ġincreasing": 3576,
      "Ġextre": 3577,
      "Ġstatement": 3578,
      "Ġjoin": 3579,
      "Ġpictures": 3580,
      "Ġpredict": 3581,
      "sum": 3582,
      "Ġign": 3583,
      "ĠJill": 3584,
      "Ġlibr": 3585,
      "Ġadm": 3586,
      "Ġquality": 3587,
      "Ġmoved": 3588,
      "ordin": 3589,
      "Ġsimply": 3590,
      "Ġnearby": 3591,
      "Ġstepped": 3592,
      "Ġbenefits": 3593,
      "aff": 3594,
      "Ġwished": 3595,
      "Ġinform": 3596,
      "Ġexce": 3597,
      "Ġexact": 3598,
      "Ġexerc": 3599,
      "Ġviol": 3600,
      "ials": 3601,
      "Ġpatients": 3602,
      "Anna": 3603,
      "Ġamazed": 3604,
      "Ġenvironmental": 3605,
      "ãĢĤ": 3606,
      "uous": 3607,
      "ams": 3608,
      "Ġbigger": 3609,
      "Ġuseful": 3610,
      "Ġavoid": 3611,
      "Ġrelationships": 3612,
      "lt": 3613,
      "rim": 3614,
      "inct": 3615,
      "Ġhung": 3616,
      "asure": 3617,
      "ctors": 3618,
      "Ġload": 3619,
      "ensive": 3620,
      "Ġemb": 3621,
      "),(": 3622,
      "Ġrecent": 3623,
      "Ġfruit": 3624,
      "Ġpowerful": 3625,
      "Ġarticle": 3626,
      "Ġdrive": 3627,
      "ĠEnglish": 3628,
      "ON": 3629,
      "oom": 3630,
      "Ġ...": 3631,
      "isions": 3632,
      "ought": 3633,
      "Ġancient": 3634,
      "Ġorange": 3635,
      "ivil": 3636,
      "ĠUse": 3637,
      "vention": 3638,
      "Ġindustry": 3639,
      "li": 3640,
      "ners": 3641,
      "Ġmount": 3642,
      "rix": 3643,
      "ĠMat": 3644,
      "Ġnote": 3645,
      "Ġstarting": 3646,
      "Ġdirection": 3647,
      "Ġhealthy": 3648,
      "'.": 3649,
      "IN": 3650,
      "Ġcried": 3651,
      "Ġhtt": 3652,
      "Ġonline": 3653,
      "ĠCont": 3654,
      "Ġsoci": 3655,
      "Ġshop": 3656,
      "ĠPer": 3657,
      "Ġcontains": 3658,
      "Ġregard": 3659,
      "Ġdetect": 3660,
      "Ġfinal": 3661,
      "Ġbasic": 3662,
      "ĠResearch": 3663,
      "Ġdocument": 3664,
      "Ġvideo": 3665,
      "iety": 3666,
      "Ġver": 3667,
      "Ġful": 3668,
      "Ġduck": 3669,
      "Ġride": 3670,
      "Ġupd": 3671,
      "ĠWar": 3672,
      "acc": 3673,
      "Ġcover": 3674,
      "ensity": 3675,
      "enced": 3676,
      "Ġproduction": 3677,
      "ughter": 3678,
      "49": 3679,
      "ta": 3680,
      "eder": 3681,
      "Ġspin": 3682,
      "Ġcorrespond": 3683,
      "Ġformula": 3684,
      "just": 3685,
      "Ġsil": 3686,
      "Ġbottom": 3687,
      "anks": 3688,
      "Ġthird": 3689,
      "Ġonto": 3690,
      "unting": 3691,
      "Ġquiet": 3692,
      "Ġremain": 3693,
      "paramet": 3694,
      "Ġelectric": 3695,
      "Ġfarmer": 3696,
      "05": 3697,
      "75": 3698,
      "known": 3699,
      "ĠPe": 3700,
      "artment": 3701,
      "ĠFe": 3702,
      "izes": 3703,
      "Ġdecre": 3704,
      "ĠChar": 3705,
      "ĠBenny": 3706,
      "ucky": 3707,
      "Ġframe": 3708,
      "Ġcritical": 3709,
      "de": 3710,
      "Ġer": 3711,
      "idth": 3712,
      "rench": 3713,
      "Ġregions": 3714,
      "Ġcalculate": 3715,
      "Ġinvolved": 3716,
      "Ġvillage": 3717,
      "$\\": 3718,
      "89": 3719,
      "Ġoption": 3720,
      "ese": 3721,
      "Ġproduce": 3722,
      "ĠYork": 3723,
      "ĠCenter": 3724,
      "Ġevalu": 3725,
      "73": 3726,
      "Ġsources": 3727,
      "Ġfather": 3728,
      "Ġstre": 3729,
      "Ġaspect": 3730,
      "Ġspaces": 3731,
      "Ġstrateg": 3732,
      "Ġincludes": 3733,
      "Ġdetermined": 3734,
      "Ġow": 3735,
      "Ġwebs": 3736,
      "ander": 3737,
      "Ġexpert": 3738,
      "Ġpuppy": 3739,
      "32": 3740,
      "gar": 3741,
      "enn": 3742,
      "Ġsaf": 3743,
      "Ġatmosp": 3744,
      "ĠEl": 3745,
      "ĠGerm": 3746,
      "Ġmoving": 3747,
      "ĠJews": 3748,
      "Ġhorse": 3749,
      "hicle": 3750,
      "vant": 3751,
      "ying": 3752,
      "vere": 3753,
      "igg": 3754,
      "ubb": 3755,
      "Ġstudent": 3756,
      "Ġphr": 3757,
      "Ġreturns": 3758,
      "Ġdefined": 3759,
      "Ġtechniques": 3760,
      "Ġpromised": 3761,
      "Do": 3762,
      "My": 3763,
      "rast": 3764,
      "è®": 3765,
      "Ġut": 3766,
      "ites": 3767,
      "Ġmist": 3768,
      "lection": 3769,
      "uth": 3770,
      "Ġones": 3771,
      "phant": 3772,
      "Ġ&=": 3773,
      "Ġpopular": 3774,
      "ervation": 3775,
      "ospital": 3776,
      "Ġscientists": 3777,
      "stitute": 3778,
      "Ġâ": 3779,
      "Ġtiny": 3780,
      "Ġactions": 3781,
      "ete": 3782,
      "Ġalgor": 3783,
      "Ġarch": 3784,
      "ucle": 3785,
      "akes": 3786,
      "Ġproviding": 3787,
      "Ġtriangle": 3788,
      "Ġequations": 3789,
      "Ġreturned": 3790,
      "Ġveget": 3791,
      "Ġsumm": 3792,
      "Ġreported": 3793,
      "Ġsituation": 3794,
      "Ġhyp": 3795,
      "pes": 3796,
      "ym": 3797,
      "nding": 3798,
      "Ġdou": 3799,
      "Ġnarr": 3800,
      "Ġeating": 3801,
      "ĠJan": 3802,
      "ĠDr": 3803,
      "ĠGrand": 3804,
      "Ġhelps": 3805,
      "Ġremo": 3806,
      "Ġassess": 3807,
      "Ġplanet": 3808,
      "Ġinstance": 3809,
      "Ġpassed": 3810,
      "Ġparameter": 3811,
      "85": 3812,
      "86": 3813,
      "book": 3814,
      "rate": 3815,
      "Ġfail": 3816,
      "Ġpink": 3817,
      "Ġhide": 3818,
      "rot": 3819,
      "style": 3820,
      "Ġsees": 3821,
      "ĠPlease": 3822,
      "Ġpool": 3823,
      "Ġarm": 3824,
      "Ġapplication": 3825,
      "Ġinfluence": 3826,
      "Ġinternational": 3827,
      "Ġpolitical": 3828,
      "Ġaff": 3829,
      "Ġburn": 3830,
      "ĠMin": 3831,
      "Ġrule": 3832,
      "Ġjud": 3833,
      "ension": 3834,
      "ĠStud": 3835,
      "Ġzero": 3836,
      "Ġearth": 3837,
      "Ġdesigned": 3838,
      "Ġstrength": 3839,
      "åĲ": 3840,
      "erator": 3841,
      "ĠBl": 3842,
      "Ġchance": 3843,
      "ĠRep": 3844,
      "ĠTommy": 3845,
      "Ġmoral": 3846,
      "However": 3847,
      "PI": 3848,
      "ĠÎ": 3849,
      "Ġfat": 3850,
      "aly": 3851,
      "aling": 3852,
      "Ġdrag": 3853,
      "add": 3854,
      "Ġdead": 3855,
      "ĠPark": 3856,
      "ĠOct": 3857,
      "Ġcaught": 3858,
      "Ġprogress": 3859,
      "Ġexperiences": 3860,
      "wor": 3861,
      "Ġtang": 3862,
      "Ġlin": 3863,
      "ooking": 3864,
      "hens": 3865,
      "Ġfeatures": 3866,
      "Ġresist": 3867,
      "Ġquite": 3868,
      "Ġblank": 3869,
      "Ġcirc": 3870,
      "Ġexpected": 3871,
      "Ġrecommend": 3872,
      "39": 3873,
      "77": 3874,
      "Pa": 3875,
      "æķ": 3876,
      "Ġpage": 3877,
      "ils": 3878,
      "Ġstories": 3879,
      "urs": 3880,
      "ĠAmy": 3881,
      "ĠAdd": 3882,
      "ĠMan": 3883,
      "Ġpoor": 3884,
      "cles": 3885,
      "ocol": 3886,
      "Ġgrad": 3887,
      "Ġattempt": 3888,
      "Ġsolutions": 3889,
      "Ġpolicy": 3890,
      "Ġdrug": 3891,
      "iÃ±": 3892,
      "lict": 3893,
      "now": 3894,
      "Ġsus": 3895,
      "Ġfields": 3896,
      "ether": 3897,
      "Ġvirt": 3898,
      "ĠPr": 3899,
      "acity": 3900,
      "Ġcompared": 3901,
      "Ġwaited": 3902,
      "Ġestablished": 3903,
      "Ġfamilies": 3904,
      "point": 3905,
      "times": 3906,
      "ç»": 3907,
      "Ġlif": 3908,
      "ĠHealth": 3909,
      "Ġroad": 3910,
      "Ġsets": 3911,
      "Ġtests": 3912,
      "Ġsustain": 3913,
      "Ġwel": 3914,
      "Ġnational": 3915,
      "see": 3916,
      "seud": 3917,
      "Ġweather": 3918,
      "ĠMon": 3919,
      "Ġship": 3920,
      "Ġ\\]": 3921,
      "ĠNe": 3922,
      "agon": 3923,
      "Ġforms": 3924,
      ".)": 3925,
      "Ar": 3926,
      "ipp": 3927,
      "nov": 3928,
      "Ġtend": 3929,
      "Ġsuddenly": 3930,
      "Ġmatch": 3931,
      "ĠApr": 3932,
      "ĠMy": 3933,
      "Ġimplic": 3934,
      "Ġgoal": 3935,
      "Ġspo": 3936,
      "Ġboard": 3937,
      "Ġleaders": 3938,
      "Ġmodels": 3939,
      "Ġmathematics": 3940,
      "isf": 3941,
      "arrow": 3942,
      "entle": 3943,
      "Ġrepe": 3944,
      "rage": 3945,
      "âĢ¦": 3946,
      "Ġchoose": 3947,
      "Ġworried": 3948,
      "ĠGo": 3949,
      "Ġactive": 3950,
      "Ġgrowing": 3951,
      "Ġoptim": 3952,
      "Ġencou": 3953,
      "Oh": 3954,
      "Tr": 3955,
      "fric": 3956,
      "ket": 3957,
      "life": 3958,
      "hel": 3959,
      "Ġharm": 3960,
      "ĠPol": 3961,
      "ĠWorld": 3962,
      "Ġscary": 3963,
      "ĠKe": 3964,
      "ancy": 3965,
      "Ġrequires": 3966,
      "Ġhyd": 3967,
      "Ġapplications": 3968,
      "Ġmicro": 3969,
      "Ġseparate": 3970,
      "Ġpublished": 3971,
      ")=": 3972,
      "34": 3973,
      "pite": 3974,
      "Ġwants": 3975,
      "Ġtrip": 3976,
      "Ġextra": 3977,
      "Ġprograms": 3978,
      "Ġeasily": 3979,
      "udej": 3980,
      "Ġlimit": 3981,
      "Ġindividuals": 3982,
      "Ġindependent": 3983,
      "flow": 3984,
      "Ġsold": 3985,
      "eddy": 3986,
      "itary": 3987,
      "Ġhat": 3988,
      "term": 3989,
      "Ġgoals": 3990,
      "phi": 3991,
      "Ġmagic": 3992,
      "Ġculture": 3993,
      "Ġchallenges": 3994,
      "Ġresearchers": 3995,
      "Bob": 3996,
      "ii": 3997,
      "çĶ": 3998,
      "Ġble": 3999,
      "Ġhuge": 4000,
      "ĠMore": 4001,
      "gebra": 4002,
      "Ġadapt": 4003,
      "Ġrare": 4004,
      "Ġsyn": 4005,
      "Ġshowing": 4006,
      "Ġserious": 4007,
      "Ġeye": 4008,
      "Ġconcise": 4009,
      "clusion": 4010,
      "May": 4011,
      "Method": 4012,
      "With": 4013,
      "sin": 4014,
      "Ġwave": 4015,
      "irm": 4016,
      "uration": 4017,
      "Ġtransform": 4018,
      "Ġoptions": 4019,
      "ĠCanad": 4020,
      "Ġimmedi": 4021,
      "Ġliter": 4022,
      "åı": 4023,
      "inated": 4024,
      "Ġpig": 4025,
      "ĠScient": 4026,
      "irty": 4027,
      "Ġwear": 4028,
      "ĠMudej": 4029,
      "ĠCor": 4030,
      "####": 4031,
      "Ġlives": 4032,
      "Ġ2011": 4033,
      "Ġmiddle": 4034,
      "Ġexperiment": 4035,
      "parameters": 4036,
      "\"]": 4037,
      ">[": 4038,
      "]</": 4039,
      "Ġcave": 4040,
      "Ġnest": 4041,
      "Ġrout": 4042,
      "acter": 4043,
      "Ġemp": 4044,
      "Ġexplained": 4045,
      "Ġsimpl": 4046,
      "ashing": 4047,
      "Ġadventures": 4048,
      "Ġcomplexity": 4049,
      "ĠAbstract": 4050,
      "www": 4051,
      "iÃ±o": 4052,
      "au": 4053,
      "eks": 4054,
      "iable": 4055,
      "ober": 4056,
      "Ġtim": 4057,
      "itness": 4058,
      "Ġmis": 4059,
      "Ġnut": 4060,
      "ĠSm": 4061,
      "amples": 4062,
      "Ġprop": 4063,
      "ĠBilly": 4064,
      "ĠĠĠĠĠĠĠ": 4065,
      "ĠEven": 4066,
      "Ġleading": 4067,
      "Ġangle": 4068,
      "Ġmotiv": 4069,
      "65": 4070,
      "Cons": 4071,
      "PO": 4072,
      "Re": 4073,
      "wo": 4074,
      "hest": 4075,
      "inition": 4076,
      "Ġsilly": 4077,
      "Ġpseud": 4078,
      "Ġdance": 4079,
      "Ġplot": 4080,
      "ĠEach": 4081,
      "ccording": 4082,
      "ĠKing": 4083,
      "Ġexciting": 4084,
      "Ġdeveloping": 4085,
      "Ġsounds": 4086,
      "Ġdemand": 4087,
      "mathbb": 4088,
      "Ġpulled": 4089,
      "Ġwin": 4090,
      "Ġdate": 4091,
      "Ġthreat": 4092,
      "ĠSu": 4093,
      "ĠSim": 4094,
      "Ġforces": 4095,
      "Ġfear": 4096,
      "Ġsurround": 4097,
      "ĠState": 4098,
      "Ġproduced": 4099,
      "ancing": 4100,
      "Ġvariety": 4101,
      "Ġwritten": 4102,
      "Ġexamples": 4103,
      "Ġfixed": 4104,
      "bf": 4105,
      "mon": 4106,
      "Ġcup": 4107,
      "Ġgentle": 4108,
      "ĠSoc": 4109,
      "Ġstorm": 4110,
      "rab": 4111,
      "Ġsail": 4112,
      "Ġsecurity": 4113,
      "Ġscen": 4114,
      "itionally": 4115,
      "Ġbranch": 4116,
      "Ġlistened": 4117,
      "Ġpolice": 4118,
      "Ġcenter": 4119,
      "Ġdiscover": 4120,
      "Ġprinci": 4121,
      "Ġdaughter": 4122,
      "BC": 4123,
      "ID": 4124,
      "can": 4125,
      "wers": 4126,
      "Ġwish": 4127,
      "Ġlone": 4128,
      "amental": 4129,
      "ĠFrench": 4130,
      "ĠRuss": 4131,
      "Ġcoe": 4132,
      "Ġcontact": 4133,
      "Ġsymbol": 4134,
      "Ġexplain": 4135,
      "Ġimportance": 4136,
      "ĠYour": 4137,
      "equiv": 4138,
      "Ġconstruct": 4139,
      "Ġdangerous": 4140,
      "Ġextreme": 4141,
      "78": 4142,
      "AN": 4143,
      "off": 4144,
      "oles": 4145,
      "raft": 4146,
      "ĠAfric": 4147,
      "ĠCD": 4148,
      "pec": 4149,
      "Ġrich": 4150,
      "ĠLila": 4151,
      "place": 4152,
      "Ġago": 4153,
      "Ġsynt": 4154,
      "Ġvisual": 4155,
      "Ġoperations": 4156,
      "Ġchemical": 4157,
      "69": 4158,
      "`,": 4159,
      "yond": 4160,
      "Ġcateg": 4161,
      "arb": 4162,
      "ĠPerson": 4163,
      "Ġworth": 4164,
      "Ġque": 4165,
      "Ġintegers": 4166,
      "Ġdevice": 4167,
      "Ġwoman": 4168,
      "Ġmention": 4169,
      "Ġbee": 4170,
      "ĠWill": 4171,
      "Ġ24": 4172,
      "andy": 4173,
      "Ġscreen": 4174,
      "Ġcompan": 4175,
      "ictionary": 4176,
      "Ġservices": 4177,
      "79": 4178,
      "bda": 4179,
      "ales": 4180,
      "olve": 4181,
      "Ġ21": 4182,
      "ĠFinally": 4183,
      "Ġsmart": 4184,
      "Ġenh": 4185,
      "active": 4186,
      "ucial": 4187,
      "Abstract": 4188,
      "Ġsafety": 4189,
      "æķ°": 4190,
      "lier": 4191,
      "ped": 4192,
      "ilos": 4193,
      "Ġhabit": 4194,
      "ogether": 4195,
      "Ġemiss": 4196,
      "Ġlocation": 4197,
      "Ġclimbed": 4198,
      "Ġaim": 4199,
      "Ġpull": 4200,
      "asks": 4201,
      "Ġefficient": 4202,
      "ĠMor": 4203,
      "Ġspir": 4204,
      "Ġappeared": 4205,
      "ffy": 4206,
      "Ġeverywhere": 4207,
      "isms": 4208,
      "Ġcommunities": 4209,
      "trans": 4210,
      "Ġlonely": 4211,
      "Em": 4212,
      "nom": 4213,
      "Ġvel": 4214,
      "ancial": 4215,
      "Ġegg": 4216,
      "Ġwhose": 4217,
      "Ġrace": 4218,
      "Ġcarried": 4219,
      "Ġattrib": 4220,
      "Ġballoon": 4221,
      "Ġcaused": 4222,
      "load": 4223,
      "Ġexisting": 4224,
      "Ġreceived": 4225,
      "Ġestablish": 4226,
      "fr": 4227,
      "ffe": 4228,
      "}=": 4229,
      "Ġtheorem": 4230,
      "Ġcos": 4231,
      "ĠPat": 4232,
      "ĠDis": 4233,
      "uces": 4234,
      "Ġfinding": 4235,
      "Ġoffers": 4236,
      "Ġcream": 4237,
      "Ġacqu": 4238,
      "Ġdaddy": 4239,
      "Ġcrucial": 4240,
      "Ġgrandma": 4241,
      "Ġnavig": 4242,
      "iem": 4243,
      "zing": 4244,
      "Ġfalse": 4245,
      "Ġthus": 4246,
      "Ġstation": 4247,
      "unt": 4248,
      "ĠMod": 4249,
      "ĠDNA": 4250,
      "Ġscale": 4251,
      "Ġstrings": 4252,
      "ĠInst": 4253,
      "Ġseek": 4254,
      "elta": 4255,
      "Ġsetting": 4256,
      "ibr": 4257,
      "Ġgiving": 4258,
      "Ġcheered": 4259,
      "Ġreading": 4260,
      "Ġ2009": 4261,
      "}$.": 4262,
      "Ġrocks": 4263,
      "Ġlimited": 4264,
      "do": 4265,
      "uable": 4266,
      "Ġbath": 4267,
      "ĠSouth": 4268,
      "elly": 4269,
      "ĠPre": 4270,
      "Ġchir": 4271,
      "Ġtherefore": 4272,
      "Ġyourself": 4273,
      "Ġnews": 4274,
      "Ġowner": 4275,
      "Ġtesting": 4276,
      "Ġeffectively": 4277,
      "Ġparticles": 4278,
      "Ġmaintain": 4279,
      "Ġdiscovered": 4280,
      "Ġcollabor": 4281,
      "Com": 4282,
      "tained": 4283,
      "atter": 4284,
      "arp": 4285,
      "Ġgold": 4286,
      "Ġforget": 4287,
      "ĠAg": 4288,
      "Ġclothes": 4289,
      "izations": 4290,
      "ĠGr": 4291,
      "actory": 4292,
      "Ġhelpful": 4293,
      "}{\\": 4294,
      "Ġtopic": 4295,
      "arguments": 4296,
      "ĠChristian": 4297,
      "Ġwebsite": 4298,
      "''": 4299,
      "].": 4300,
      "Ġmouth": 4301,
      "arity": 4302,
      "asons": 4303,
      "Ġnucle": 4304,
      "Ġisland": 4305,
      "ptoms": 4306,
      "Ġrow": 4307,
      "Ġenter": 4308,
      "Ġelectr": 4309,
      "Ġsatisf": 4310,
      "Ġlayer": 4311,
      "Ġbeginning": 4312,
      "Ġprimary": 4313,
      "Ġcastle": 4314,
      "display": 4315,
      "Ġhungry": 4316,
      "list": 4317,
      "heck": 4318,
      "step": 4319,
      "ateful": 4320,
      "ĠOut": 4321,
      "Ġanyone": 4322,
      "Ġperspect": 4323,
      "Ġpretend": 4324,
      "Ġmaximum": 4325,
      "Ġfeedback": 4326,
      "LAB": 4327,
      "Ġshapes": 4328,
      "Ġhttp": 4329,
      "Ġowl": 4330,
      "LL": 4331,
      "Ġtun": 4332,
      "Ġfuel": 4333,
      "urther": 4334,
      "ession": 4335,
      "oday": 4336,
      "opr": 4337,
      "Ġwouldn": 4338,
      "Ġadvant": 4339,
      "Ġetc": 4340,
      "Ġbehavi": 4341,
      "ĠDaddy": 4342,
      "ĠSystem": 4343,
      "Ġbecomes": 4344,
      "Ġdatas": 4345,
      "(-": 4346,
      "AC": 4347,
      "ille": 4348,
      "amm": 4349,
      "Ġconsequ": 4350,
      "Ġseason": 4351,
      "Ġplayer": 4352,
      "ĠGener": 4353,
      "Ġapple": 4354,
      "Ġreader": 4355,
      "Ġconflict": 4356,
      "Ġrespond": 4357,
      "Ġchanged": 4358,
      "Another": 4359,
      "Ġsentences": 4360,
      "Ġtraditional": 4361,
      "Ġneighbor": 4362,
      "Ġratio": 4363,
      "MS": 4364,
      "pa": 4365,
      "urch": 4366,
      "Ġconcent": 4367,
      "Ġdeb": 4368,
      "Ġbrown": 4369,
      "ecause": 4370,
      "Ġrules": 4371,
      "IT": 4372,
      "lation": 4373,
      "äº": 4374,
      "Ġbite": 4375,
      "Ġnation": 4376,
      "Ġstuck": 4377,
      "Ġstyle": 4378,
      "These": 4379,
      "Ġvict": 4380,
      "Ġdisplay": 4381,
      "Ġcompar": 4382,
      "ube": 4383,
      "Ġsubst": 4384,
      "Ġgrateful": 4385,
      "Ġexpress": 4386,
      "ĠPhys": 4387,
      "Ġcolorful": 4388,
      "ky": 4389,
      "ino": 4390,
      "Ġattract": 4391,
      "Ġresulting": 4392,
      "Ġbroad": 4393,
      "Ġ2013": 4394,
      "Ġesc": 4395,
      "Ġclapped": 4396,
      "ATLAB": 4397,
      "Ġimplementation": 4398,
      "hetic": 4399,
      "ĠScience": 4400,
      "Ġcorrelation": 4401,
      "Ġprivate": 4402,
      "Last": 4403,
      "\\[": 4404,
      "oration": 4405,
      "ĠBrit": 4406,
      "ĠFirst": 4407,
      "ĊĠĠĠĠĠĠĠĠĠĠĠĠĠĠĠ": 4408,
      "Ġinterested": 4409,
      "Max": 4410,
      "])": 4411,
      "bar": 4412,
      "cing": 4413,
      "gn": 4414,
      "la": 4415,
      "Ġband": 4416,
      "Ġlack": 4417,
      "Ġna": 4418,
      "ades": 4419,
      "ceed": 4420,
      "ĠTheir": 4421,
      "Ġasking": 4422,
      "istical": 4423,
      "ĠJul": 4424,
      "ferences": 4425,
      "Ġadjust": 4426,
      "Ġapply": 4427,
      "useum": 4428,
      "Ġoffice": 4429,
      "Ġmode": 4430,
      "ologies": 4431,
      "Ġhandle": 4432,
      "ĠAmerica": 4433,
      "Ġoppos": 4434,
      "Ġlegal": 4435,
      "Ġservice": 4436,
      "rapy": 4437,
      "mes": 4438,
      "xy": 4439,
      "åĴ": 4440,
      "Ġsister": 4441,
      "Ġbur": 4442,
      "ĠDep": 4443,
      "Ġtax": 4444,
      "ĠUN": 4445,
      "Ġremains": 4446,
      "encies": 4447,
      "Ġpreser": 4448,
      "mathcal": 4449,
      "åĴĮ": 4450,
      "num": 4451,
      "pid": 4452,
      "rs": 4453,
      "uits": 4454,
      "Ġir": 4455,
      "Ġwarn": 4456,
      "orrow": 4457,
      "adow": 4458,
      "amma": 4459,
      "eli": 4460,
      "rial": 4461,
      "Ġshock": 4462,
      "Ġ\\)": 4463,
      "Ġtrust": 4464,
      "Ġ2008": 4465,
      "Ġbroke": 4466,
      "Ġbasis": 4467,
      "Ġdescribed": 4468,
      "Ġcookies": 4469,
      "Ġincorpor": 4470,
      "OR": 4471,
      "rig": 4472,
      "Ġodd": 4473,
      "Ġmental": 4474,
      "asc": 4475,
      "Ġletter": 4476,
      "Ġmonster": 4477,
      "Ġengage": 4478,
      "Ġdolls": 4479,
      "Ġdropped": 4480,
      "Ġmysterious": 4481,
      "ilosoph": 4482,
      "38": 4483,
      "`.": 4484,
      "uild": 4485,
      "enge": 4486,
      "Ġphen": 4487,
      "omy": 4488,
      "abilities": 4489,
      "Ġgoes": 4490,
      "ĠInstitute": 4491,
      "Ġcarbon": 4492,
      "Ġhost": 4493,
      "Ġdescribe": 4494,
      "();": 4495,
      ".;": 4496,
      "[\"": 4497,
      "ned": 4498,
      "sub": 4499,
      "Ġaware": 4500,
      "Ġthrow": 4501,
      "ola": 4502,
      "olid": 4503,
      "Ġroot": 4504,
      "Ġunc": 4505,
      "Ġcolumn": 4506,
      "Ġprobably": 4507,
      "Ġallowed": 4508,
      "Ġpresence": 4509,
      "ĠEmma": 4510,
      "Ġmathematical": 4511,
      "Ġprotein": 4512,
      "Ġaudience": 4513,
      "Ġsymptoms": 4514,
      "Ġjuice": 4515,
      "47": 4516,
      ":**": 4517,
      "}_{": 4518,
      "Ġbone": 4519,
      "Ġfold": 4520,
      "Ġple": 4521,
      "Ġinj": 4522,
      "Ġsave": 4523,
      "Ġconvers": 4524,
      "ĠDav": 4525,
      "apter": 4526,
      "Ġformed": 4527,
      "Ġremind": 4528,
      "Ġpurch": 4529,
      "Ġdrink": 4530,
      "Ġtypically": 4531,
      "Ġsales": 4532,
      "Ġfundamental": 4533,
      "Ġcauses": 4534,
      "Ġefforts": 4535,
      "Ġstreet": 4536,
      "Ġdragon": 4537,
      "Lucy": 4538,
      "iar": 4539,
      "Ġweeks": 4540,
      "Ġupset": 4541,
      "ĠNiÃ±o": 4542,
      "Ġrelieved": 4543,
      "Ġexpand": 4544,
      "Ġgeneration": 4545,
      "Ġlargest": 4546,
      "Ġdelight": 4547,
      "Ġcourt": 4548,
      "lambda": 4549,
      "Ġlibrary": 4550,
      "rror": 4551,
      "inger": 4552,
      "arian": 4553,
      "ica": 4554,
      "rote": 4555,
      "Ġplaced": 4556,
      "illing": 4557,
      "ĠDef": 4558,
      "ĠUsing": 4559,
      "phas": 4560,
      "object": 4561,
      "Ġvaluable": 4562,
      "Ġfamous": 4563,
      "Ġfinancial": 4564,
      "Ġearlier": 4565,
      "Ġcreative": 4566,
      "Ġsummer": 4567,
      "Ġwatching": 4568,
      "Ġnarrative": 4569,
      "iemann": 4570,
      "displaystyle": 4571,
      "37": 4572,
      "ET": 4573,
      "pret": 4574,
      "Ġwise": 4575,
      "icks": 4576,
      "char": 4577,
      "Ġalthough": 4578,
      "ĠMany": 4579,
      "Ġrub": 4580,
      "ĠJust": 4581,
      "ĠDes": 4582,
      "Ġleaving": 4583,
      "ags": 4584,
      "ogen": 4585,
      "Ġbrand": 4586,
      "Ġmatrix": 4587,
      "Ġelephant": 4588,
      "Ġengaging": 4589,
      "Ġmovement": 4590,
      "Ġoperation": 4591,
      "ĠTrans": 4592,
      "Ġprofessional": 4593,
      "Ġalternative": 4594,
      "Ġstrategies": 4595,
      "Of": 4596,
      "lies": 4597,
      "new": 4598,
      "test": 4599,
      "Ġtouc": 4600,
      "Ġdimens": 4601,
      "arf": 4602,
      "ifically": 4603,
      "Ġlikes": 4604,
      "Ġcoordin": 4605,
      "ĠOther": 4606,
      "ifying": 4607,
      "Ġtreasure": 4608,
      "Ġholding": 4609,
      "Ġdrove": 4610,
      "Ġscientific": 4611,
      "Ġfairy": 4612,
      "Ġillust": 4613,
      "Ġopportunities": 4614,
      "Ġcomponent": 4615,
      "ait": 4616,
      "ees": 4617,
      "yard": 4618,
      "æĺ": 4619,
      "hered": 4620,
      "Ġsin": 4621,
      "Ġsick": 4622,
      "sect": 4623,
      "ĠMill": 4624,
      "Ġexhib": 4625,
      "Ġshall": 4626,
      "Ġshoes": 4627,
      "istry": 4628,
      "ĠPres": 4629,
      "ĠOur": 4630,
      "Ġrelig": 4631,
      "Ġhighlight": 4632,
      "Ġpurple": 4633,
      "Ġbasket": 4634,
      "Ġradius": 4635,
      "ĠEmily": 4636,
      "Ġemotional": 4637,
      "Maybe": 4638,
      "EN": 4639,
      "Ġ)": 4640,
      "Ġgain": 4641,
      "ĠAm": 4642,
      "ĠCo": 4643,
      "Ġcomfort": 4644,
      "Ġdecor": 4645,
      "Ġdistinct": 4646,
      "Ġmeasures": 4647,
      "ĠMaybe": 4648,
      "Ġmachine": 4649,
      "Ġpseudopr": 4650,
      "Be": 4651,
      "case": 4652,
      "gram": 4653,
      "kin": 4654,
      "Ġhospital": 4655,
      "Ġstra": 4656,
      "olute": 4657,
      "urb": 4658,
      "Ġkid": 4659,
      "resents": 4660,
      "ĠJour": 4661,
      "Ġmeant": 4662,
      "Ġaccident": 4663,
      "Ġedge": 4664,
      "Ġcentral": 4665,
      "Ġbusy": 4666,
      "Ġdigital": 4667,
      "Ġcompletely": 4668,
      "Ġcollection": 4669,
      "ĠCalif": 4670,
      "Ġcopy": 4671,
      "ĠScientific": 4672,
      "Add": 4673,
      "aks": 4674,
      "ha": 4675,
      "ĊĠ": 4676,
      "Ġbot": 4677,
      "ĠHist": 4678,
      "abet": 4679,
      "Ġpocket": 4680,
      "Ġcompre": 4681,
      "clude": 4682,
      "Ġeasier": 4683,
      "copation": 4684,
      "ĠConsider": 4685,
      "Ġapplied": 4686,
      "Ġdamage": 4687,
      "Ġexercise": 4688,
      "Ġalgorithm": 4689,
      "36": 4690,
      "vest": 4691,
      "Ġtherm": 4692,
      "atform": 4693,
      "ouds": 4694,
      "orge": 4695,
      "Ġmine": 4696,
      "Ġthread": 4697,
      "Ġnames": 4698,
      "ĠSch": 4699,
      "Ġbeyond": 4700,
      "Ġstd": 4701,
      "Ġisn": 4702,
      "Ġkite": 4703,
      "Ġadult": 4704,
      "Ġphone": 4705,
      "Ġgenerally": 4706,
      "Ġprocessing": 4707,
      "ometry": 4708,
      "Ġtalking": 4709,
      "Ġconstit": 4710,
      "ornia": 4711,
      "54": 4712,
      "Factory": 4713,
      "OS": 4714,
      "df": 4715,
      "data": 4716,
      "Ġtasks": 4717,
      "Ġfoss": 4718,
      "Ġmission": 4719,
      "ellig": 4720,
      "izz": 4721,
      "Ġtrig": 4722,
      "Ġtruth": 4723,
      "Ġspeak": 4724,
      "Ġtape": 4725,
      "Ġraise": 4726,
      "ĠChina": 4727,
      "Ġrepresents": 4728,
      "Ġturns": 4729,
      "Ġautom": 4730,
      "Ġmilitary": 4731,
      "Ġcandy": 4732,
      "ĠInternational": 4733,
      "Ġblanket": 4734,
      "Pl": 4735,
      "big": 4736,
      "ball": 4737,
      "ding": 4738,
      "ection": 4739,
      "Ġthous": 4740,
      "Ġund": 4741,
      "uman": 4742,
      "ĠJimmy": 4743,
      "ĠRem": 4744,
      "Ġarms": 4745,
      "Ġdifferences": 4746,
      "Ġaccom": 4747,
      "Ġfeels": 4748,
      "////": 4749,
      "mathbf": 4750,
      "Ġiniti": 4751,
      "aim": 4752,
      "iers": 4753,
      "reci": 4754,
      "Ġwrote": 4755,
      "Ġbike": 4756,
      "Ġfresh": 4757,
      "Ġnap": 4758,
      "Ġproced": 4759,
      "ĠPar": 4760,
      "Ġ23": 4761,
      "ĠDon": 4762,
      "Ġloop": 4763,
      "ints": 4764,
      "Ġbackyard": 4765,
      "ternal": 4766,
      "ĠSoon": 4767,
      "Ġdefine": 4768,
      "Ġslight": 4769,
      "Ġpoll": 4770,
      "Ġoccurs": 4771,
      "----": 4772,
      "Ġexactly": 4773,
      "Ġtangent": 4774,
      "ailed": 4775,
      "gen": 4776,
      "hold": 4777,
      "Ġdirty": 4778,
      "iving": 4779,
      "Ġcloud": 4780,
      "Ġunits": 4781,
      "Ġunknown": 4782,
      "Ġbucket": 4783,
      "Ġpointed": 4784,
      "Ġincreases": 4785,
      "199": 4786,
      "Ġsignificantly": 4787,
      "Ġlabor": 4788,
      "cut": 4789,
      "draw": 4790,
      "ðŁ": 4791,
      "Ġpow": 4792,
      "ana": 4793,
      "Ġheight": 4794,
      "roph": 4795,
      "ament": 4796,
      "iring": 4797,
      "Ġ(\\": 4798,
      "ially": 4799,
      "itty": 4800,
      "perties": 4801,
      "Ġsupply": 4802,
      "Ġcurrently": 4803,
      "While": 4804,
      "Ġcompanies": 4805,
      "-\\": 4806,
      "First": 4807,
      "Is": 4808,
      "iency": 4809,
      "pri": 4810,
      "uk": 4811,
      "}$$": 4812,
      "rest": 4813,
      "Ġboun": 4814,
      "Ġmir": 4815,
      "ĠAug": 4816,
      "hern": 4817,
      "ĠMark": 4818,
      "aint": 4819,
      "thern": 4820,
      "Ġsmiles": 4821,
      "ĠInside": 4822,
      "ocal": 4823,
      "Ġworkers": 4824,
      "Ġtransfer": 4825,
      "Ġslope": 4826,
      "Ġ90": 4827,
      "ĠWhy": 4828,
      "Ġcrying": 4829,
      "Ġmedicine": 4830,
      "Ġdynamic": 4831,
      "Ġapproximately": 4832,
      "Ġfully": 4833,
      "87": 4834,
      "Sure": 4835,
      "ae": 4836,
      "dimens": 4837,
      "iam": 4838,
      "volution": 4839,
      "Ġwings": 4840,
      "Ġcit": 4841,
      "Ġupper": 4842,
      "unk": 4843,
      "Ġdefe": 4844,
      "ĠLa": 4845,
      "Ġshel": 4846,
      "Ġnotice": 4847,
      "osen": 4848,
      "Ġcompound": 4849,
      "tered": 4850,
      "Ġdescription": 4851,
      "Ġcareer": 4852,
      "Ġcorner": 4853,
      "Ġforever": 4854,
      "Ġdiet": 4855,
      "Ġstanding": 4856,
      "ĠTherefore": 4857,
      "ĠIslam": 4858,
      "Ġbeds": 4859,
      "Ġdepth": 4860,
      "Ġgeometric": 4861,
      "Ġscenari": 4862,
      "=\"": 4863,
      "cil": 4864,
      "occ": 4865,
      "Ġpushed": 4866,
      "estern": 4867,
      "alle": 4868,
      "Ġsugar": 4869,
      "ĠFred": 4870,
      "ĠThus": 4871,
      "Ġperhaps": 4872,
      "Ġdecisions": 4873,
      "Ġtele": 4874,
      "Ġthoughts": 4875,
      "fraid": 4876,
      "Ġruns": 4877,
      "Ġapproaches": 4878,
      "Ġwoke": 4879,
      "Ġreceive": 4880,
      "Ġswimming": 4881,
      "Ġdestro": 4882,
      "burst": 4883,
      "ĠAustral": 4884,
      "ĠJournal": 4885,
      "Every": 4886,
      "Since": 4887,
      "Un": 4888,
      "Ġwaves": 4889,
      "aser": 4890,
      "otic": 4891,
      "chron": 4892,
      "ĠHunting": 4893,
      "Ġdeeper": 4894,
      "Ġrise": 4895,
      "Ġkiss": 4896,
      "Ġ27": 4897,
      "Ġloyal": 4898,
      "itect": 4899,
      "Ġnovel": 4900,
      "Ġfindings": 4901,
      "Ġpray": 4902,
      "Ġsett": 4903,
      "Ġchest": 4904,
      "Ġclasses": 4905,
      "Ġsuggested": 4906,
      "Ġpuzz": 4907,
      "Ġopportunity": 4908,
      "æĺ¯": 4909,
      "44": 4910,
      "Just": 4911,
      "from": 4912,
      "Ġwond": 4913,
      "ulate": 4914,
      "Ġsec": 4915,
      "Ġinterview": 4916,
      "Ġadding": 4917,
      "aneous": 4918,
      "Ġswam": 4919,
      "Ġ2005": 4920,
      "Ġhumans": 4921,
      "Ġsuggests": 4922,
      "Ġdaily": 4923,
      "Ġbreath": 4924,
      "Ġimplications": 4925,
      "AL": 4926,
      "hyth": 4927,
      "number": 4928,
      "Ġten": 4929,
      "Ġsitting": 4930,
      "Ġcards": 4931,
      "Ġhit": 4932,
      "ellect": 4933,
      "ulated": 4934,
      "ĠAv": 4935,
      "Ġexec": 4936,
      "ores": 4937,
      "Ġplatform": 4938,
      "Ġ\\[": 4939,
      "Ġunf": 4940,
      "Ġquar": 4941,
      "fty": 4942,
      "ĠOb": 4943,
      "orders": 4944,
      "Ġexpos": 4945,
      "Ġsunny": 4946,
      "Ġdiagn": 4947,
      "Ġwelcome": 4948,
      "ĠCalifornia": 4949,
      "Ġcomprehens": 4950,
      "ares": 4951,
      "nic": 4952,
      "Ċĉĉ": 4953,
      "onic": 4954,
      "ishes": 4955,
      "Ġnone": 4956,
      "Ġisol": 4957,
      "olic": 4958,
      "ĠMPa": 4959,
      "Ġsex": 4960,
      "Ġobtained": 4961,
      "Ġstudied": 4962,
      "Ġswitch": 4963,
      "Ġ2006": 4964,
      "minist": 4965,
      "Ġvirtual": 4966,
      "ĠSociety": 4967,
      "All": 4968,
      "gl": 4969,
      "ipping": 4970,
      "åĩ": 4971,
      "åĪ": 4972,
      "Ġafraid": 4973,
      "rees": 4974,
      "Ġcraw": 4975,
      "Ġnorth": 4976,
      "Ġasks": 4977,
      "usion": 4978,
      "Ġlock": 4979,
      "ears": 4980,
      "Ġremove": 4981,
      "Ġphase": 4982,
      "Ġopin": 4983,
      "values": 4984,
      "Ġinstall": 4985,
      "Ġallowing": 4986,
      "Ġcrack": 4987,
      "Ġcomponents": 4988,
      "Ġveloc": 4989,
      "Ġtouched": 4990,
      "Res": 4991,
      "ael": 4992,
      "eds": 4993,
      "Ġinnov": 4994,
      "Ġlem": 4995,
      "otes": 4996,
      "ception": 4997,
      "Ġvia": 4998,
      "Ġcompl": 4999,
      "ĠPart": 5000,
      "Ġsuit": 5001,
      "Ġunus": 5002,
      "athy": 5003,
      "stron": 5004,
      "Ġlaughing": 5005,
      "Ġcharacteristics": 5006,
      "Ġrelevant": 5007,
      "46": 5008,
      "90": 5009,
      "Error": 5010,
      "Molly": 5011,
      "size": 5012,
      "Ġtone": 5013,
      "iter": 5014,
      "Ġpan": 5015,
      "Ġgather": 5016,
      "idents": 5017,
      "ĠAc": 5018,
      "Ġproport": 5019,
      "ĠBr": 5020,
      "ĠBay": 5021,
      "Ġrough": 5022,
      "ops": 5023,
      "ĠGu": 5024,
      "Ġadop": 5025,
      "Ġcovered": 5026,
      "Ġmoon": 5027,
      "Ġknowing": 5028,
      "Ġrecently": 5029,
      "Ġ60": 5030,
      "Ġdefault": 5031,
      "Ġstronger": 5032,
      "Ġflex": 5033,
      "Ġorganization": 5034,
      "Ġstructures": 5035,
      "Ġdiscussion": 5036,
      "ĠEuropean": 5037,
      "55": 5038,
      "date": 5039,
      "infty": 5040,
      "lege": 5041,
      "igen": 5042,
      "Ġstage": 5043,
      "quad": 5044,
      "Ġshell": 5045,
      "Ġcho": 5046,
      "ĠFlu": 5047,
      "Ġclouds": 5048,
      "Ġappreci": 5049,
      "Ġgets": 5050,
      "Ġcolour": 5051,
      "Ġprice": 5052,
      "ermat": 5053,
      "Ġrefer": 5054,
      "Ġnearly": 5055,
      "Ġanswers": 5056,
      "sych": 5057,
      "Ġdegree": 5058,
      "Ġderiv": 5059,
      "Ġsociety": 5060,
      "è®¡": 5061,
      "Ġimmediately": 5062,
      "Sh": 5063,
      "Time": 5064,
      "UST": 5065,
      "band": 5066,
      "å¤": 5067,
      "Ġbin": 5068,
      "ening": 5069,
      "Ġpen": 5070,
      "stood": 5071,
      "Ġstaff": 5072,
      "odes": 5073,
      "Ġchart": 5074,
      "ĠJune": 5075,
      "Ġoutburst": 5076,
      "Ġcommer": 5077,
      "Ġgenerate": 5078,
      "Ġcontinuous": 5079,
      "Ġinvolves": 5080,
      "Ġdiseases": 5081,
      "Ġnumerous": 5082,
      "67": 5083,
      "DS": 5084,
      "Ġpush": 5085,
      "Ġreference": 5086,
      "cember": 5087,
      "Ġalgebra": 5088,
      "orthern": 5089,
      "agraph": 5090,
      "apers": 5091,
      "Ġinterval": 5092,
      "Ġinterface": 5093,
      "Ġ{\\": 5094,
      "Ġgrav": 5095,
      "Ġprocesses": 5096,
      "Ġplanning": 5097,
      "undred": 5098,
      "Ġcultural": 5099,
      "Ġcorresponding": 5100,
      "ĠGerman": 5101,
      "Ġnaught": 5102,
      "Please": 5103,
      "Some": 5104,
      "bi": 5105,
      "host": 5106,
      "Ġvert": 5107,
      "athered": 5108,
      "Ġcray": 5109,
      "Ġbought": 5110,
      "Ġfiles": 5111,
      "ĠSchool": 5112,
      "Ġstood": 5113,
      "Ġstress": 5114,
      "ifies": 5115,
      "ĠPress": 5116,
      "Ġfeature": 5117,
      "Ġsolid": 5118,
      "arsh": 5119,
      "Ġinsp": 5120,
      "Ġhighest": 5121,
      "Ġdrawing": 5122,
      "Ġerrors": 5123,
      "abetes": 5124,
      "iverse": 5125,
      "ruct": 5126,
      "inos": 5127,
      "Ġsouth": 5128,
      "Ġcivil": 5129,
      "ategy": 5130,
      "operator": 5131,
      "Ġ22": 5132,
      "ĠReg": 5133,
      "anging": 5134,
      "Ġrelation": 5135,
      "Ġkinds": 5136,
      "ĠAlthough": 5137,
      "Ġbush": 5138,
      "Ġinsights": 5139,
      "Ġadvice": 5140,
      "Ġdriving": 5141,
      "Ġprojects": 5142,
      "Ġchallenge": 5143,
      "Ġmeeting": 5144,
      "Ġappears": 5145,
      "Ġsplit": 5146,
      "Ġcommunication": 5147,
      "Ġtrouble": 5148,
      "Ġspirit": 5149,
      "iemannian": 5150,
      "88": 5151,
      "Im": 5152,
      "Write": 5153,
      "parent": 5154,
      "Ġmill": 5155,
      "alk": 5156,
      "Ġoffe": 5157,
      "eta": 5158,
      "ĠAnt": 5159,
      "ĠMa": 5160,
      "Ġprove": 5161,
      "Ġ$(": 5162,
      "Ġimages": 5163,
      "ipment": 5164,
      "Ġolder": 5165,
      "Ġsolar": 5166,
      "Ġgenerated": 5167,
      "roduct": 5168,
      "ĠArt": 5169,
      "Ġrepresentation": 5170,
      "Ġcombination": 5171,
      "argument": 5172,
      "tools": 5173,
      "Ġspotted": 5174,
      "rolled": 5175,
      "Ġobservations": 5176,
      "Ġvegetables": 5177,
      "Ob": 5178,
      "aper": 5179,
      "Ġaw": 5180,
      "Ġpal": 5181,
      "Ġthick": 5182,
      "Ġgiant": 5183,
      "Ġreasons": 5184,
      "Ġshut": 5185,
      "agers": 5186,
      "anged": 5187,
      "Ġstrategy": 5188,
      "phone": 5189,
      "ĠVe": 5190,
      "Ġwaiting": 5191,
      "Ġparagraph": 5192,
      "Ġrequest": 5193,
      "Ġlocated": 5194,
      "ÅĵI": 5195,
      "Ġperformed": 5196,
      "Ġprotection": 5197,
      "Ġresponsible": 5198,
      "hab": 5199,
      "ufact": 5200,
      "Ġ@": 5201,
      "Ġson": 5202,
      "Ġmer": 5203,
      "Ġdictionary": 5204,
      "Ġgal": 5205,
      "Ġult": 5206,
      "amin": 5207,
      "Ġitems": 5208,
      "olar": 5209,
      "ĠHigh": 5210,
      "Ġweb": 5211,
      "ĠCre": 5212,
      "ĠWork": 5213,
      "ĠJava": 5214,
      "ĠJuly": 5215,
      "fection": 5216,
      "Ġcontrast": 5217,
      "Ġembed": 5218,
      "Ġemphas": 5219,
      "Ġexcit": 5220,
      "Ġactual": 5221,
      "Ġacid": 5222,
      "Ġreduced": 5223,
      "inson": 5224,
      "Ġgrew": 5225,
      "Ġspectral": 5226,
      "Ġpolynom": 5227,
      "Ġcounter": 5228,
      "Ġâī": 5229,
      "çĶ¨": 5230,
      "ellectual": 5231,
      "Ġunusual": 5232,
      "Ġnaughty": 5233,
      "41": 5234,
      "66": 5235,
      "IV": 5236,
      "Ġbud": 5237,
      "Ġpatch": 5238,
      "amer": 5239,
      "ĠMama": 5240,
      "ĠMUST": 5241,
      "Ġintellig": 5242,
      "Ġclock": 5243,
      "arks": 5244,
      "Ġstrict": 5245,
      "ocation": 5246,
      "Ġtransm": 5247,
      "Ġ70": 5248,
      "Ġstandards": 5249,
      "Ġcapital": 5250,
      "ĠMuslims": 5251,
      "Ġhistorical": 5252,
      "ĠInstead": 5253,
      "Ġdataset": 5254,
      "59": 5255,
      "Base": 5256,
      "Your": 5257,
      "gency": 5258,
      "nel": 5259,
      "uing": 5260,
      "åľ": 5261,
      "Ġcore": 5262,
      "Ġfaces": 5263,
      "Ġrestr": 5264,
      "Ġsevere": 5265,
      "Ġkin": 5266,
      "Ġcontaining": 5267,
      "atively": 5268,
      "Ġextend": 5269,
      "ometimes": 5270,
      "Hey": 5271,
      "Ġrespectively": 5272,
      "Ġbowl": 5273,
      "Ġatmosphere": 5274,
      "works": 5275,
      "ashington": 5276,
      "allel": 5277,
      "operatorname": 5278,
      "IS": 5279,
      "mid": 5280,
      "oly": 5281,
      "ystem": 5282,
      "ç®": 5283,
      "Ġfine": 5284,
      "Ġtor": 5285,
      "iform": 5286,
      "Ġwearing": 5287,
      "roup": 5288,
      "Ġchosen": 5289,
      "ĠUnder": 5290,
      "Ġsaying": 5291,
      "Ġindeed": 5292,
      "Ġtraffic": 5293,
      "Ġequival": 5294,
      "Ġfinish": 5295,
      "Ġtreated": 5296,
      "ĠAlso": 5297,
      "Ġtechnique": 5298,
      "Ġguide": 5299,
      "Ġschools": 5300,
      "Ġdivided": 5301,
      "Ġfilm": 5302,
      "Ġaffected": 5303,
      "ASA": 5304,
      "Ġconnected": 5305,
      "Ġproposed": 5306,
      "ederal": 5307,
      "Consider": 5308,
      "ĠDepartment": 5309,
      "dfrac": 5310,
      "Ġmath": 5311,
      "Ġlunch": 5312,
      "Ġgigg": 5313,
      "Ġreaction": 5314,
      "Ġiter": 5315,
      "riage": 5316,
      "Ġconvey": 5317,
      "Ġsuff": 5318,
      "Ġrelax": 5319,
      "Ġinterpret": 5320,
      "Ġhighly": 5321,
      "Ġdivide": 5322,
      "Ġmarketing": 5323,
      "Ġprincess": 5324,
      "Ġconcerns": 5325,
      "Ġarchitect": 5326,
      "Ġcircum": 5327,
      ">[{\"": 5328,
      "Ġadvantage": 5329,
      "Ġcitiz": 5330,
      "Ġexcitement": 5331,
      "31": 5332,
      "ey": 5333,
      "uctions": 5334,
      "Ġblow": 5335,
      "Ġded": 5336,
      "Ġhoney": 5337,
      "Ġep": 5338,
      "odies": 5339,
      "Ġchair": 5340,
      "Ġmail": 5341,
      "ĠRed": 5342,
      "Ġunderstood": 5343,
      "crete": 5344,
      "ricult": 5345,
      "Ġconfidence": 5346,
      "ĠComp": 5347,
      "Ġchanging": 5348,
      "Ġdevices": 5349,
      "Ġlaws": 5350,
      "ĠDevelop": 5351,
      "ãĢģ": 5352,
      "Ġaudio": 5353,
      "Ġestimated": 5354,
      "Ġfailure": 5355,
      "aign": 5356,
      "cont": 5357,
      "Ġban": 5358,
      "Ġbacter": 5359,
      "Ġnorm": 5360,
      "ĠTogether": 5361,
      "Ġstone": 5362,
      "Ġyard": 5363,
      "Ġalign": 5364,
      "Ġcong": 5365,
      "ptember": 5366,
      "Ġsmiling": 5367,
      "ĠNASA": 5368,
      "ĠGl": 5369,
      "Ġmanaged": 5370,
      "Ġreson": 5371,
      "Ġmov": 5372,
      "Ġspecified": 5373,
      "^{-": 5374,
      "Ġclassroom": 5375,
      "related": 5376,
      "Ġ$$\\": 5377,
      "ä¸Ģ": 5378,
      "Ġtasted": 5379,
      "Ġcustomers": 5380,
      "Ġaspects": 5381,
      "ĠApril": 5382,
      "urthermore": 5383,
      "dimensional": 5384,
      "OL": 5385,
      "body": 5386,
      "yl": 5387,
      "inical": 5388,
      "att": 5389,
      "Ġeffic": 5390,
      "Ġgathered": 5391,
      "Ġyouth": 5392,
      "rie": 5393,
      "Ġconclusion": 5394,
      "ĠJon": 5395,
      "ossible": 5396,
      "nections": 5397,
      "Ġserve": 5398,
      "Ġexpressed": 5399,
      "Ġvariability": 5400,
      "Ġguid": 5401,
      "Ġlandsc": 5402,
      "Ġorganized": 5403,
      "Ġsites": 5404,
      "Ġmajority": 5405,
      "Ġmissing": 5406,
      "Ġdestroy": 5407,
      "CD": 5408,
      "ml": 5409,
      "rict": 5410,
      "è¯": 5411,
      "Ġteddy": 5412,
      "reamed": 5413,
      "Ġfrag": 5414,
      "Ġpair": 5415,
      "Ġhun": 5416,
      "Ġeight": 5417,
      "Ġexch": 5418,
      "Ġshining": 5419,
      "estic": 5420,
      "Ġjog": 5421,
      "Ġplayers": 5422,
      "Ġcloth": 5423,
      "Ġmob": 5424,
      "Ġwhenever": 5425,
      "cope": 5426,
      "Ġformer": 5427,
      "Ġequipment": 5428,
      "Ġexpans": 5429,
      "Ġcompleted": 5430,
      "Ġpossib": 5431,
      "Ġsinging": 5432,
      ")$.": 5433,
      "Ġofficials": 5434,
      "rupt": 5435,
      "Ġphenomen": 5436,
      "En": 5437,
      "Next": 5438,
      "pack": 5439,
      "hem": 5440,
      "edia": 5441,
      "Ġcm": 5442,
      "oted": 5443,
      "ĠHam": 5444,
      "race": 5445,
      "rael": 5446,
      "Ġwhist": 5447,
      "Ġexcept": 5448,
      "ĠLaw": 5449,
      "Ġsharing": 5450,
      "Ġvit": 5451,
      "assed": 5452,
      "Ġappropri": 5453,
      "Ġlocations": 5454,
      "Ġrestaur": 5455,
      "Ġidentified": 5456,
      "Ġadvanced": 5457,
      "Ġdriver": 5458,
      "ungle": 5459,
      "Ġinvolve": 5460,
      "Ġbirthday": 5461,
      "Ġstraight": 5462,
      "Note": 5463,
      "Okay": 5464,
      "Where": 5465,
      "bow": 5466,
      "å·": 5467,
      "Ġvers": 5468,
      "isc": 5469,
      "Ġnu": 5470,
      "Ġstret": 5471,
      "Ġrates": 5472,
      "Ġleaf": 5473,
      "ĠNot": 5474,
      "Ġcozy": 5475,
      "Ġrope": 5476,
      "Ġuns": 5477,
      "cover": 5478,
      "Ġdefinition": 5479,
      "comes": 5480,
      "Ġpassword": 5481,
      "Ġtechnologies": 5482,
      "ĠRead": 5483,
      "Ġintegral": 5484,
      "Ġpractical": 5485,
      "Ġincred": 5486,
      "Ġrisks": 5487,
      "Ġeffort": 5488,
      "Ġaccurate": 5489,
      "Ġpeaceful": 5490,
      "IP": 5491,
      "RE": 5492,
      "Type": 5493,
      "yd": 5494,
      "Ġcred": 5495,
      "Ġfill": 5496,
      "Ġtour": 5497,
      "Ġlucky": 5498,
      "Ġgun": 5499,
      "igma": 5500,
      "ĠAccording": 5501,
      "rief": 5502,
      "ĠLin": 5503,
      "Ġsend": 5504,
      "ĠData": 5505,
      "Ġjungle": 5506,
      "ichael": 5507,
      "Ġscr": 5508,
      "Ġnose": 5509,
      "strings": 5510,
      "Ġinteractions": 5511,
      "Ġtransition": 5512,
      "Ġ2007": 5513,
      "Ġforeign": 5514,
      "Ġconfused": 5515,
      "Ġpaid": 5516,
      "Ġelectron": 5517,
      "Ġexamine": 5518,
      "Ġrecords": 5519,
      "Ġcombined": 5520,
      "ortunately": 5521,
      "Ġbugs": 5522,
      "Ġabsolute": 5523,
      "Ġannual": 5524,
      "Ġrelatively": 5525,
      "Ġembarr": 5526,
      "ĠDavid": 5527,
      "61": 5528,
      "68": 5529,
      "uations": 5530,
      "yp": 5531,
      "reement": 5532,
      "Ġdied": 5533,
      "icip": 5534,
      "idate": 5535,
      "Ġbell": 5536,
      "ĠMost": 5537,
      "Ġdeal": 5538,
      "Ġshore": 5539,
      "ĠPeter": 5540,
      "Ġ28": 5541,
      "Ġ29": 5542,
      "ĠJake": 5543,
      "ĠEnd": 5544,
      "ĠNO": 5545,
      "Ġusers": 5546,
      "Ġdisorder": 5547,
      "Ġremaining": 5548,
      "Ġgenetic": 5549,
      "Ġattack": 5550,
      "ancer": 5551,
      "Ġsunsh": 5552,
      "cules": 5553,
      "Ġconsidering": 5554,
      "Ġestimate": 5555,
      "leton": 5556,
      "Ġimproved": 5557,
      "Ġtells": 5558,
      "rogen": 5559,
      "ĠĠĠĠĠĠĠĠĠĠĠĠĠĠĠĠ": 5560,
      "Ġrolled": 5561,
      "ĠGovern": 5562,
      "Ġconsequences": 5563,
      "Fig": 5564,
      "Jane": 5565,
      "Over": 5566,
      "Ret": 5567,
      "SA": 5568,
      "ech": 5569,
      "jo": 5570,
      "ses": 5571,
      "win": 5572,
      "Ġ~": 5573,
      "Ġpile": 5574,
      "ingu": 5575,
      "Ġlink": 5576,
      "ulf": 5577,
      "ĠBook": 5578,
      "ĠWest": 5579,
      "ĠWashington": 5580,
      "Ġdoi": 5581,
      "Ġmanufact": 5582,
      "Ġspoon": 5583,
      "reek": 5584,
      "Ġunivers": 5585,
      "Ġcalling": 5586,
      "Ġparticle": 5587,
      "Ġmember": 5588,
      "Ġvehicle": 5589,
      "Ġcreature": 5590,
      "Ġpractices": 5591,
      "Ġclearly": 5592,
      "Ġdiscovery": 5593,
      "ĠIndia": 5594,
      "Ġemotions": 5595,
      "Ġhoped": 5596,
      "Ġmountain": 5597,
      "ĠJanuary": 5598,
      "Ġcommercial": 5599,
      "Ġsunshine": 5600,
      ")$$": 5601,
      "500": 5602,
      "OD": 5603,
      "Rem": 5604,
      "down": 5605,
      "enry": 5606,
      "Ġmiles": 5607,
      "Ġhundred": 5608,
      "Ġwash": 5609,
      "ĠSte": 5610,
      "heric": 5611,
      "ĠPM": 5612,
      "pling": 5613,
      "Ġcoast": 5614,
      "Ġuniverse": 5615,
      "anges": 5616,
      "Ġbackground": 5617,
      "Ġ31": 5618,
      "ictor": 5619,
      "Ġlaunch": 5620,
      "Ġgene": 5621,
      "Ġcrew": 5622,
      "Ġfruits": 5623,
      "}$,": 5624,
      "Ġmetal": 5625,
      "Ġpainting": 5626,
      "Ġfocused": 5627,
      "Ġdivision": 5628,
      "Ġdepends": 5629,
      "Ġanti": 5630,
      "Ġmicros": 5631,
      "Ġtasty": 5632,
      "Ġhypothes": 5633,
      "Ġuncertain": 5634,
      "Ġslightly": 5635,
      "[]": 5636,
      "gal": 5637,
      "medi": 5638,
      "Ġast": 5639,
      "Ġsack": 5640,
      "Ġanx": 5641,
      "ĠJenny": 5642,
      "Ġbutton": 5643,
      "ĠRiver": 5644,
      "aching": 5645,
      "wered": 5646,
      "Ġremained": 5647,
      "Ġmaybe": 5648,
      "Ġdetailed": 5649,
      "Ġreaders": 5650,
      "ĠAnn": 5651,
      "Ġletters": 5652,
      "Ġinstit": 5653,
      "ync": 5654,
      "Ġcircles": 5655,
      "()`": 5656,
      "annel": 5657,
      "Ġoptical": 5658,
      "Tommy": 5659,
      "ĠDecember": 5660,
      "Ġmeasured": 5661,
      "reedom": 5662,
      "ĠFrance": 5663,
      "Ġvolume": 5664,
      "Ġjournal": 5665,
      "ography": 5666,
      "Ġrevised": 5667,
      "Ġrevealed": 5668,
      "ademic": 5669,
      "Ġmentioned": 5670,
      "Ġperspective": 5671,
      "Ġescape": 5672,
      "ĠPresident": 5673,
      "07": 5674,
      "file": 5675,
      "input": 5676,
      "Ġtoward": 5677,
      "Ġhour": 5678,
      "icit": 5679,
      "Ġnp": 5680,
      "imin": 5681,
      "olf": 5682,
      "elines": 5683,
      "ĠHuman": 5684,
      "using": 5685,
      "Ġchick": 5686,
      "ĠJames": 5687,
      "Ġintended": 5688,
      "ĠRel": 5689,
      "ĠNote": 5690,
      "Ġhappens": 5691,
      "Ġemail": 5692,
      "Ġunderlying": 5693,
      "Ġreliable": 5694,
      "Ġcreation": 5695,
      "Ġassign": 5696,
      "Ġpossibility": 5697,
      "Ġangles": 5698,
      "Ġphysics": 5699,
      "Ġclosely": 5700,
      "ĠTechn": 5701,
      "ĠPerhaps": 5702,
      "ĠBritish": 5703,
      "Ġbottle": 5704,
      "Ġwondered": 5705,
      "hythm": 5706,
      "\"},": 5707,
      "')": 5708,
      "63": 5709,
      "lin": 5710,
      "ris": 5711,
      "rangle": 5712,
      "vin": 5713,
      "water": 5714,
      "zed": 5715,
      "Ġahead": 5716,
      "Ġwife": 5717,
      "Ġcart": 5718,
      "Ġtower": 5719,
      "Ġmud": 5720,
      "Ġdanced": 5721,
      "arched": 5722,
      "Ġhous": 5723,
      "ashed": 5724,
      "omal": 5725,
      "Ġgar": 5726,
      "ĠMath": 5727,
      "Ġsharp": 5728,
      "Ġvary": 5729,
      "Ġspend": 5730,
      "Ġtaught": 5731,
      "Ġgenes": 5732,
      "Ġcurve": 5733,
      "ometric": 5734,
      "Ġfoods": 5735,
      "Ġcalm": 5736,
      "gery": 5737,
      "ĠSeptember": 5738,
      "Ġreplace": 5739,
      "Ġpopulations": 5740,
      "Ġpresented": 5741,
      "Ġlogical": 5742,
      "Ġbenefit": 5743,
      "Ġexperienced": 5744,
      "Ġprepared": 5745,
      "ĠGeneral": 5746,
      "See": 5747,
      "gant": 5748,
      "gence": 5749,
      "ln": 5750,
      "Ġing": 5751,
      "Ġtrib": 5752,
      "Ġcoo": 5753,
      "Ġthrew": 5754,
      "Ġeager": 5755,
      "ĠSw": 5756,
      "Ġstock": 5757,
      "oli": 5758,
      "eline": 5759,
      "Ġconnections": 5760,
      "htt": 5761,
      "Ġproof": 5762,
      "oding": 5763,
      "ptic": 5764,
      "Ġjar": 5765,
      "ounds": 5766,
      "Ġwilling": 5767,
      "Ġnoises": 5768,
      "Ġpartners": 5769,
      "Ġcurves": 5770,
      "anches": 5771,
      "Ġmonkey": 5772,
      "Ġpromise": 5773,
      "Ġarguments": 5774,
      "Ġstatus": 5775,
      "Ġdemonstrate": 5776,
      "Ġhappening": 5777,
      "Ġfossil": 5778,
      "Ġoffered": 5779,
      "ED": 5780,
      "IC": 5781,
      "ML": 5782,
      "Te": 5783,
      "\\{": 5784,
      "ios": 5785,
      "mann": 5786,
      "nce": 5787,
      "tes": 5788,
      "İæ": 5789,
      "Ġsang": 5790,
      "eries": 5791,
      "ania": 5792,
      "Ġinequ": 5793,
      "ĠSun": 5794,
      "olved": 5795,
      "ĠArab": 5796,
      "Ġshook": 5797,
      "ĠDan": 5798,
      "Ġintellectual": 5799,
      "agn": 5800,
      "Ġrapid": 5801,
      "Ġphilosoph": 5802,
      "ĠAssoci": 5803,
      "^{\\": 5804,
      "Ġbeauty": 5805,
      "Ġidentity": 5806,
      "Ġdeviation": 5807,
      "Ġthinks": 5808,
      "Ġlabel": 5809,
      "Ġconstruction": 5810,
      "ĠMedic": 5811,
      "Ġwalls": 5812,
      "Ġremoved": 5813,
      "ĠCanada": 5814,
      "Ġsynthetic": 5815,
      "76": 5816,
      "84": 5817,
      "AD": 5818,
      "De": 5819,
      "Me": 5820,
      "house": 5821,
      "max": 5822,
      "uz": 5823,
      "ups": 5824,
      "wide": 5825,
      "ĠâĪ": 5826,
      "Ġbillion": 5827,
      "Ġmad": 5828,
      "Ġinner": 5829,
      "ste": 5830,
      "ĠServ": 5831,
      "ĠAut": 5832,
      "Ġplans": 5833,
      "Ġknock": 5834,
      "___": 5835,
      "Ġblog": 5836,
      "Ġobtain": 5837,
      "Ġexplan": 5838,
      "Ġ400": 5839,
      "Ġrecip": 5840,
      "Ġformal": 5841,
      "Ġcalculated": 5842,
      "Ġladder": 5843,
      "Ġvisitors": 5844,
      "Ġconcepts": 5845,
      "Ġpackage": 5846,
      "('": 5847,
      "03": 5848,
      "Riemannian": 5849,
      "hand": 5850,
      "what": 5851,
      "å®": 5852,
      "Ġtomat": 5853,
      "Ġnull": 5854,
      "ĠSub": 5855,
      "uries": 5856,
      "ĠCour": 5857,
      "abin": 5858,
      "Ġchain": 5859,
      "plot": 5860,
      "Ġsufficient": 5861,
      "Ġmanner": 5862,
      "Ġsched": 5863,
      "irect": 5864,
      "Ġgrant": 5865,
      "Ġfrust": 5866,
      "bruary": 5867,
      "ĠSee": 5868,
      "ĠResp": 5869,
      "ĠIndian": 5870,
      "ĠPlan": 5871,
      "Ġsearching": 5872,
      "Ġtaste": 5873,
      "ĠÂ»": 5874,
      "Ġmolecules": 5875,
      "Ġcampaign": 5876,
      "ffee": 5877,
      "åľ¨": 5878,
      "lab": 5879,
      "node": 5880,
      "pat": 5881,
      "Ġsque": 5882,
      "Ġwidth": 5883,
      "Ġfasc": 5884,
      "Ġdw": 5885,
      "Ġgrown": 5886,
      "ĠToday": 5887,
      "enty": 5888,
      "Ġsearched": 5889,
      "ĠNone": 5890,
      "Ġcoffee": 5891,
      "Ġspider": 5892,
      "Ġspring": 5893,
      "Ġqual": 5894,
      "ĠâĢ¦": 5895,
      "ĠOff": 5896,
      "Ġinteract": 5897,
      "Ġfinite": 5898,
      "Ġpossess": 5899,
      "fficients": 5900,
      "Ġsnail": 5901,
      "Ġcreatures": 5902,
      "Ġinterests": 5903,
      "Ġtalked": 5904,
      "ĠPhil": 5905,
      "Ġdepending": 5906,
      "ointed": 5907,
      "Ġcausing": 5908,
      "Ġconsistent": 5909,
      "Ġgolden": 5910,
      "ĠAugust": 5911,
      "ca": 5912,
      "ratic": 5913,
      "with": 5914,
      "ç§": 5915,
      "ĠÃĹ": 5916,
      "Ġpud": 5917,
      "Ġgift": 5918,
      "iment": 5919,
      "ĠIS": 5920,
      "Ġneck": 5921,
      "istent": 5922,
      "ogue": 5923,
      "Ġspicy": 5924,
      "Ġinteraction": 5925,
      "Ġbranches": 5926,
      "Ġexpensive": 5927,
      "Ġsigns": 5928,
      "Ġdiabetes": 5929,
      "Ġlovely": 5930,
      "ä¸ļ": 5931,
      "Ġsignificance": 5932,
      "Ġradiation": 5933,
      "Ġeconomy": 5934,
      "Ġintroduced": 5935,
      "Ġrequirements": 5936,
      "Ġprecise": 5937,
      "Ġcycle": 5938,
      "Ġbecoming": 5939,
      "Ġrobot": 5940,
      "Ġevaluate": 5941,
      "åĲ¨": 5942,
      "ĠOutput": 5943,
      "Power": 5944,
      "iance": 5945,
      "men": 5946,
      "yer": 5947,
      "Ġtitle": 5948,
      "inant": 5949,
      "Ġfis": 5950,
      "Ġpi": 5951,
      "lement": 5952,
      "ĠSyn": 5953,
      "Ġsaved": 5954,
      "Ġalle": 5955,
      "Ġwhis": 5956,
      "Ġexists": 5957,
      "ĠBer": 5958,
      "ĠBecause": 5959,
      "usie": 5960,
      "ĠFl": 5961,
      "ĠDuring": 5962,
      "Ġknee": 5963,
      "Ġuniform": 5964,
      "Ġapples": 5965,
      "ĠInter": 5966,
      "Ġtwins": 5967,
      "Ġexcess": 5968,
      "Ġminim": 5969,
      "Ġdrin": 5970,
      "properties": 5971,
      "Ġimplemented": 5972,
      "Ġcolleag": 5973,
      "ĠCollege": 5974,
      "ĠQuest": 5975,
      "Ġconducted": 5976,
      "ĠMiller": 5977,
      "09": 5978,
      "Later": 5979,
      "OK": 5980,
      "Ph": 5981,
      "fit": 5982,
      "ias": 5983,
      "width": 5984,
      "èĢ": 5985,
      "ĠÃ": 5986,
      "inity": 5987,
      "Ġsen": 5988,
      "Ġsight": 5989,
      "Ġwand": 5990,
      "Ġpir": 5991,
      "Ġpun": 5992,
      "Ġgently": 5993,
      "olt": 5994,
      "ĠMount": 5995,
      "Ġsoil": 5996,
      "Ġsho": 5997,
      "Ġseat": 5998,
      "ittee": 5999,
      "Ġoutcomes": 6000,
      "Ġjew": 6001,
      "icted": 6002,
      "ĠKore": 6003,
      "Ġswings": 6004,
      "Ġclever": 6005,
      "Ġspecifically": 6006,
      "Ġbreast": 6007,
      "Ġstatistical": 6008,
      "Ġsummary": 6009,
      "++": 6010,
      "Come": 6011,
      "Good": 6012,
      "II": 6013,
      "Mum": 6014,
      "ban": 6015,
      "bles": 6016,
      "count": 6017,
      "Ġtag": 6018,
      "Ġcute": 6019,
      "Ġpsych": 6020,
      "Ġmaster": 6021,
      "icro": 6022,
      "ida": 6023,
      "umin": 6024,
      "umer": 6025,
      "antic": 6026,
      "ĠCO": 6027,
      "ĠCat": 6028,
      "ĠBrown": 6029,
      "Ġru": 6030,
      "ĠFig": 6031,
      "Ġliqu": 6032,
      "ĠThom": 6033,
      "Ġcommand": 6034,
      "Ġconservation": 6035,
      "pring": 6036,
      "Ġdifferential": 6037,
      "Ġ2003": 6038,
      "Ġvision": 6039,
      "Ġinfinite": 6040,
      "Ġfilter": 6041,
      "Ġproteins": 6042,
      "Ġmystery": 6043,
      "Ġmutation": 6044,
      "Ġvictim": 6045,
      "Ġreligious": 6046,
      "ĠHistory": 6047,
      "Ġcomprehensive": 6048,
      "Ġembarrassed": 6049,
      "95": 6050,
      "Cont": 6051,
      "SD": 6052,
      "ĠOnce": 6053,
      "Ġfig": 6054,
      "Ġfract": 6055,
      "anes": 6056,
      "Ġdie": 6057,
      "ico": 6058,
      "ĠTV": 6059,
      "ĠSan": 6060,
      "Ġstir": 6061,
      "Ġash": 6062,
      "âĢ²": 6063,
      "Ġplate": 6064,
      "Ġshr": 6065,
      "Ġprem": 6066,
      "pected": 6067,
      "Ġparallel": 6068,
      "Ġanswered": 6069,
      "Ġphysic": 6070,
      "Ġrainbow": 6071,
      "Ġindicates": 6072,
      "Ġphoto": 6073,
      "Ġteachers": 6074,
      "Ġabsor": 6075,
      "ĠGeorge": 6076,
      "________________________________": 6077,
      "Ġconsumption": 6078,
      "Ġprepare": 6079,
      "Ġphrase": 6080,
      "Ġresistance": 6081,
      "Ġsustainable": 6082,
      "Ġthousands": 6083,
      "Ġsecure": 6084,
      "Based": 6085,
      "Data": 6086,
      "Le": 6087,
      "bach": 6088,
      "gle": 6089,
      "æĸ": 6090,
      "Ġiron": 6091,
      "eros": 6092,
      "atur": 6093,
      "Ġber": 6094,
      "Ġbinary": 6095,
      "Ġasleep": 6096,
      "oret": 6097,
      "ĠCoun": 6098,
      "Ġvent": 6099,
      "ĠFlor": 6100,
      "index": 6101,
      "ĠGa": 6102,
      "sole": 6103,
      "Ġtruly": 6104,
      "ector": 6105,
      "herent": 6106,
      "ĠOver": 6107,
      "Ġ500": 6108,
      "Ġmodul": 6109,
      "Ġsurvey": 6110,
      "Ġfeelings": 6111,
      "Ġgray": 6112,
      "Ġreducing": 6113,
      "Ġtopics": 6114,
      "ĠProgram": 6115,
      "Ġminimum": 6116,
      "Ġbelieved": 6117,
      "Ġ80": 6118,
      "ĠIsland": 6119,
      "ĠQPO": 6120,
      "score": 6121,
      "Ġmeasurements": 6122,
      "Ġeducational": 6123,
      "Ġclaims": 6124,
      "Ġsoup": 6125,
      "Ġsongs": 6126,
      "Ġquantum": 6127,
      "Ġscores": 6128,
      "ĠGrandma": 6129,
      "Ġcoefficients": 6130,
      "Ġpuzzle": 6131,
      "Ġexposure": 6132,
      ")}": 6133,
      "SE": 6134,
      "ih": 6135,
      "pass": 6136,
      "sBase": 6137,
      "vision": 6138,
      "ĠÏ": 6139,
      "Ġtick": 6140,
      "Ġfence": 6141,
      "Ġmummy": 6142,
      "Ġdra": 6143,
      "Ġdensity": 6144,
      "icated": 6145,
      "ĠSur": 6146,
      "ĠCle": 6147,
      "ĠForm": 6148,
      "ĠFermat": 6149,
      "Ġmoves": 6150,
      "enses": 6151,
      "ictions": 6152,
      "Ġmodes": 6153,
      "Ġtrial": 6154,
      "Ġexposed": 6155,
      "Ġpersons": 6156,
      "Ġ2000": 6157,
      "gypt": 6158,
      "ĠProv": 6159,
      "ovember": 6160,
      "Ġhyper": 6161,
      "Ġcraft": 6162,
      "ĠCommun": 6163,
      "Ġselected": 6164,
      "Ġdouble": 6165,
      "Trans": 6166,
      "Ġelectrons": 6167,
      "ĠFluffy": 6168,
      "Ġgalax": 6169,
      "Joe": 6170,
      "bled": 6171,
      "gin": 6172,
      "gly": 6173,
      "mu": 6174,
      "Ġpill": 6175,
      "Ġhar": 6176,
      "result": 6177,
      "Ġarrow": 6178,
      "ĠOf": 6179,
      "ĠStat": 6180,
      "Ġsubt": 6181,
      "Ġballs": 6182,
      "Ġ75": 6183,
      "Ġminute": 6184,
      "Ġmarine": 6185,
      "ĠIsrael": 6186,
      "Ġbedroom": 6187,
      "Ġfishing": 6188,
      "Ġreports": 6189,
      "stitution": 6190,
      "ographic": 6191,
      "Ġtightly": 6192,
      "Ġlatest": 6193,
      "ĠPeople": 6194,
      "ĠOctober": 6195,
      "Ġprinciples": 6196,
      "Ġlandscape": 6197,
      "\");": 6198,
      "83": 6199,
      "Def": 6200,
      "TH": 6201,
      "depend": 6202,
      "iber": 6203,
      "no": 6204,
      "py": 6205,
      "press": 6206,
      "public": 6207,
      "Ġ__": 6208,
      "Ġwra": 6209,
      "Ġcities": 6210,
      "Ġborn": 6211,
      "Ġfem": 6212,
      "Ġthr": 6213,
      "Ġnor": 6214,
      "Ġnerv": 6215,
      "Ġglow": 6216,
      "enth": 6217,
      "ading": 6218,
      "amb": 6219,
      "Ġstack": 6220,
      "Ġstable": 6221,
      "ĠBell": 6222,
      "Ġshy": 6223,
      "ĠJen": 6224,
      "ĠRoman": 6225,
      "Ġclarity": 6226,
      "Ġadminist": 6227,
      "Ġscatter": 6228,
      "ildren": 6229,
      "Ġcommit": 6230,
      "ĠVictor": 6231,
      "Ġflaw": 6232,
      "Ġbrush": 6233,
      "Ġtransl": 6234,
      "nergy": 6235,
      "Ġforecast": 6236,
      "Ġrecorded": 6237,
      "Ġdiscussed": 6238,
      "ĠAtl": 6239,
      "Ġimpacts": 6240,
      "cosystem": 6241,
      "ĠMaria": 6242,
      "going": 6243,
      "Ġnuclear": 6244,
      "58": 6245,
      "71": 6246,
      "CC": 6247,
      "sigma": 6248,
      "zard": 6249,
      "Ġwinter": 6250,
      "Ġcamer": 6251,
      "itors": 6252,
      "Ġpra": 6253,
      "Ġeth": 6254,
      "ĠSing": 6255,
      "Ġweap": 6256,
      "Ġexternal": 6257,
      "ĠCur": 6258,
      "Ġnotes": 6259,
      "Ġoutcome": 6260,
      "Ġhello": 6261,
      "Ġboys": 6262,
      "Ġcompare": 6263,
      "Ġprefer": 6264,
      "ocument": 6265,
      "Ġdespite": 6266,
      "$$\\": 6267,
      "ĠPropos": 6268,
      "Ġopening": 6269,
      "String": 6270,
      "Ġjobs": 6271,
      "Ġlegis": 6272,
      "Ġholds": 6273,
      "porary": 6274,
      "Ġreleased": 6275,
      "Ġrevolution": 6276,
      "Ġconcerned": 6277,
      "ä½ľ": 6278,
      "Ġutil": 6279,
      "Ġblew": 6280,
      "Ġenhance": 6281,
      "Ġbehaviour": 6282,
      "Ġbudget": 6283,
      "Ġefficiency": 6284,
      "Ġexpansion": 6285,
      "Ġnervous": 6286,
      "$-": 6287,
      ",\\": 6288,
      "Using": 6289,
      "ham": 6290,
      "then": 6291,
      "taining": 6292,
      "world": 6293,
      "Ġastron": 6294,
      "Ġtherapy": 6295,
      "Ġpages": 6296,
      "orous": 6297,
      "elp": 6298,
      "Ġwealth": 6299,
      "ĠCome": 6300,
      "Ġconvert": 6301,
      "Ġkitten": 6302,
      "ĠEast": 6303,
      "Ġlose": 6304,
      "Ġotherwise": 6305,
      "exas": 6306,
      "ucation": 6307,
      "Ġsettle": 6308,
      "Ġcurv": 6309,
      "Ġgravel": 6310,
      "encing": 6311,
      "Ġacademic": 6312,
      "Ġexpon": 6313,
      "Ġ2004": 6314,
      "server": 6315,
      "roduction": 6316,
      "Ġjumping": 6317,
      "Ġrepresented": 6318,
      "Ġachieved": 6319,
      "Ġauthorities": 6320,
      "Ġmixed": 6321,
      "Ġwidely": 6322,
      "ĠIII": 6323,
      "Ġestimates": 6324,
      "Ġfighting": 6325,
      "Ġassistant": 6326,
      "Ġterri": 6327,
      "Ġphrases": 6328,
      "Lastly": 6329,
      "Ġconversation": 6330,
      "bigc": 6331,
      "Given": 6332,
      "cious": 6333,
      "}+": 6334,
      "Ġtiss": 6335,
      "Ġsne": 6336,
      "Ġbodies": 6337,
      "isor": 6338,
      "Ġpump": 6339,
      "anut": 6340,
      "Ġhus": 6341,
      "Ġearn": 6342,
      "ĠMake": 6343,
      "illiant": 6344,
      "Ġvacc": 6345,
      "ĠPete": 6346,
      "ĠEgypt": 6347,
      "Ġimpl": 6348,
      "ĠGreen": 6349,
      "Ġsports": 6350,
      "covery": 6351,
      "ventually": 6352,
      "Ġserved": 6353,
      "Ġpolic": 6354,
      "ĠEverywhere": 6355,
      "Ġextract": 6356,
      "Ġplanets": 6357,
      "Ġconfident": 6358,
      "Ġcreates": 6359,
      "Ġprogramming": 6360,
      "Ġradio": 6361,
      "Ġstatistics": 6362,
      "Ġlayers": 6363,
      "Ġdelicate": 6364,
      "ManifoldsBase": 6365,
      "Sarah": 6366,
      "Ġdegrees": 6367,
      "Ġcomposite": 6368,
      "Ġstruggle": 6369,
      "\"}},": 6370,
      "Ġframework": 6371,
      "ĠParkinson": 6372,
      "ĠMudejar": 6373,
      "Ġqueue": 6374,
      "occur": 6375,
      "42": 6376,
      "56": 6377,
      "98": 6378,
      "Best": 6379,
      "Int": 6380,
      "dent": 6381,
      "gamma": 6382,
      "iations": 6383,
      "iology": 6384,
      "ok": 6385,
      "path": 6386,
      "ss": 6387,
      "under": 6388,
      "init": 6389,
      "erve": 6390,
      "Ġped": 6391,
      "Ġhero": 6392,
      "uting": 6393,
      "Ġugly": 6394,
      "ĠAPI": 6395,
      "Ġwhom": 6396,
      "ĠCap": 6397,
      "ĠCount": 6398,
      "Ġpros": 6399,
      "ĠLear": 6400,
      "ĠFin": 6401,
      "ĠFind": 6402,
      "Ġmeadow": 6403,
      "claim": 6404,
      "Ġteeth": 6405,
      "Ġwhereas": 6406,
      "Ġformation": 6407,
      "âĢĿ,": 6408,
      "riting": 6409,
      "inese": 6410,
      "Ġoccup": 6411,
      "scill": 6412,
      "ĠExample": 6413,
      "Ġlateral": 6414,
      "Ġprecip": 6415,
      "boxed": 6416,
      "Ġliquid": 6417,
      "Figure": 6418,
      "Use": 6419,
      "fun": 6420,
      "iest": 6421,
      "mas": 6422,
      "pet": 6423,
      "Ġsamples": 6424,
      "isa": 6425,
      "anz": 6426,
      "Ġgate": 6427,
      "Ġstor": 6428,
      "section": 6429,
      "Ġforced": 6430,
      "uses": 6431,
      "ĠDist": 6432,
      "Ġclay": 6433,
      "Ġnewsp": 6434,
      "ressive": 6435,
      "Ġcompact": 6436,
      "Ġflood": 6437,
      "Ġregist": 6438,
      "prime": 6439,
      "Ġimpossible": 6440,
      "Ġsubm": 6441,
      "}},\"": 6442,
      "Ġarticles": 6443,
      "Ġguard": 6444,
      "append": 6445,
      "ä¸ª": 6446,
      "Ġsuggestions": 6447,
      "ĠTrue": 6448,
      "Ġbattle": 6449,
      "Ġcelebrate": 6450,
      "Ġdroughts": 6451,
      "ĠFebruary": 6452,
      "ĠCharles": 6453,
      "ocolate": 6454,
      "Ġdrugs": 6455,
      "Ġaccompl": 6456,
      "Ġappropriate": 6457,
      "Ġhypothesis": 6458,
      "IG": 6459,
      "pon": 6460,
      "uate": 6461,
      "},\"": 6462,
      "ÃŃ": 6463,
      "çŃ": 6464,
      "Ġpapers": 6465,
      "leq": 6466,
      "Ġeld": 6467,
      "ilit": 6468,
      "Ġreact": 6469,
      "igr": 6470,
      "iger": 6471,
      "Ġstated": 6472,
      "Ġsailed": 6473,
      "Ġ(-": 6474,
      "Ġcompute": 6475,
      "Ġtwist": 6476,
      "\":[\"": 6477,
      "Ġregression": 6478,
      "Ġbrilliant": 6479,
      "Ġglass": 6480,
      "queue": 6481,
      "Ġorganizations": 6482,
      "Ġtreats": 6483,
      "Ġsupported": 6484,
      "lov": 6485,
      "Ġadvance": 6486,
      "force": 6487,
      "Ġanalyt": 6488,
      "Ġanalyze": 6489,
      "Ġdisappeared": 6490,
      "ĠMudejars": 6491,
      "æķ°åŃ¦": 6492,
      "Ġequivalent": 6493,
      "Ġcitizens": 6494,
      "52": 6495,
      "Are": 6496,
      "TE": 6497,
      "cor": 6498,
      "range": 6499,
      "var": 6500,
      "Ġ%": 6501,
      "Ġsell": 6502,
      "Ġcrow": 6503,
      "Ġpp": 6504,
      "orne": 6505,
      "Ġdirt": 6506,
      "ĠHar": 6507,
      "ĠAM": 6508,
      "ĠMarch": 6509,
      "ĠMethod": 6510,
      "ushing": 6511,
      "Ġkilled": 6512,
      "Ġchose": 6513,
      "ĠFound": 6514,
      "Ġplayground": 6515,
      "ĠRay": 6516,
      "Ġ${\\": 6517,
      "ĠIts": 6518,
      "Ġfeather": 6519,
      "Ġdisorders": 6520,
      "fully": 6521,
      "Ġexploration": 6522,
      "Ġtested": 6523,
      "Ġtrends": 6524,
      "Ġcats": 6525,
      "Ġdeliver": 6526,
      "Ġzoom": 6527,
      "Ġmembr": 6528,
      "oxide": 6529,
      "Ġsnack": 6530,
      "Ġpromot": 6531,
      "Ġcommonly": 6532,
      "Ġtemperatures": 6533,
      "Ġcapacity": 6534,
      "Ġresponses": 6535,
      "Ġregarding": 6536,
      "ĠAfrica": 6537,
      "Ġemissions": 6538,
      "Ġnavigate": 6539,
      "Jimmy": 6540,
      "New": 6541,
      "ien": 6542,
      "lock": 6543,
      "nes": 6544,
      "Ġtension": 6545,
      "Ġswe": 6546,
      "Ġwest": 6547,
      "Ġcow": 6548,
      "Ġfederal": 6549,
      "Ġfreedom": 6550,
      "Ġhiding": 6551,
      "etime": 6552,
      "Ġfort": 6553,
      "ĠMc": 6554,
      "ĠBo": 6555,
      "ĠLord": 6556,
      "oses": 6557,
      "Ġ\\{": 6558,
      "ptions": 6559,
      "Ġagreement": 6560,
      "Ġamb": 6561,
      "Ġinternal": 6562,
      "ĠWeb": 6563,
      "Ġhopping": 6564,
      "Ġminor": 6565,
      "Ġkeeping": 6566,
      "ĠSammy": 6567,
      "Ġobjective": 6568,
      "Ġselfish": 6569,
      "required": 6570,
      "Ġannoun": 6571,
      "Ġordered": 6572,
      "\"]}}": 6573,
      "ĠSmith": 6574,
      "Ġsubstant": 6575,
      "Ġmirror": 6576,
      "åĩł": 6577,
      "Ġvelocity": 6578,
      "inosaur": 6579,
      "Ġstrictly": 6580,
      "ĠAssociation": 6581,
      "06": 6582,
      "Mia": 6583,
      "Se": 6584,
      "dri": 6585,
      "rics": 6586,
      "tan": 6587,
      "é»": 6588,
      "orial": 6589,
      "orical": 6590,
      "ano": 6591,
      "ĠTweet": 6592,
      "Ġreverse": 6593,
      "ĠSet": 6594,
      "ĠSometimes": 6595,
      "ado": 6596,
      "ighed": 6597,
      "celer": 6598,
      "Ġstem": 6599,
      "Ġstraw": 6600,
      "semb": 6601,
      "Ġorg": 6602,
      "Ġring": 6603,
      "ĠPa": 6604,
      "Ġdoors": 6605,
      "Ġroots": 6606,
      "Ġarrest": 6607,
      "Ġagg": 6608,
      "apa": 6609,
      "ighter": 6610,
      "ĠChinese": 6611,
      "pute": 6612,
      "Ġdistant": 6613,
      "Ġexplored": 6614,
      "Ġproperly": 6615,
      "error": 6616,
      "Ġpotentially": 6617,
      "Ġrising": 6618,
      "Ġnegot": 6619,
      "Ġemergency": 6620,
      "ä½ķ": 6621,
      "Ġlinked": 6622,
      "Ġliterature": 6623,
      "Ġextremely": 6624,
      "Ġaccidentally": 6625,
      "Ġlemon": 6626,
      "Ġchoices": 6627,
      "ĠCreate": 6628,
      "Ġrestaurant": 6629,
      "['": 6630,
      "Ľ¼": 6631,
      "Ġapart": 6632,
      "Ġfraction": 6633,
      "Ġfancy": 6634,
      "Ġpin": 6635,
      "Ġlies": 6636,
      "omic": 6637,
      "iders": 6638,
      "ĠTheory": 6639,
      "ria": 6640,
      "ĠCity": 6641,
      "Ġcomment": 6642,
      ".\",\"": 6643,
      ".\"}},\"": 6644,
      "Ġcoal": 6645,
      "ulti": 6646,
      "Ġraised": 6647,
      "Ġobvious": 6648,
      "Ġboxes": 6649,
      "Ġsandw": 6650,
      "Ġfocusing": 6651,
      "Ġviews": 6652,
      "Ġfaith": 6653,
      "Ġdocuments": 6654,
      "Ġpreviously": 6655,
      "Ġchallenging": 6656,
      "iveness": 6657,
      "Ġteaching": 6658,
      "Ġparticipants": 6659,
      "Ġhonest": 6660,
      "ĠMathemat": 6661,
      "Ġupdated": 6662,
      "Ġlinks": 6663,
      "Ġhabitat": 6664,
      "Ġpolynomial": 6665,
      "İæĽ¼": 6666,
      "åĩłä½ķ": 6667,
      "é»İæĽ¼": 6668,
      "53": 6669,
      "72": 6670,
      "Sp": 6671,
      "Well": 6672,
      "pers": 6673,
      "}}{": 6674,
      "ĠÂł": 6675,
      "hell": 6676,
      "ona": 6677,
      "onal": 6678,
      "atically": 6679,
      "ĠTest": 6680,
      "ĠSer": 6681,
      "Ġstuff": 6682,
      "ĠID": 6683,
      "ĠHenry": 6684,
      "ĠAR": 6685,
      "ĠMATLAB": 6686,
      "Ġrational": 6687,
      "Ġvoid": 6688,
      "ĠPD": 6689,
      "ĠWol": 6690,
      "Ġ26": 6691,
      "ferent": 6692,
      "Ġmoments": 6693,
      "Ġspeech": 6694,
      "Ġdecide": 6695,
      "Ġexplicit": 6696,
      "Ġdesk": 6697,
      "Ġadds": 6698,
      "Ġbridge": 6699,
      "Ġgenerous": 6700,
      "Ġ2002": 6701,
      "Ġvisited": 6702,
      "Ġdelay": 6703,
      "Ġleader": 6704,
      "ĠJohnny": 6705,
      "Ġjoint": 6706,
      "return": 6707,
      "Ġantib": 6708,
      "Ġsensitive": 6709,
      "Ġsecrets": 6710,
      "Ġwildlife": 6711,
      "Ġincreasingly": 6712,
      "ĠRussia": 6713,
      "Ġhusband": 6714,
      "é»İæĽ¼åĩłä½ķ": 6715,
      "Cap": 6716,
      "]{": 6717,
      "hol": 6718,
      "}\")": 6719,
      "ini": 6720,
      "onometry": 6721,
      "Ġoct": 6722,
      "Ġbull": 6723,
      "Ġtom": 6724,
      "organ": 6725,
      "Ġinsect": 6726,
      "icing": 6727,
      "Ġgym": 6728,
      "Ġreward": 6729,
      "ĠMum": 6730,
      "Ġconqu": 6731,
      "ĠLittle": 6732,
      "Ġvan": 6733,
      "Ġsuc": 6734,
      "ĠDet": 6735,
      "Ġabstract": 6736,
      "Ġusage": 6737,
      "Ġscene": 6738,
      "Ġstarts": 6739,
      "Ġdecades": 6740,
      "Ġflash": 6741,
      "standing": 6742,
      "rightarrow": 6743,
      "Ġleads": 6744,
      "Ġvectors": 6745,
      "Ġprobable": 6746,
      "Ġstudying": 6747,
      "Ġ2020": 6748,
      "Ġpicnic": 6749,
      "Ġmarriage": 6750,
      "Ġlimits": 6751,
      "Ġbegins": 6752,
      "Ġbatter": 6753,
      "Ġprofession": 6754,
      "Ġexperiments": 6755,
      "Ġfailed": 6756,
      "ĠMrs": 6757,
      "Ġelectricity": 6758,
      "Ġoptional": 6759,
      "frame": 6760,
      "Ġopposite": 6761,
      "chronous": 6762,
      "å·¥": 6763,
      "çŃī": 6764,
      "Delta": 6765,
      "MA": 6766,
      "PS": 6767,
      "RO": 6768,
      "Zbl": 6769,
      "bal": 6770,
      "hors": 6771,
      "mark": 6772,
      "non": 6773,
      "rey": 6774,
      "Ġfab": 6775,
      "Ġpil": 6776,
      "Ġmild": 6777,
      "aled": 6778,
      "Ġdancing": 6779,
      "Ġlen": 6780,
      "icial": 6781,
      "ĠTexas": 6782,
      "roc": 6783,
      "oto": 6784,
      "Ġdeck": 6785,
      "ĠLou": 6786,
      "Ġcomplic": 6787,
      "osh": 6788,
      "ĠJim": 6789,
      "Ġenzy": 6790,
      "acing": 6791,
      "activ": 6792,
      "Ġadhere": 6793,
      "Ġresource": 6794,
      "__(": 6795,
      "Ġserver": 6796,
      "ĠUnion": 6797,
      "Ġmonit": 6798,
      "hips": 6799,
      "Ġguess": 6800,
      "Ġpromote": 6801,
      "ĠSpace": 6802,
      "Ġdrum": 6803,
      "Ġsituations": 6804,
      "Ġlanguages": 6805,
      "Ġyelled": 6806,
      "Ġexistence": 6807,
      "clusive": 6808,
      "Ġsparkly": 6809,
      "Ġsmelled": 6810,
      "Ġexcell": 6811,
      "Ġdecrease": 6812,
      "Ġcurvature": 6813,
      "Ġstorage": 6814,
      "Mama": 6815,
      "SP": 6816,
      "Sub": 6817,
      "fig": 6818,
      "fill": 6819,
      "iated": 6820,
      "pg": 6821,
      "pen": 6822,
      "ront": 6823,
      "å°": 6824,
      "æĪ": 6825,
      "Ġtank": 6826,
      "Ġmarch": 6827,
      "Ġinfect": 6828,
      "Ġghost": 6829,
      "ĠTwe": 6830,
      "olving": 6831,
      "ĠTheorem": 6832,
      "rack": 6833,
      "ĠAN": 6834,
      "Ġdefect": 6835,
      "Ġchocolate": 6836,
      "ĠFigure": 6837,
      "Ġintent": 6838,
      "ĠThank": 6839,
      "berry": 6840,
      "ĠVol": 6841,
      "Ġjustice": 6842,
      "ĠStep": 6843,
      "Ġacceler": 6844,
      "_{\\": 6845,
      "Ġsubsequ": 6846,
      "Ġresulted": 6847,
      "ĠAng": 6848,
      "Ġhugs": 6849,
      "Ġsignal": 6850,
      "}}\\": 6851,
      "Ġdogs": 6852,
      "Ġfactory": 6853,
      "Ġperforming": 6854,
      "Ġbuildings": 6855,
      "Ġbench": 6856,
      "Ġwaters": 6857,
      "Ġoccurred": 6858,
      "Ġnecessarily": 6859,
      "Example": 6860,
      "Ġindicate": 6861,
      "Ġofficial": 6862,
      "ĠMedical": 6863,
      "Ġdomain": 6864,
      "Ġaccepted": 6865,
      "Ġcommunicate": 6866,
      "Ġrobust": 6867,
      "ĠAlexander": 6868,
      "Ġrepeated": 6869,
      "Ġcrayons": 6870,
      "Ġbacteria": 6871,
      "Ġincredible": 6872,
      "Ġhouses": 6873,
      "Ġjewel": 6874,
      "bachia": 6875,
      "ĠCouncil": 6876,
      "Ġsucceed": 6877,
      "57": 6878,
      "82": 6879,
      "='": 6880,
      "CA": 6881,
      "Lila": 6882,
      "Post": 6883,
      "Sim": 6884,
      "cip": 6885,
      "top": 6886,
      "éĹ": 6887,
      "inf": 6888,
      "inations": 6889,
      "rep": 6890,
      "Ġfest": 6891,
      "Ġtow": 6892,
      "Ġpizz": 6893,
      "asis": 6894,
      "icking": 6895,
      "Ġnode": 6896,
      "oline": 6897,
      "ĠMag": 6898,
      "tering": 6899,
      "Ġdeer": 6900,
      "Ġsem": 6901,
      "Ġseven": 6902,
      "Ġkill": 6903,
      "Ġspray": 6904,
      "Ġroyal": 6905,
      "Ġpole": 6906,
      "Ġ300": 6907,
      "Ġfunctional": 6908,
      "Ġprison": 6909,
      "?\".": 6910,
      "$$,": 6911,
      "Ġextent": 6912,
      "Ġtechnical": 6913,
      "Soon": 6914,
      "Ġpurs": 6915,
      "Ġpicking": 6916,
      "Ġmotion": 6917,
      "Ġjoined": 6918,
      "Ġintroduction": 6919,
      "Ġreasoning": 6920,
      "Ġcustomer": 6921,
      "ĠEnvironment": 6922,
      "Ġfamiliar": 6923,
      "Ġdiagram": 6924,
      "Ġcapture": 6925,
      "ĠAdditionally": 6926,
      "Ġprinciple": 6927,
      "Ġcolourful": 6928,
      "08": 6929,
      "81": 6930,
      "UR": 6931,
      "hus": 6932,
      "iate": 6933,
      "})": 6934,
      "Ġtens": 6935,
      "Ġsorts": 6936,
      "Ġsession": 6937,
      "Ġce": 6938,
      "Ġcater": 6939,
      "Ġtough": 6940,
      "Ġpit": 6941,
      "Ġmel": 6942,
      "Ġmort": 6943,
      "Ġham": 6944,
      "Ġrelease": 6945,
      "ĠMET": 6946,
      "abil": 6947,
      "ĠNor": 6948,
      "Ġagricult": 6949,
      "Ġprepar": 6950,
      "Ġpeanut": 6951,
      "Ġseeing": 6952,
      "Ġfoundation": 6953,
      "Ġcolon": 6954,
      "Ġdesired": 6955,
      "Ġconsists": 6956,
      "Ġskirt": 6957,
      "âĢĿ.": 6958,
      "Ġimpressed": 6959,
      "Ġtransformation": 6960,
      "Ġobserve": 6961,
      "Ġprimarily": 6962,
      "Ġcollected": 6963,
      "Ġcompetition": 6964,
      "xygen": 6965,
      "Ġkidney": 6966,
      "Ġflexible": 6967,
      "Ġderivative": 6968,
      "ĠMedicine": 6969,
      "ĠCourt": 6970,
      "Ġtomorrow": 6971,
      ")-": 6972,
      "Name": 6973,
      "gment": 6974,
      "mm": 6975,
      "Ġtid": 6976,
      "Ġap": 6977,
      "Ġwake": 6978,
      "Ġmur": 6979,
      "Ġholid": 6980,
      "Ġinhab": 6981,
      "Ġlying": 6982,
      "omb": 6983,
      "ĠSal": 6984,
      "ĠCong": 6985,
      "Ġshirt": 6986,
      "Ġchoo": 6987,
      "ĠNovember": 6988,
      "Ġcontem": 6989,
      "Ġdiss": 6990,
      "Ġoverl": 6991,
      "lli": 6992,
      "ĊĠĠĠĠĠ": 6993,
      "struct": 6994,
      "Ġhandling": 6995,
      "Ġlists": 6996,
      "ternatively": 6997,
      "Ġcheese": 6998,
      "Ġpolite": 6999,
      "ĠReview": 7000,
      "theta": 7001,
      "position": 7002,
      ")$,": 7003,
      "Ġoperator": 7004,
      "Ġsmoke": 7005,
      "Therefore": 7006,
      "ĠConsuls": 7007,
      "Ġemployees": 7008,
      "Ġauthority": 7009,
      "Ġprofessor": 7010,
      "Ġfluid": 7011,
      "Ġcouch": 7012,
      "Ġmechanism": 7013,
      "Ġinstruments": 7014,
      "Connection": 7015,
      "Ġaccuracy": 7016,
      "MEM": 7017,
      "Ġviolence": 7018,
      "Ġexpertise": 7019,
      "Ġsoldiers": 7020,
      "Ġopinion": 7021,
      "ĠGovernment": 7022,
      "lovak": 7023,
      "ĠWolbachia": 7024,
      "Des": 7025,
      "fess": 7026,
      "ĊĊĠĠĠĠĠĠĠ": 7027,
      "Ġsam": 7028,
      "Ġoscill": 7029,
      "Ġbill": 7030,
      "alination": 7031,
      "Ġinverse": 7032,
      "Ġnative": 7033,
      "ayer": 7034,
      "Ġreef": 7035,
      "Ġbears": 7036,
      "raged": 7037,
      "ractions": 7038,
      "uler": 7039,
      "oogle": 7040,
      "ĠCivil": 7041,
      "Ġconve": 7042,
      "ĠLab": 7043,
      "Ġvir": 7044,
      "ĠEqu": 7045,
      "ĠDec": 7046,
      "Ġroof": 7047,
      "ĠKh": 7048,
      "Ġprince": 7049,
      "Ġputs": 7050,
      "Ġcheer": 7051,
      "Ġattend": 7052,
      "Ġattached": 7053,
      "Ġ2001": 7054,
      "Ġ65": 7055,
      "Ġdefinite": 7056,
      "Ġfurry": 7057,
      "Ġphotos": 7058,
      "Ġdenote": 7059,
      "Ġcarrying": 7060,
      "Ġkingdom": 7061,
      "Ġpriorit": 7062,
      "AbstractManifold": 7063,
      "Ġemissivity": 7064,
      "Ġexhibit": 7065,
      "ĠAustralia": 7066,
      "Ġphenomenon": 7067,
      "Ġsquee": 7068,
      "Ġpuddle": 7069,
      "ĠGauss": 7070,
      "02": 7071,
      "74": 7072,
      "96": 7073,
      "Mummy": 7074,
      "\\}": 7075,
      "ford": 7076,
      "long": 7077,
      "ya": 7078,
      "å¼": 7079,
      "Ġsour": 7080,
      "Ġoxygen": 7081,
      "itative": 7082,
      "Ġbrief": 7083,
      "Ġdial": 7084,
      "Ġluck": 7085,
      "Ġrect": 7086,
      "std": 7087,
      "ulum": 7088,
      "Ġneut": 7089,
      "Ġshot": 7090,
      "Ġmac": 7091,
      "ache": 7092,
      "Ġgoat": 7093,
      "Ġbiggest": 7094,
      "Ġtrick": 7095,
      "ĠInformation": 7096,
      "ĠOcean": 7097,
      "Ġampl": 7098,
      "Ġflag": 7099,
      "ĠChurch": 7100,
      "Ġgrab": 7101,
      "Ġpatent": 7102,
      "Ġmedium": 7103,
      "Ġbelie": 7104,
      "Ġconfirm": 7105,
      "Ġreplaced": 7106,
      "Ġcris": 7107,
      "Ġoccas": 7108,
      "Ġoperating": 7109,
      "ĠArch": 7110,
      "Ġpresident": 7111,
      "Ġwheel": 7112,
      "Ġtelling": 7113,
      "Ġconstra": 7114,
      "Ġorigin": 7115,
      "Ġlogic": 7116,
      "Ġdrop": 7117,
      "ĠFrank": 7118,
      "Ġmanifolds": 7119,
      "Ġinvestigate": 7120,
      "ealous": 7121,
      "ubbles": 7122,
      "ĠRepublic": 7123,
      "Ġleadership": 7124,
      "Ġlimitations": 7125,
      "Ġcomparison": 7126,
      "Ġcomfortable": 7127,
      "Ġpseudoprime": 7128,
      "Ġmovie": 7129,
      "HA": 7130,
      "fast": 7131,
      "ki": 7132,
      "med": 7133,
      "map": 7134,
      "tion": 7135,
      "turb": 7136,
      "wood": 7137,
      "{(": 7138,
      "Ġtum": 7139,
      "Ġcher": 7140,
      "Ġcub": 7141,
      "Ġpip": 7142,
      "Ġmuseum": 7143,
      "Ġlift": 7144,
      "Ġnorthern": 7145,
      "Ġecosystem": 7146,
      "road": 7147,
      "Ġstim": 7148,
      "rior": 7149,
      "oop": 7150,
      "ĠCa": 7151,
      "Ġvast": 7152,
      "Ġnoted": 7153,
      "ĠPo": 7154,
      "ĠPass": 7155,
      ".\")": 7156,
      "Ġspat": 7157,
      "Ġdish": 7158,
      "Thanks": 7159,
      "Ġassume": 7160,
      "Ġeditor": 7161,
      "Ġenthus": 7162,
      "Ġrefused": 7163,
      "ĠProject": 7164,
      "Ġdirector": 7165,
      "Ġsnake": 7166,
      "Ġsafely": 7167,
      "Ġsupporting": 7168,
      "Ġrepresenting": 7169,
      "Ġtrucks": 7170,
      "ĠEngland": 7171,
      "Alice": 7172,
      "Ġidentifying": 7173,
      "Ġhoriz": 7174,
      "ĠÂ·": 7175,
      "Ġrecommended": 7176,
      "Ġassumption": 7177,
      "Ġinformed": 7178,
      "Ġencourage": 7179,
      "Ġcoefficient": 7180,
      "Ġtunnel": 7181,
      "Ġreferred": 7182,
      "ĠKorea": 7183,
      "Ġharvest": 7184,
      "Ġpolicies": 7185,
      "Fr": 7186,
      "List": 7187,
      "che": 7188,
      "craft": 7189,
      "json": 7190,
      "sm": 7191,
      "yr": 7192,
      "zer": 7193,
      "Ã§": 7194,
      "Ġtips": 7195,
      "hent": 7196,
      "Ġcrown": 7197,
      "Ġboo": 7198,
      "Ġfo": 7199,
      "Ġdu": 7200,
      "Ġlacks": 7201,
      "ĠTwo": 7202,
      "ĠHave": 7203,
      "ĠBoth": 7204,
      "ĠLast": 7205,
      "abb": 7206,
      "ĠWater": 7207,
      "Ġjealous": 7208,
      "Ġclinical": 7209,
      "ĠGen": 7210,
      "Ġthemes": 7211,
      "Ġparties": 7212,
      "Ġtea": 7213,
      "ificial": 7214,
      "Ġ45": 7215,
      "Ġdesert": 7216,
      "Ġregional": 7217,
      "Ġelection": 7218,
      "Ġconfront": 7219,
      "Ġangel": 7220,
      "poses": 7221,
      "Ġcleaning": 7222,
      "Ġimmers": 7223,
      "Ġchecks": 7224,
      "ĠColor": 7225,
      "Ġboundaries": 7226,
      "Ġpacked": 7227,
      "Ġintroduce": 7228,
      "Ġdemonstrated": 7229,
      "Ġmagnetic": 7230,
      "Ġthankful": 7231,
      "Ġhonor": 7232,
      "ĠRussian": 7233,
      "ĠAfrican": 7234,
      "ĠWilliam": 7235,
      "Ġadults": 7236,
      "Ġprocedure": 7237,
      "Ġpowers": 7238,
      "Ġproportion": 7239,
      "ĠSyncopation": 7240,
      "ĠFlorida": 7241,
      "Ġpizza": 7242,
      "':": 7243,
      "Mod": 7244,
      "MATLAB": 7245,
      "Our": 7246,
      "np": 7247,
      "Â¶": 7248,
      "ä¹": 7249,
      "åº": 7250,
      "heim": 7251,
      "Ġsch": 7252,
      "Ġwitness": 7253,
      "Ġfirm": 7254,
      "Ġfinger": 7255,
      "Ġmale": 7256,
      "Ġdy": 7257,
      "level": 7258,
      "Ġears": 7259,
      "Ġwaste": 7260,
      "vector": 7261,
      "Ġbees": 7262,
      "cend": 7263,
      "olph": 7264,
      "Ġyog": 7265,
      "eles": 7266,
      "Ġalert": 7267,
      "ĠMuseum": 7268,
      "ĠBet": 7269,
      "ĠBra": 7270,
      "Ġrig": 7271,
      "Ġsections": 7272,
      "Ġves": 7273,
      "ĠJac": 7274,
      "Ġmere": 7275,
      "ĠGiven": 7276,
      "Ġscreamed": 7277,
      "Ġapps": 7278,
      "arming": 7279,
      "Ġchew": 7280,
      "Ġsunlight": 7281,
      "making": 7282,
      "series": 7283,
      "Ġharder": 7284,
      "const": 7285,
      "Ġelimin": 7286,
      "Ġlanded": 7287,
      "mathrm": 7288,
      "Ġlegs": 7289,
      "Ġfloat": 7290,
      "2012": 7291,
      "Ġmolecular": 7292,
      "ĠMaryland": 7293,
      "Ġoptimization": 7294,
      "Ġchiral": 7295,
      "Ġdelighted": 7296,
      "Ġthermal": 7297,
      "Ġsuitable": 7298,
      "ĠJonah": 7299,
      "Ġnuanced": 7300,
      "Ġgarage": 7301,
      "Ġingred": 7302,
      "Find": 7303,
      "Other": 7304,
      "Vector": 7305,
      "cm": 7306,
      "cest": 7307,
      "care": 7308,
      "gener": 7309,
      "move": 7310,
      "spec": 7311,
      "train": 7312,
      "well": 7313,
      "Ġ!": 7314,
      "Ġsudden": 7315,
      "Ġoven": 7316,
      "icked": 7317,
      "Ġgif": 7318,
      "Ġreb": 7319,
      "Ġrew": 7320,
      "otal": 7321,
      "Ġstones": 7322,
      "Ġforth": 7323,
      "cknow": 7324,
      "ĠCP": 7325,
      "Ġsock": 7326,
      "Ġneither": 7327,
      "Ġclick": 7328,
      "Ġroles": 7329,
      "Ġdisk": 7330,
      "exp": 7331,
      "Ġ36": 7332,
      "ĠOpt": 7333,
      "Ġpregn": 7334,
      "Ġprices": 7335,
      "Ġcarrot": 7336,
      "Ġ+=": 7337,
      "ĠVer": 7338,
      "ĠStar": 7339,
      "ologist": 7340,
      "axis": 7341,
      "Ġending": 7342,
      "Ġreduction": 7343,
      "Ġdiverse": 7344,
      "Ġpassage": 7345,
      "Ġpaw": 7346,
      "Ġprompt": 7347,
      "Ġrocket": 7348,
      "Ġdistributed": 7349,
      "Ġcriter": 7350,
      "ĠFranc": 7351,
      "Ġfacilities": 7352,
      "Ġcandidate": 7353,
      "ĠCalcul": 7354,
      "Ġcelebrated": 7355,
      "Ġobservation": 7356,
      "Ġsorted": 7357,
      "Ġinvestigation": 7358,
      "åħ·": 7359,
      "Ġexception": 7360,
      "Ġremainder": 7361,
      "Ġburning": 7362,
      "Ġsurrounding": 7363,
      "Ġcoordinates": 7364,
      "Ġshelf": 7365,
      "ructure": 7366,
      "ç®Ĺ": 7367,
      "http": 7368,
      "Ġcamera": 7369,
      "Ġelder": 7370,
      "'(": 7371,
      "CE": 7372,
      "\\\\": 7373,
      "ev": 7374,
      "hicles": 7375,
      "net": 7376,
      "upp": 7377,
      "Ġpure": 7378,
      "Ġdx": 7379,
      "Ġdinosaur": 7380,
      "Ġinactiv": 7381,
      "ĠTw": 7382,
      "ĠSen": 7383,
      "ĠSusie": 7384,
      "rient": 7385,
      "ĠCA": 7386,
      "Ġconv": 7387,
      "âĢĳ": 7388,
      "Ġrice": 7389,
      "Ġmaps": 7390,
      "rypt": 7391,
      "Ġloves": 7392,
      "asts": 7393,
      "ĠGal": 7394,
      "ogene": 7395,
      "Ġrose": 7396,
      "Ġcontract": 7397,
      "Ġquad": 7398,
      "Ġtwice": 7399,
      "Ġ35": 7400,
      "ords": 7401,
      "ĠKitty": 7402,
      "ifications": 7403,
      "Ġknows": 7404,
      "Ġmodified": 7405,
      "Ġtrials": 7406,
      "Ġsmallest": 7407,
      "Ġpointing": 7408,
      "Ġrealised": 7409,
      "Ġcharge": 7410,
      "$$.": 7411,
      "Ġvariation": 7412,
      "Ġediting": 7413,
      "Ġcontinues": 7414,
      "coming": 7415,
      "ĠAlice": 7416,
      "Ġpassing": 7417,
      "Ġsnacks": 7418,
      "ä¸ĵ": 7419,
      "Ġjoke": 7420,
      "Ġinvolving": 7421,
      "Ġmomentum": 7422,
      "Ġvillagers": 7423,
      "ĠEducation": 7424,
      "umbled": 7425,
      "while": 7426,
      "Ġmistake": 7427,
      "Array": 7428,
      "ibrary": 7429,
      "Additionally": 7430,
      "ĠIslamic": 7431,
      "Ġscenario": 7432,
      "Ġarchitecture": 7433,
      "Ġdwarf": 7434,
      "ĠThomas": 7435,
      "Ġterrible": 7436,
      "Qu": 7437,
      "div": 7438,
      "how": 7439,
      "}=\\": 7440,
      "eding": 7441,
      "Ġcact": 7442,
      "Ġbank": 7443,
      "oured": 7444,
      "Ġmit": 7445,
      "alog": 7446,
      "Ġinfection": 7447,
      "ĠTH": 7448,
      "ĠTanz": 7449,
      "Ġreject": 7450,
      "Ġreven": 7451,
      "sec": 7452,
      "ĠIV": 7453,
      "ifferent": 7454,
      "ĠMid": 7455,
      "pered": 7456,
      "atever": 7457,
      "Ġshift": 7458,
      "essage": 7459,
      "ĠPower": 7460,
      "ĠPublic": 7461,
      "opy": 7462,
      "Ġchased": 7463,
      "izzy": 7464,
      "bert": 7465,
      "Ġagree": 7466,
      "Ġthanks": 7467,
      "Ġobed": 7468,
      "Ġputting": 7469,
      "Ġwalks": 7470,
      "ĠAsia": 7471,
      "Ġsupposed": 7472,
      "Ġbelt": 7473,
      "umpy": 7474,
      "Ġinstant": 7475,
      "Ġpassion": 7476,
      "Ġauthent": 7477,
      "ĠAmericans": 7478,
      "Ġsalt": 7479,
      "Ġfavour": 7480,
      "Ġfrequently": 7481,
      "Ġfacilit": 7482,
      "358": 7483,
      "Ġengineering": 7484,
      "Ġrecognize": 7485,
      "Ġdecline": 7486,
      "Ġassistance": 7487,
      "æľī": 7488,
      "Ġlicense": 7489,
      "Ġterrit": 7490,
      "Emily": 7491,
      "Ġdimension": 7492,
      "Ġappreciate": 7493,
      "Remember": 7494,
      "mediate": 7495,
      "Ġmembrane": 7496,
      "Ġvessel": 7497,
      "*]": 7498,
      ".'": 7499,
      "CO": 7500,
      "Get": 7501,
      "Mary": 7502,
      "Sally": 7503,
      "fall": 7504,
      "fortunately": 7505,
      "gr": 7506,
      "xic": 7507,
      "Ġ?": 7508,
      "Ġwag": 7509,
      "Ġok": 7510,
      "Ġfool": 7511,
      "Ġpairs": 7512,
      "alysis": 7513,
      "Ġdram": 7514,
      "asp": 7515,
      "Ġlaser": 7516,
      "Ġrenew": 7517,
      "ĠMD": 7518,
      "ĠMil": 7519,
      "ĠMummy": 7520,
      "Ġexport": 7521,
      "Ġconversion": 7522,
      "Ġselection": 7523,
      "Ġvul": 7524,
      "employ": 7525,
      "ĠEnergy": 7526,
      "Ġjack": 7527,
      "Ġ${": 7528,
      "Ġresolution": 7529,
      "Ġuncom": 7530,
      "Ġpron": 7531,
      "ega": 7532,
      "ĠStand": 7533,
      "Ġflat": 7534,
      "Ġskipped": 7535,
      "Ġcorn": 7536,
      "Ġdirections": 7537,
      "Ġpositions": 7538,
      "Ġmarked": 7539,
      "ecor": 7540,
      "ronic": 7541,
      "Ġfalls": 7542,
      "Ġtowns": 7543,
      "Ġinstrument": 7544,
      "Ġgraphs": 7545,
      "Ġrecognized": 7546,
      "Ġimagine": 7547,
      "Ġcontribute": 7548,
      "Ġordinary": 7549,
      "ING": 7550,
      "Ġcategories": 7551,
      "Ġeggs": 7552,
      "ä¸Ģä¸ª": 7553,
      "Ġprecipitation": 7554,
      "51": 7555,
      "Amy": 7556,
      "CH": 7557,
      "GF": 7558,
      "Most": 7559,
      "[*]": 7560,
      "ao": 7561,
      "base": 7562,
      "cir": 7563,
      "find": 7564,
      "pred": 7565,
      "vas": 7566,
      "Ķ¹": 7567,
      "Ġske": 7568,
      "Ġbases": 7569,
      "orph": 7570,
      "stack": 7571,
      "rium": 7572,
      "Ġseeds": 7573,
      "emo": 7574,
      "Ġkg": 7575,
      "plate": 7576,
      "Ġjson": 7577,
      "ĠRich": 7578,
      "izer": 7579,
      "lla": 7580,
      "Ġdesalination": 7581,
      "Ġsurgery": 7582,
      "Ġremote": 7583,
      "Ġskip": 7584,
      "Ġsolving": 7585,
      "Ġvariance": 7586,
      "Ġrefuse": 7587,
      "Ġvehicles": 7588,
      "ĠSea": 7589,
      "ĠNews": 7590,
      "ĠBobby": 7591,
      "ĠClass": 7592,
      "Ġposts": 7593,
      "Ġensuring": 7594,
      "Ġsensory": 7595,
      "Ġaffects": 7596,
      "Ġsleepy": 7597,
      "Ġmechanical": 7598,
      "Ġneighbour": 7599,
      "Ġvideos": 7600,
      "ĠValue": 7601,
      "Ġhomes": 7602,
      "Ġatmospheric": 7603,
      "Ġdoub": 7604,
      "ĠCanadian": 7605,
      "ĠSupp": 7606,
      "ĠSimilar": 7607,
      "uilding": 7608,
      "ĠParis": 7609,
      "Ġmobile": 7610,
      "Ġfigures": 7611,
      ")]": 7612,
      "62": 7613,
      "AF": 7614,
      "During": 7615,
      "PA": 7616,
      "SO": 7617,
      "Sc": 7618,
      "bre": 7619,
      "faces": 7620,
      "fitness": 7621,
      "product": 7622,
      "Ġtub": 7623,
      "Ġtied": 7624,
      "Ġwagon": 7625,
      "ato": 7626,
      "itud": 7627,
      "Ġbread": 7628,
      "Ġinvent": 7629,
      "ĠTMEM": 7630,
      "Ġhearing": 7631,
      "ĠHIV": 7632,
      "illar": 7633,
      "ested": 7634,
      "that": 7635,
      "Ġchurch": 7636,
      "ĠWind": 7637,
      "ĠDay": 7638,
      "Ġsmelly": 7639,
      "integ": 7640,
      "Ġunex": 7641,
      "velength": 7642,
      "Ġcompass": 7643,
      "ĠOl": 7644,
      "Ġanywhere": 7645,
      "Ġamino": 7646,
      "Ġsurre": 7647,
      "Ġexperts": 7648,
      "Ġrepair": 7649,
      "Ġelev": 7650,
      "Ġanalys": 7651,
      "ÅĵLet": 7652,
      "ometer": 7653,
      "Ġmeters": 7654,
      "apping": 7655,
      "Ġcalculation": 7656,
      "Ġcryst": 7657,
      "Ġstatic": 7658,
      "Ġdescribes": 7659,
      "Ġimprovement": 7660,
      "Ġpayment": 7661,
      "Ġcardi": 7662,
      "Ġmissed": 7663,
      "ĠAdv": 7664,
      "Ġcompetitive": 7665,
      "Ġsurvival": 7666,
      "Ġdisappointed": 7667,
      "Ġturkey": 7668,
      "Ġspinning": 7669,
      "Ġhydrogen": 7670,
      "Ġpurchase": 7671,
      "ĠDefault": 7672,
      "Ġpseudoprimes": 7673,
      "////////": 7674,
      "Ġdestroyed": 7675,
      "Ġexchange": 7676,
      "Ġcooper": 7677,
      "Ġknocked": 7678,
      "èĢĥ": 7679,
      "Or": 7680,
      "SI": 7681,
      "eath": 7682,
      "found": 7683,
      "len": 7684,
      "lig": 7685,
      "oons": 7686,
      "west": 7687,
      "Ġille": 7688,
      "Ġwip": 7689,
      "Ġwire": 7690,
      "Ġft": 7691,
      "Ġfant": 7692,
      "isco": 7693,
      "Ġhang": 7694,
      "ston": 7695,
      "Ġbeat": 7696,
      "keeper": 7697,
      "Ġalive": 7698,
      "ĠCH": 7699,
      "ĠCheck": 7700,
      "Ġvase": 7701,
      "rome": 7702,
      "osing": 7703,
      "ĠPal": 7704,
      "Ġkil": 7705,
      "ĠDen": 7706,
      "ender": 7707,
      "Ġlie": 7708,
      "Ġmeat": 7709,
      "Ġmanager": 7710,
      "ĠUp": 7711,
      "Ġ32": 7712,
      "ocate": 7713,
      "issors": 7714,
      "Ġowners": 7715,
      "Ġsupplies": 7716,
      "Ġconfig": 7717,
      "Ġcenters": 7718,
      "Ġpurposes": 7719,
      "Ġmovements": 7720,
      "Ġorganis": 7721,
      "Ġorganic": 7722,
      "Ġprotocol": 7723,
      "ĠExpl": 7724,
      "Ġdependable": 7725,
      "Ġnetworks": 7726,
      "Ġbiological": 7727,
      "Ġindustrial": 7728,
      "Ġfitness": 7729,
      "Ġinstructions": 7730,
      "Ġdomestic": 7731,
      "Ġderived": 7732,
      "Ġmagnitude": 7733,
      "Ġpermission": 7734,
      "Ġdynamics": 7735,
      "Ġstruggling": 7736,
      "Ġbelonged": 7737,
      "account": 7738,
      "Ġspoke": 7739,
      "Ġcollaboration": 7740,
      "Ġconstitution": 7741,
      "Ġfrustrated": 7742,
      "claimed": 7743,
      "func": 7744,
      "varphi": 7745,
      "Ġfabric": 7746,
      "Ġpilot": 7747,
      "Ġdefects": 7748,
      "((": 7749,
      ")/": 7750,
      "93": 7751,
      "Dad": 7752,
      "Line": 7753,
      "^(": 7754,
      "iot": 7755,
      "lers": 7756,
      "lied": 7757,
      "sim": 7758,
      "ux": 7759,
      "Ġtie": 7760,
      "Ġacknow": 7761,
      "itter": 7762,
      "Ġfurn": 7763,
      "Ġmelt": 7764,
      "alian": 7765,
      "ilib": 7766,
      "amber": 7767,
      "secut": 7768,
      "Ġanomal": 7769,
      "Ġ\"\"": 7770,
      "ĠMex": 7771,
      "Ġconference": 7772,
      "ĠLake": 7773,
      "Ġshif": 7774,
      "ĠFurthermore": 7775,
      "Ġplays": 7776,
      "ĠRob": 7777,
      "ĠGet": 7778,
      "Ġknight": 7779,
      "Ġcontrolled": 7780,
      "Ġperman": 7781,
      "aped": 7782,
      "weight": 7783,
      "Ġfinds": 7784,
      "Ġoffering": 7785,
      "Ġdescript": 7786,
      "Ġended": 7787,
      "Ġdistrict": 7788,
      "Ġgreatly": 7789,
      "Ġstatements": 7790,
      "Ġartificial": 7791,
      "Ġbitter": 7792,
      "ĠQue": 7793,
      "Ġoptimal": 7794,
      "Ġtypical": 7795,
      "Ġperiods": 7796,
      "ĠDoes": 7797,
      "Ġdigits": 7798,
      "Ġsymmet": 7799,
      "Ġrotation": 7800,
      "Ġlatter": 7801,
      "Ġtransportation": 7802,
      "Ġupdate": 7803,
      "Ġattractive": 7804,
      "elihood": 7805,
      "Ġdrawn": 7806,
      "Ġimplies": 7807,
      "Capacity": 7808,
      "ĠJacob": 7809,
      "EE": 7810,
      "UN": 7811,
      "awn": 7812,
      "dict": 7813,
      "gu": 7814,
      "ls": 7815,
      "rh": 7816,
      "rations": 7817,
      "}-": 7818,
      "}]": 7819,
      "Ã¡": 7820,
      "âī": 7821,
      "åĽ": 7822,
      "æŀ": 7823,
      "ç¨": 7824,
      "Ġtab": 7825,
      "enh": 7826,
      "Ġdolph": 7827,
      "Ġthief": 7828,
      "Ġrecept": 7829,
      "rox": 7830,
      "ĠSuch": 7831,
      "ĠSpec": 7832,
      "ĠSandy": 7833,
      "olen": 7834,
      "urance": 7835,
      "ĠHall": 7836,
      "ulpt": 7837,
      "ĠMars": 7838,
      "Ġconcrete": 7839,
      "Ġdepos": 7840,
      "geq": 7841,
      "opt": 7842,
      "ĠWould": 7843,
      "Ġdoctors": 7844,
      "pler": 7845,
      "ĠDar": 7846,
      "ĠDem": 7847,
      "ĠRos": 7848,
      "ĠRober": 7849,
      "ĠNav": 7850,
      "acific": 7851,
      "Ġsculpt": 7852,
      "agement": 7853,
      "ultaneous": 7854,
      "Ġsphere": 7855,
      "Ġ->": 7856,
      "Ġdisag": 7857,
      "Ġoverw": 7858,
      "ubble": 7859,
      "Ġpartner": 7860,
      "akers": 7861,
      "Ġtriang": 7862,
      "Ġgrace": 7863,
      "Ġdetail": 7864,
      "Ġgenerating": 7865,
      "ondo": 7866,
      "Ġfranch": 7867,
      "ĠProblem": 7868,
      "Ġintegrated": 7869,
      "Ġpretended": 7870,
      "ĠSecond": 7871,
      "Ġorganisms": 7872,
      "Ġpainted": 7873,
      "Ġhumanity": 7874,
      "Ġstored": 7875,
      "Ġseconds": 7876,
      "Ġ150": 7877,
      "Ġrecording": 7878,
      "Ġimmune": 7879,
      "Ġ1990": 7880,
      "Ġcouple": 7881,
      "ĠCommission": 7882,
      "Ġinitially": 7883,
      "Ġevaluation": 7884,
      "Ġstrike": 7885,
      "ç»Ł": 7886,
      "åı¯": 7887,
      "Ġqueen": 7888,
      "Ġpleased": 7889,
      "Ġdedicated": 7890,
      "Ġexplanation": 7891,
      "Ġwrapped": 7892,
      "Ġfemale": 7893,
      "ĠTweetie": 7894,
      "ĠTweety": 7895,
      "Ġcaterp": 7896,
      "Ġcrisis": 7897,
      "Ġelderly": 7898,
      "Ġcactus": 7899,
      "According": 7900,
      "CL": 7901,
      "Read": 7902,
      "fl": 7903,
      "free": 7904,
      "fix": 7905,
      "hint": 7906,
      "ipper": 7907,
      "power": 7908,
      "rary": 7909,
      "such": 7910,
      "åĮ": 7911,
      "è§": 7912,
      "é¢": 7913,
      "Ġicy": 7914,
      "Ġsizes": 7915,
      "Ġcabin": 7916,
      "Ġhipp": 7917,
      "ĠType": 7918,
      "Ġreaches": 7919,
      "Ġreactions": 7920,
      "roke": 7921,
      "ĠHz": 7922,
      "rier": 7923,
      "Ġalph": 7924,
      "ĠMo": 7925,
      "ĠMicro": 7926,
      "Ġprohib": 7927,
      "ĠList": 7928,
      "abase": 7929,
      "Ġhappiness": 7930,
      "Ġenorm": 7931,
      "Ġspell": 7932,
      "Ġspeaking": 7933,
      "Ġuncle": 7934,
      "Ġunlike": 7935,
      "velope": 7936,
      "Ġraw": 7937,
      "Ġinteractive": 7938,
      "....": 7939,
      "iano": 7940,
      "ĠStart": 7941,
      "Ġhanded": 7942,
      "Ġmostly": 7943,
      "ondon": 7944,
      "Ġcounting": 7945,
      "Ġpolar": 7946,
      "Ġextended": 7947,
      "Ġdiscrim": 7948,
      "rolog": 7949,
      "Ġexamined": 7950,
      "Ġbeneath": 7951,
      "copic": 7952,
      "ä»£èĢĥ": 7953,
      "ĠInternet": 7954,
      "Ġignor": 7955,
      "working": 7956,
      "Ġpollution": 7957,
      "Ġquarter": 7958,
      "Ċĉĉĉĉ": 7959,
      "Ġgiggled": 7960,
      "ĠDevelopment": 7961,
      "Ġwhistle": 7962,
      "Ġuncertainty": 7963,
      "gantt": 7964,
      "Ġvictims": 7965,
      "ĠPaul": 7966,
      "Ġauthentic": 7967,
      "Ġvulner": 7968,
      "ç¨ĭ": 7969,
      "Ġenormous": 7970,
      "));": 7971,
      "92": 7972,
      "AP": 7973,
      "BS": 7974,
      "Jo": 7975,
      "Red": 7976,
      "Reg": 7977,
      "flo": 7978,
      "pir": 7979,
      "rat": 7980,
      "spl": 7981,
      "ship": 7982,
      "ucl": 7983,
      "Ġic": 7984,
      "Ġid": 7985,
      "Ġcooking": 7986,
      "Ġdraft": 7987,
      "Ġinhib": 7988,
      "ĠTor": 7989,
      "ette": 7990,
      "ĠSlovak": 7991,
      "ceived": 7992,
      "Ġitem": 7993,
      "ĠIdent": 7994,
      "ching": 7995,
      "Ġancest": 7996,
      "rian": 7997,
      "ĠMiss": 7998,
      "Ġconven": 7999,
      "htags": 8000,
      "ĠBar": 8001,
      "Ġneur": 8002,
      "ĠLife": 8003,
      "Ġshoot": 8004,
      "Ġcomments": 8005,
      "ĠElect": 8006,
      "Ġlean": 8007,
      "ĠRad": 8008,
      "ĠNatural": 8009,
      "Ġmeal": 8010,
      "ĠGoogle": 8011,
      "Ġcoat": 8012,
      "Ġcoins": 8013,
      "Ġpoison": 8014,
      "Ġperturb": 8015,
      "Ġtwirl": 8016,
      "Ġseeking": 8017,
      "Ġlaid": 8018,
      "Ġeveryday": 8019,
      "Ġgoods": 8020,
      "cluding": 8021,
      "Ġ&&": 8022,
      "Ġdeli": 8023,
      "Ġauthors": 8024,
      "Ġmultip": 8025,
      "Ġsecondary": 8026,
      "Stud": 8027,
      "Ġmessy": 8028,
      "Ġbrothers": 8029,
      "Ġinfluenced": 8030,
      "Ġsplash": 8031,
      "Ġbags": 8032,
      "Ġimagined": 8033,
      "Ġstreamflow": 8034,
      "Ġbullying": 8035,
      "which": 8036,
      "Ġmotivations": 8037,
      "Ġengagement": 8038,
      "Ġdefend": 8039,
      "Ġscenarios": 8040,
      "Ġgravity": 8041,
      "ĠAuthor": 8042,
      "Ġholiday": 8043,
      "ilibrium": 8044,
      ",'": 8045,
      "Gener": 8046,
      "Ind": 8047,
      "bits": 8048,
      "mega": 8049,
      "tter": 8050,
      "zheim": 8051,
      "«ĺ": 8052,
      "é«ĺ": 8053,
      "heart": 8054,
      "Ġcere": 8055,
      "iture": 8056,
      "Ġfing": 8057,
      "Ġdull": 8058,
      "Ġnations": 8059,
      "Ġeast": 8060,
      "utor": 8061,
      "ĠSpe": 8062,
      "keys": 8063,
      "ĠMS": 8064,
      "ĠEventually": 8065,
      "ĠDi": 8066,
      "Ġintensity": 8067,
      "Ġenab": 8068,
      "Ġenvelope": 8069,
      "Ġmanip": 8070,
      "Ġknife": 8071,
      "Ġfeud": 8072,
      "Ġresidents": 8073,
      "ocratic": 8074,
      "ĠVir": 8075,
      "oyal": 8076,
      "Ġacids": 8077,
      "Ġsubtle": 8078,
      "Ġattacks": 8079,
      "Ġrealize": 8080,
      "Ġsimultaneous": 8081,
      "ĠSocial": 8082,
      "Ġinvited": 8083,
      "serv": 8084,
      "Ġmighty": 8085,
      "Ġextensive": 8086,
      "Ġminer": 8087,
      "comm": 8088,
      "Ġlights": 8089,
      "ounter": 8090,
      "Ġinsert": 8091,
      "ameter": 8092,
      "Who": 8093,
      "Ġbrightly": 8094,
      "Ġfaced": 8095,
      "Also": 8096,
      "Ġcookie": 8097,
      "Ġcomposing": 8098,
      "Ġhistoric": 8099,
      "Ġarrange": 8100,
      "Ġassessment": 8101,
      "Ġafford": 8102,
      "Ġattribute": 8103,
      "Ġfolder": 8104,
      "è®¡ç®Ĺ": 8105,
      "Ġintelligence": 8106,
      "Ġtissue": 8107,
      "Ġnewspaper": 8108,
      "Ġinhabit": 8109,
      "Ġingredients": 8110,
      "ä¸ĵä¸ļ": 8111,
      "Ġcaterpillar": 8112,
      ")^{": 8113,
      ")=\\": 8114,
      "04": 8115,
      "CT": 8116,
      "Ed": 8117,
      "MAT": 8118,
      "foot": 8119,
      "neg": 8120,
      "pm": 8121,
      "person": 8122,
      "vari": 8123,
      "Ġtu": 8124,
      "Ġtube": 8125,
      "Ġtears": 8126,
      "Ġaster": 8127,
      "Ġpenny": 8128,
      "Ġpounds": 8129,
      "orter": 8130,
      "anium": 8131,
      "Ġharsh": 8132,
      "Ġinher": 8133,
      "Ġlung": 8134,
      "Ġbeet": 8135,
      "Ġstages": 8136,
      "ithms": 8137,
      "unte": 8138,
      "unning": 8139,
      "ĠMu": 8140,
      "ĠBel": 8141,
      "Ġrude": 8142,
      "pled": 8143,
      "andon": 8144,
      "ĠFore": 8145,
      "Ġoutdo": 8146,
      "Ġjur": 8147,
      "ĠNext": 8148,
      "ĠNov": 8149,
      "Ġ=>": 8150,
      "ĠGreat": 8151,
      "Ġsomewhat": 8152,
      "berg": 8153,
      "oby": 8154,
      "ĠAnother": 8155,
      "Ġpersistent": 8156,
      "Ġsignals": 8157,
      "Ġcounted": 8158,
      "valid": 8159,
      "Ġentry": 8160,
      "Ġinfant": 8161,
      "Ġrefers": 8162,
      "ÅĵIt": 8163,
      "Ġbelief": 8164,
      "Ġkindness": 8165,
      "Ġmemories": 8166,
      "Ġcharacteristic": 8167,
      "Ġsatell": 8168,
      "Ġcritic": 8169,
      "çļĦç": 8170,
      "Ġrecognition": 8171,
      "partial": 8172,
      "ĠJapanese": 8173,
      "Ġsurvive": 8174,
      "Ġelectrical": 8175,
      "Ġtaxes": 8176,
      "Place": 8177,
      "Ġanxiety": 8178,
      "oliondo": 8179,
      "dependent": 8180,
      "ĠFoundation": 8181,
      "ConnectionFactory": 8182,
      "Ġ!=": 8183,
      "Ġdelivery": 8184,
      "Billy": 8185,
      "IR": 8186,
      "IST": 8187,
      "LE": 8188,
      "More": 8189,
      "Ps": 8190,
      "\\]": 8191,
      "]]": 8192,
      "cout": 8193,
      "fil": 8194,
      "gent": 8195,
      "main": 8196,
      "nam": 8197,
      "pread": 8198,
      "sv": 8199,
      "zen": 8200,
      "}^": 8201,
      "}]</": 8202,
      "è¿": 8203,
      "éĿ": 8204,
      "Ġtiger": 8205,
      "inating": 8206,
      "atin": 8207,
      "edy": 8208,
      "Ġcert": 8209,
      "Ġox": 8210,
      "Ġpup": 8211,
      "Ġpale": 8212,
      "orient": 8213,
      "Ġholes": 8214,
      "Ġnur": 8215,
      "Ġreform": 8216,
      "stream": 8217,
      "umps": 8218,
      "html": 8219,
      "Ġdealing": 8220,
      "Ġplas": 8221,
      "Ġplastic": 8222,
      "illa": 8223,
      "Ġvac": 8224,
      "Ġcomet": 8225,
      "Ġchapter": 8226,
      "ĠJS": 8227,
      "ĠDate": 8228,
      "ittens": 8229,
      "Ġleak": 8230,
      "soft": 8231,
      "Ġresc": 8232,
      "Ġspending": 8233,
      "Ġblind": 8234,
      "Ġexplo": 8235,
      "Ġdistingu": 8236,
      "Ġvisible": 8237,
      "Ġinfrast": 8238,
      "idespread": 8239,
      "Ġ95": 8240,
      "Ġwindows": 8241,
      "Ġintegr": 8242,
      "Ġmeasuring": 8243,
      "linear": 8244,
      "âĪĪ": 8245,
      "Ġlawyer": 8246,
      "Ġessay": 8247,
      "Ġ1998": 8248,
      "Ġemployed": 8249,
      "Ġresponsibility": 8250,
      "Ġindependence": 8251,
      "Ġrotor": 8252,
      "Ġducks": 8253,
      "Ġattempts": 8254,
      "Ġroute": 8255,
      "Ġroutine": 8256,
      "Ġchemicals": 8257,
      "Ġattributes": 8258,
      "ĠPhysics": 8259,
      "Ġsexual": 8260,
      "Ġguidance": 8261,
      "Ġhundreds": 8262,
      "ĠTechnology": 8263,
      "Ġcolleagues": 8264,
      "sembly": 8265,
      "ĠLouis": 8266,
      "Ġexcellent": 8267,
      "Ġfoolish": 8268,
      "Ġpronoun": 8269,
      "zheimer": 8270,
      "97": 8271,
      "GO": 8272,
      "aked": 8273,
      "cat": 8274,
      "dots": 8275,
      "field": 8276,
      "rum": 8277,
      "uity": 8278,
      "ypes": 8279,
      "Â·": 8280,
      "inc": 8281,
      "Ġwore": 8282,
      "Ġbes": 8283,
      "Ġpear": 8284,
      "alt": 8285,
      "Ġdust": 8286,
      "Ġhall": 8287,
      "asy": 8288,
      "ilty": 8289,
      "ĠSum": 8290,
      "aded": 8291,
      "Ġstations": 8292,
      "ĠMet": 8293,
      "quare": 8294,
      "ĠLoliondo": 8295,
      "Ġshake": 8296,
      "estone": 8297,
      "ĠPR": 8298,
      "ĠWord": 8299,
      "fections": 8300,
      "Ġworse": 8301,
      "ĠNet": 8302,
      "Ġarmy": 8303,
      "ateral": 8304,
      "ĠUK": 8305,
      "ĠKen": 8306,
      "Ġmyself": 8307,
      "cohol": 8308,
      "Ġ'[]": 8309,
      "Ġlisted": 8310,
      "Ġopens": 8311,
      "encia": 8312,
      "ĠAss": 8313,
      "Ġedit": 8314,
      "Ġdivers": 8315,
      "azz": 8316,
      "textrm": 8317,
      "ÅĵThat": 8318,
      "Ġmetric": 8319,
      "Ġengaged": 8320,
      "Ġincome": 8321,
      "Ġdiscussing": 8322,
      "Ġdistributions": 8323,
      "Ġ1995": 8324,
      "Ġmenu": 8325,
      "Ġappearance": 8326,
      "Ġmixt": 8327,
      "Ġboundary": 8328,
      "Ġfunding": 8329,
      "Ġregularly": 8330,
      "Ġcourage": 8331,
      "Ġaxis": 8332,
      "Ġdecreased": 8333,
      "Ġbehaviors": 8334,
      "Ġwarning": 8335,
      "Ġprocedures": 8336,
      "--------": 8337,
      "Ġloyalty": 8338,
      "ĠWorkPlace": 8339,
      "Ġcircumst": 8340,
      "Ġberries": 8341,
      "Ġcommitment": 8342,
      "Ġexponential": 8343,
      "ĠCongress": 8344,
      "ĠTanzania": 8345,
      "Ġobedient": 8346,
      "Ġ'[]'.": 8347,
      "101": 8348,
      "Because": 8349,
      "ION": 8350,
      "MQ": 8351,
      "uke": 8352,
      "Ġsed": 8353,
      "Ġtheoret": 8354,
      "erved": 8355,
      "Ġfif": 8356,
      "Ġfib": 8357,
      "Ġfrown": 8358,
      "anish": 8359,
      "Ġdizzy": 8360,
      "arter": 8361,
      "Ġgall": 8362,
      "owered": 8363,
      "Ġsticks": 8364,
      "ĠAT": 8365,
      "rip": 8366,
      "Ġwhatever": 8367,
      "ĠCancer": 8368,
      "ĠBud": 8369,
      "Ġrushed": 8370,
      "Ġchief": 8371,
      "ĠWhere": 8372,
      "ĠEN": 8373,
      "ĠDiv": 8374,
      "ĠNa": 8375,
      "elled": 8376,
      "uster": 8377,
      ".\"},\"": 8378,
      "Ġtheme": 8379,
      "Ġunion": 8380,
      "ucose": 8381,
      "Ġoffset": 8382,
      "Ġinterpre": 8383,
      "Ġ55": 8384,
      "ĠVis": 8385,
      "Ġevening": 8386,
      "Ġcurric": 8387,
      "Ġacts": 8388,
      "Ġideal": 8389,
      "Ġslaves": 8390,
      "Ġclassic": 8391,
      "Ġedges": 8392,
      "ĠAlzheimer": 8393,
      "Ġbushes": 8394,
      "Ġguilty": 8395,
      "appy": 8396,
      "Ġlargely": 8397,
      "Ġsupports": 8398,
      "âĪ¥": 8399,
      "scale": 8400,
      "ä¸º": 8401,
      "Ġenjoying": 8402,
      "anguage": 8403,
      "ĠTrig": 8404,
      "Ġrespective": 8405,
      "Ġworksh": 8406,
      "Ġbreakfast": 8407,
      "Ġcollege": 8408,
      "Ġmassive": 8409,
      "Ġanalyzing": 8410,
      "Ġfluffy": 8411,
      "Ġsubjects": 8412,
      "Ġprotected": 8413,
      "Ġpermit": 8414,
      "Ġconvergence": 8415,
      "Ġsuccessfully": 8416,
      "Ġincorrect": 8417,
      "ĠGermany": 8418,
      "ĠMoreover": 8419,
      "ĠModel": 8420,
      "ðŁĶ¹": 8421,
      "Ġplatforms": 8422,
      "Ġnormally": 8423,
      "Ġpossibilities": 8424,
      "TeX": 8425,
      "ĠCounty": 8426,
      "Ġoctop": 8427,
      "Ġprofessionals": 8428,
      "([": 8429,
      "+\\": 8430,
      "HO": 8431,
      "jection": 8432,
      "mond": 8433,
      "normal": 8434,
      "pan": 8435,
      "spring": 8436,
      "çĽ": 8437,
      "ĊĊĠĠ": 8438,
      "Ġtent": 8439,
      "Ġbind": 8440,
      "Ġpushing": 8441,
      "Ġdrew": 8442,
      "asures": 8443,
      "Ġec": 8444,
      "Ġgro": 8445,
      "ĠTem": 8446,
      "ctic": 8447,
      "rots": 8448,
      "ĠHT": 8449,
      "umsy": 8450,
      "Ġexclaimed": 8451,
      "Ġsole": 8452,
      "Their": 8453,
      "ĠLike": 8454,
      "ĠPost": 8455,
      "Ġchat": 8456,
      "plom": 8457,
      "Ġlik": 8458,
      "Ġcogn": 8459,
      "Ġknot": 8460,
      "clop": 8461,
      "angers": 8462,
      "Ġmoist": 8463,
      "Ġlazy": 8464,
      "Ġrelat": 8465,
      "Ġrecall": 8466,
      "ĠChildren": 8467,
      "Ġphases": 8468,
      "Ġwavelength": 8469,
      "Ġmatters": 8470,
      "ĠAndy": 8471,
      "Ġ2014": 8472,
      "Ġdiver": 8473,
      "Ġinstances": 8474,
      "Ġzoo": 8475,
      "Ġconsideration": 8476,
      "Ġorganize": 8477,
      "Ġenerg": 8478,
      "Ġheads": 8479,
      "Ġbreaking": 8480,
      "Ġincident": 8481,
      "Ġpresents": 8482,
      "Ġmessages": 8483,
      "},{\"": 8484,
      "Ġchecking": 8485,
      "Ġamounts": 8486,
      "ommod": 8487,
      "Ġvolt": 8488,
      "Ġvolcan": 8489,
      "cycle": 8490,
      "Ġbreathing": 8491,
      "Ġbulb": 8492,
      "ĠValencia": 8493,
      "ĠInteg": 8494,
      "ĠPoland": 8495,
      "ĠAbstractManifold": 8496,
      "Ġsurrounded": 8497,
      "Ġadopted": 8498,
      "Ġshells": 8499,
      "Ġchicken": 8500,
      "ĠAtlantic": 8501,
      "ĠLearning": 8502,
      "Ġintentions": 8503,
      "Ġfestival": 8504,
      "Ġtidy": 8505,
      "ecorator": 8506,
      "']": 8507,
      "91": 8508,
      "Many": 8509,
      "Not": 8510,
      "Pr": 8511,
      "ULL": 8512,
      "document": 8513,
      "eff": 8514,
      "fish": 8515,
      "mo": 8516,
      "mother": 8517,
      "next": 8518,
      "oke": 8519,
      "uite": 8520,
      "Ġboss": 8521,
      "Ġboring": 8522,
      "Ġfet": 8523,
      "Ġfro": 8524,
      "Ġpy": 8525,
      "ouble": 8526,
      "oral": 8527,
      "oric": 8528,
      "icians": 8529,
      "Ġgear": 8530,
      "etics": 8531,
      "ĠSir": 8532,
      "urous": 8533,
      "Ġweigh": 8534,
      "quality": 8535,
      "ĠLong": 8536,
      "ĠLisa": 8537,
      "Ġchannel": 8538,
      "ĠEr": 8539,
      "ĠFree": 8540,
      "perty": 8541,
      "actic": 8542,
      "Ġroar": 8543,
      "Ġtap": 8544,
      "Ġperme": 8545,
      "!\".": 8546,
      "Ġapplying": 8547,
      "ĠOBC": 8548,
      "Ġregister": 8549,
      "ibly": 8550,
      "Ġdistort": 8551,
      "Ġglue": 8552,
      "enger": 8553,
      "ÅĵWhat": 8554,
      "ÅĵYes": 8555,
      "Ġplanned": 8556,
      "lands": 8557,
      "Ġfewer": 8558,
      "ĠComput": 8559,
      "vironments": 8560,
      "Ġdrank": 8561,
      "Ġinches": 8562,
      "ĠWho": 8563,
      "ĠConstitution": 8564,
      "Ġargue": 8565,
      "cribed": 8566,
      "Ġteams": 8567,
      "Ġbald": 8568,
      "Ġfrequent": 8569,
      "ĠEngine": 8570,
      "Ġindicating": 8571,
      "ynamic": 8572,
      "Ġsplashed": 8573,
      "Ġmechanisms": 8574,
      "Ġurban": 8575,
      "space": 8576,
      "Ġpredicted": 8577,
      "ltimately": 8578,
      "Ġdetective": 8579,
      "ĠFeb": 8580,
      "Ġmistakes": 8581,
      "ĠBlack": 8582,
      "Ġencourag": 8583,
      "ĠKeep": 8584,
      "Ġconstructed": 8585,
      "elivery": 8586,
      "Ġoutbursts": 8587,
      "ĠPMID": 8588,
      "ç§ĳ": 8589,
      "oltz": 8590,
      "Ġashamed": 8591,
      "Ġlegisl": 8592,
      "\"]}}},{\"": 8593,
      "ĠPDF": 8594,
      "Ġmonitoring": 8595,
      "Ġneutral": 8596,
      "Ġfavourite": 8597,
      "Ġfingers": 8598,
      "Ġoctopus": 8599,
      "App": 8600,
      "CP": 8601,
      "DD": 8602,
      "OI": 8603,
      "[:": 8604,
      "bn": 8605,
      "cher": 8606,
      "iat": 8607,
      "iom": 8608,
      "ko": 8609,
      "length": 8610,
      "noon": 8611,
      "rates": 8612,
      "tons": 8613,
      "uan": 8614,
      "yan": 8615,
      "æĭ": 8616,
      "Ġaid": 8617,
      "Ġoy": 8618,
      "Ġbones": 8619,
      "ingly": 8620,
      "arant": 8621,
      "Ġhive": 8622,
      "icular": 8623,
      "ĠTeddy": 8624,
      "state": 8625,
      "ads": 8626,
      "Ġstumbled": 8627,
      "irie": 8628,
      "Ġyield": 8629,
      "rape": 8630,
      "riv": 8631,
      "ĠMichael": 8632,
      "Ġneural": 8633,
      "Ġshade": 8634,
      "user": 8635,
      "Ġchim": 8636,
      "ĠJer": 8637,
      "ĠRet": 8638,
      "ĠRab": 8639,
      "ĠRail": 8640,
      "Ġabandon": 8641,
      "Ġimper": 8642,
      "Ġenable": 8643,
      "ago": 8644,
      "agine": 8645,
      "ĠGood": 8646,
      "fulness": 8647,
      "example": 8648,
      "Ġperception": 8649,
      "Ġappeal": 8650,
      "ĠInf": 8651,
      "Ġ34": 8652,
      "Ġpeer": 8653,
      "ocated": 8654,
      "Ġlaund": 8655,
      "Ġcommittee": 8656,
      "Ġconsult": 8657,
      "Ġflight": 8658,
      "Ġexcitedly": 8659,
      "Ġproducing": 8660,
      "ĠAnimal": 8661,
      "Ġ600": 8662,
      "Ġclassical": 8663,
      "oster": 8664,
      "ĠProfess": 8665,
      "ĠRev": 8666,
      "Ġsounded": 8667,
      "Ġadventurous": 8668,
      "ĠNewton": 8669,
      "Ġissued": 8670,
      "Ġpercentage": 8671,
      "Ġlengths": 8672,
      "Ġvolunte": 8673,
      "Ġbounded": 8674,
      "}^{\\": 8675,
      "Ġdreams": 8676,
      "ĠSciences": 8677,
      "ä»£åĨĻRiemannian": 8678,
      "ĠCarol": 8679,
      "\"}}},": 8680,
      "Ġapproxim": 8681,
      "Ġloaded": 8682,
      "Ġsusp": 8683,
      "Ġsustainability": 8684,
      "Ġcategory": 8685,
      "Object": 8686,
      "Transport": 8687,
      "Ġgravels": 8688,
      "æķ°åŃ¦ä»£åĨĻ": 8689,
      "Ġsandwich": 8690,
      "é»İæĽ¼åĩłä½ķä»£åĨĻRiemannian": 8691,
      "Ġimmersive": 8692,
      "ĠWindows": 8693,
      "Ġunexpected": 8694,
      "\";": 8695,
      ")}{": 8696,
      "Alex": 8697,
      "BN": 8698,
      "Ge": 8699,
      "MM": 8700,
      "Omega": 8701,
      "Sue": 8702,
      "aid": 8703,
      "chers": 8704,
      "des": 8705,
      "delta": 8706,
      "java": 8707,
      "lis": 8708,
      "Ġaunt": 8709,
      "Ġwww": 8710,
      "Ġwestern": 8711,
      "itage": 8712,
      "Ġborrow": 8713,
      "Ġfier": 8714,
      "Ġhorn": 8715,
      "cell": 8716,
      "Ġongoing": 8717,
      "ĠMem": 8718,
      "ckets": 8719,
      "Ġproceed": 8720,
      "Ġdele": 8721,
      "Ġplus": 8722,
      "ĠLondon": 8723,
      "Ġshone": 8724,
      "Ġshark": 8725,
      "ĠPolly": 8726,
      "opard": 8727,
      "ĠDise": 8728,
      "Ġjet": 8729,
      "ĠNGO": 8730,
      "Ġcontrad": 8731,
      "igned": 8732,
      "Ġarbit": 8733,
      "Ġapparent": 8734,
      "ĠKn": 8735,
      "cium": 8736,
      "cipl": 8737,
      "aker": 8738,
      "Ġaccommod": 8739,
      "Ġsword": 8740,
      "Ġsigned": 8741,
      "Ġdefines": 8742,
      "Ġfacts": 8743,
      "Ġmainly": 8744,
      "Ġinsist": 8745,
      "Ġmarkets": 8746,
      "Ġdetermination": 8747,
      "ĠSpanish": 8748,
      "Ġeastern": 8749,
      "Ġaccessible": 8750,
      "Ġcomputers": 8751,
      "Ġpaths": 8752,
      "ĠAbd": 8753,
      "Ġscientist": 8754,
      "Ġinvestment": 8755,
      "Ġvillages": 8756,
      "Ġsleeping": 8757,
      "clusions": 8758,
      "Ġmaxim": 8759,
      "Ġclaimed": 8760,
      "Ġillness": 8761,
      "Ġbarked": 8762,
      "Ġentirely": 8763,
      "æľ¯": 8764,
      "Ġgeometryä»£èĢĥ": 8765,
      "Ġignore": 8766,
      "Ġsilver": 8767,
      "ç»ı": 8768,
      "arbor": 8769,
      "Ġpreserve": 8770,
      "Ġawareness": 8771,
      "Ġhighlights": 8772,
      "Ġsettled": 8773,
      "Ġembedding": 8774,
      "Ġtransmission": 8775,
      "Ġinstitutions": 8776,
      "Ġphilosophy": 8777,
      "Ġdrinking": 8778,
      "Ġsenior": 8779,
      "Ġsnee": 8780,
      "Ġcomplicated": 8781,
      "Ġapolog": 8782,
      "Ġprioritize": 8783,
      "ĠFrancisco": 8784,
      "ÅĵLetÃ¢": 8785,
      "Ġillegal": 8786,
      "ĠMexico": 8787,
      "Ġdolphin": 8788,
      "Ġignorant": 8789,
      "ĠJSON": 8790,
      "Ġinfrastructure": 8791,
      "oltzmann": 8792,
      "322": 8793,
      "CI": 8794,
      "CR": 8795,
      "\\}$": 8796,
      "fold": 8797,
      "method": 8798,
      "æĬ": 8799,
      "ĻåŃ¦": 8800,
      "Ġwidespread": 8801,
      "Ġbored": 8802,
      "ena": 8803,
      "Ġmice": 8804,
      "ala": 8805,
      "Ġdates": 8806,
      "Ġnarrow": 8807,
      "Ġgaz": 8808,
      "Ġgained": 8809,
      "eties": 8810,
      "Ġhears": 8811,
      "ota": 8812,
      "olutions": 8813,
      "Ġwhale": 8814,
      "ĠMoon": 8815,
      "Ġcone": 8816,
      "ĠBig": 8817,
      "ĠBill": 8818,
      "Ġ1000": 8819,
      "ĠLook": 8820,
      "ĠPapa": 8821,
      "emeter": 8822,
      "ĠFace": 8823,
      "Ġmaze": 8824,
      "Ġjail": 8825,
      "ĠNat": 8826,
      "Ġenem": 8827,
      "acle": 8828,
      "plete": 8829,
      "ĠGrace": 8830,
      "ĠGreek": 8831,
      "ogram": 8832,
      "Ġagency": 8833,
      "Ġpreced": 8834,
      "Ġgrains": 8835,
      "Ġsubs": 8836,
      "ĠHoward": 8837,
      "Ġextension": 8838,
      "azine": 8839,
      "Ġentered": 8840,
      "Ġmaintaining": 8841,
      "ĠRevolution": 8842,
      "Ġcourses": 8843,
      "Ġdepression": 8844,
      "2008": 8845,
      "ophie": 8846,
      "Ġbusinesses": 8847,
      "Ġrolling": 8848,
      "Ġtracking": 8849,
      "Ġsouthern": 8850,
      "ĠOrgan": 8851,
      "coln": 8852,
      "ĠManagement": 8853,
      "Ġsuspect": 8854,
      "Ġlifted": 8855,
      "Ġnuts": 8856,
      "'''": 8857,
      "Ġconflicts": 8858,
      "ĠJulia": 8859,
      "Ġincorporating": 8860,
      "Ġcolumns": 8861,
      "Ġcoordinate": 8862,
      "Ġtrigger": 8863,
      "Ġisolated": 8864,
      "Retraction": 8865,
      "Ġmicroscope": 8866,
      "Ġrapidly": 8867,
      "Ġreciproc": 8868,
      "Ġschedule": 8869,
      "label": 8870,
      "Ġpirate": 8871,
      "Ġshopping": 8872,
      "Ġfracture": 8873,
      "Ġsubtract": 8874,
      "Ġcriteria": 8875,
      "Ġanalyses": 8876,
      "ĠVirgin": 8877,
      "Ġcurriculum": 8878,
      "().": 8879,
      "Cal": 8880,
      "Jill": 8881,
      "MO": 8882,
      "Par": 8883,
      "Pol": 8884,
      "friend": 8885,
      "langle": 8886,
      "vide": 8887,
      "ville": 8888,
      "éĺ": 8889,
      "include": 8890,
      "attr": 8891,
      "Ġpor": 8892,
      "Ġpand": 8893,
      "Ġdip": 8894,
      "asters": 8895,
      "ada": 8896,
      "ceans": 8897,
      "unar": 8898,
      "ĠMel": 8899,
      "ĠChe": 8900,
      "Ġconclude": 8901,
      "Ġaren": 8902,
      "Ġproved": 8903,
      "Ġsector": 8904,
      "ĠPacific": 8905,
      "iva": 8906,
      "opathy": 8907,
      "ĠWor": 8908,
      "ĠExt": 8909,
      "ĠEucl": 8910,
      "Ġintric": 8911,
      "Ġintrig": 8912,
      "ĠRE": 8913,
      "Ġclub": 8914,
      "ĠNon": 8915,
      "ĠNature": 8916,
      "plex": 8917,
      "ugs": 8918,
      "lower": 8919,
      "Ġdishes": 8920,
      "format": 8921,
      "ensing": 8922,
      "Ġpeak": 8923,
      "ocy": 8924,
      "Ġconscious": 8925,
      "Ġmodule": 8926,
      "Ġbund": 8927,
      "Ġends": 8928,
      "Ġsolved": 8929,
      "Ġafternoon": 8930,
      "Ġglucose": 8931,
      "ĠWhenever": 8932,
      "ĠProcess": 8933,
      "tenance": 8934,
      "Ġze": 8935,
      "Ġ85": 8936,
      "Ġartist": 8937,
      "Ġturning": 8938,
      "Ġmuscle": 8939,
      "Ġcleaned": 8940,
      "Ġgovernments": 8941,
      "Ġsteam": 8942,
      "Ġsandy": 8943,
      "Ġdependent": 8944,
      "Ġlabels": 8945,
      "Ġreaching": 8946,
      "Ġforgive": 8947,
      "Ġexperimental": 8948,
      "ropical": 8949,
      "Ġspectra": 8950,
      "Ġportion": 8951,
      "Ġaxe": 8952,
      "Ġmachines": 8953,
      "ĠUSA": 8954,
      "Ġperspectives": 8955,
      "Ġincorporate": 8956,
      "ĠDespite": 8957,
      "ĠAvoid": 8958,
      "Ġinnovation": 8959,
      "Ġultimately": 8960,
      "Ġpossibly": 8961,
      "Ġmanufacture": 8962,
      "Ġscattering": 8963,
      "Ġflashlight": 8964,
      "å·¥åħ·": 8965,
      "Ġconstraints": 8966,
      "Am": 8967,
      "DE": 8968,
      "Ke": 8969,
      "PAR": 8970,
      "Today": 8971,
      "cons": 8972,
      "law": 8973,
      "mble": 8974,
      "ns": 8975,
      "oids": 8976,
      "rick": 8977,
      "uy": 8978,
      "vals": 8979,
      "was": 8980,
      "æĤ": 8981,
      "Ġtables": 8982,
      "inction": 8983,
      "Ġsle": 8984,
      "Ġsighed": 8985,
      "oni": 8986,
      "Ġcups": 8987,
      "eness": 8988,
      "isons": 8989,
      "Ġpenc": 8990,
      "ald": 8991,
      "Ġgap": 8992,
      "Ġhence": 8993,
      "Ġrely": 8994,
      "otion": 8995,
      "ĠIll": 8996,
      "ĠAny": 8997,
      "riz": 8998,
      "ript": 8999,
      "Ġalcohol": 9000,
      "Ġweird": 9001,
      "ĠMA": 9002,
      "ĠCir": 9003,
      "Ġconvent": 9004,
      "Ġorbit": 9005,
      "ĠBro": 9006,
      "ivered": 9007,
      "Ġkern": 9008,
      "Ġchamber": 9009,
      "Ġclient": 9010,
      "ĠItalian": 9011,
      "ugged": 9012,
      "Ġscript": 9013,
      "Ġcoco": 9014,
      "Ġsomewhere": 9015,
      "Ġtrunk": 9016,
      "berries": 9017,
      "Ġgirls": 9018,
      "Ġunemploy": 9019,
      "ĠInit": 9020,
      "ucer": 9021,
      "Ġpeek": 9022,
      "Ġtrains": 9023,
      "Ġshouldn": 9024,
      "Ġbrings": 9025,
      "Ġequally": 9026,
      "Ġproduces": 9027,
      "Ġdistances": 9028,
      "Ġgrumpy": 9029,
      "Ġcounty": 9030,
      "Ġ2017": 9031,
      "Ġdiplom": 9032,
      "Ġanalog": 9033,
      "ĠAli": 9034,
      "Ġinsight": 9035,
      "ynchronous": 9036,
      "Ġbreaks": 9037,
      "erring": 9038,
      "ĠResources": 9039,
      "ospit": 9040,
      "ĠAtt": 9041,
      "Ġoccurrence": 9042,
      "Ġfarmers": 9043,
      "Ġsands": 9044,
      "Ġyounger": 9045,
      "Ġlistening": 9046,
      "Ġbiology": 9047,
      "Ġdepartment": 9048,
      "Ġperfectly": 9049,
      "Ġseparated": 9050,
      "Ġassumptions": 9051,
      "Ġmagnet": 9052,
      "fortable": 9053,
      "Ġmountains": 9054,
      "agonist": 9055,
      "Ġbathroom": 9056,
      "haust": 9057,
      "Ġinitiatives": 9058,
      "Ġcrawled": 9059,
      "Ġinnovative": 9060,
      "igenous": 9061,
      "Ġalgebraic": 9062,
      "Ġkinetic": 9063,
      "Ġrelaxed": 9064,
      "Ġinterpretation": 9065,
      "Ġcongru": 9066,
      "Ġvitamin": 9067,
      "ĠService": 9068,
      "Ġgranted": 9069,
      "Ġruined": 9070,
      "Ġgalaxies": 9071,
      "nonumber": 9072,
      "Ġsubsequent": 9073,
      "Posts": 9074,
      "Ġrevenue": 9075,
      "ĠValueError": 9076,
      "itudes": 9077,
      "Ġcompassion": 9078,
      "Ġpermanent": 9079,
      "Ad": 9080,
      "Grand": 9081,
      "Out": 9082,
      "Pe": 9083,
      "Rep": 9084,
      "TG": 9085,
      "VI": 9086,
      "has": 9087,
      "jms": 9088,
      "names": 9089,
      "rance": 9090,
      "ti": 9091,
      "tail": 9092,
      "Ġ..": 9093,
      "Ġcube": 9094,
      "Ġotter": 9095,
      "isp": 9096,
      "isible": 9097,
      "Ġpod": 9098,
      "Ġmos": 9099,
      "Ġlou": 9100,
      "ilon": 9101,
      "ĠTra": 9102,
      "ĠSE": 9103,
      "Ġbeam": 9104,
      "igration": 9105,
      "owed": 9106,
      "amps": 9107,
      "ĠAma": 9108,
      "ĠMart": 9109,
      "ĠBaby": 9110,
      "Ġplots": 9111,
      "Ġvs": 9112,
      "osit": 9113,
      "idean": 9114,
      "ĠWed": 9115,
      "ĠWild": 9116,
      "ĠEU": 9117,
      "ĠFood": 9118,
      "Ġjam": 9119,
      "ĠRoyal": 9120,
      "Ġusual": 9121,
      "Ġenvironments": 9122,
      "ague": 9123,
      "Ġsci": 9124,
      "ogl": 9125,
      "Ġhelic": 9126,
      "Ġcomposed": 9127,
      "Ġcompelling": 9128,
      "Ġ37": 9129,
      "ĠOpen": 9130,
      "ĠKim": 9131,
      "Ġexplains": 9132,
      "Ġ{}": 9133,
      "ĠViet": 9134,
      "Ġregards": 9135,
      "Thus": 9136,
      "Ġtries": 9137,
      "Ġworldwide": 9138,
      "Ġsubset": 9139,
      "Ġdiameter": 9140,
      "Ġvend": 9141,
      "Ġstrongly": 9142,
      "Ġguarant": 9143,
      "Ġpurse": 9144,
      "approx": 9145,
      "Ġtreatments": 9146,
      "Ġpracticed": 9147,
      "Ġpressures": 9148,
      "ĠWhite": 9149,
      "Ġimproving": 9150,
      "Ġwheat": 9151,
      "iodiversity": 9152,
      "Ġavailability": 9153,
      "Ġfloating": 9154,
      "Ġbiases": 9155,
      "Ġdepart": 9156,
      "Ġprincip": 9157,
      "Although": 9158,
      "Alternatively": 9159,
      "Ġprimality": 9160,
      "Ġcrab": 9161,
      "Ġrandomly": 9162,
      "Ġofficers": 9163,
      "Ġcutting": 9164,
      "Ġuranium": 9165,
      "Ġapplies": 9166,
      "burg": 9167,
      "Ġtroubled": 9168,
      "Ġverb": 9169,
      "Ġalgorithms": 9170,
      "ĠGrass": 9171,
      "Ġneighborhood": 9172,
      "Ġwarned": 9173,
      "Ġcopyright": 9174,
      "Ġinitiative": 9175,
      "holders": 9176,
      "Ġbounce": 9177,
      "Ġsettings": 9178,
      "Ġopinions": 9179,
      "ĠVeh": 9180,
      "Ġintelligent": 9181,
      "Ġrestrictions": 9182,
      "Ġtomatoes": 9183,
      "Ġminimize": 9184,
      "Ġhyperb": 9185,
      "Ġchoosing": 9186,
      "Ġinactivation": 9187,
      "Ġuncomfortable": 9188,
      "ĠRobert": 9189,
      "Ġcircumstances": 9190,
      "Ġlikelihood": 9191,
      ",-": 9192,
      "Col": 9193,
      "Even": 9194,
      "Per": 9195,
      "ga": 9196,
      "hyd": 9197,
      "ker": 9198,
      "po": 9199,
      "pace": 9200,
      "yles": 9201,
      "zil": 9202,
      "åĬ": 9203,
      "éĩ": 9204,
      "Ġtear": 9205,
      "Ġwishes": 9206,
      "atis": 9207,
      "Ġcage": 9208,
      "orable": 9209,
      "idden": 9210,
      "Ġrein": 9211,
      "ĠST": 9212,
      "ĠSST": 9213,
      "second": 9214,
      "ĠHospital": 9215,
      "ulin": 9216,
      "riers": 9217,
      "ĠLabor": 9218,
      "Ġvital": 9219,
      "Ġveter": 9220,
      "Ġcharming": 9221,
      "ĠFollow": 9222,
      "endar": 9223,
      "Ġworm": 9224,
      "Ġliber": 9225,
      "Ġlizard": 9226,
      "Ġabuse": 9227,
      "ella": 9228,
      "acci": 9229,
      "Ġscream": 9230,
      "Ġcovers": 9231,
      "Ġsport": 9232,
      "ĠThrough": 9233,
      "eps": 9234,
      "Ġapplet": 9235,
      "Ġtwenty": 9236,
      "ĠUs": 9237,
      "Ġnoisy": 9238,
      "Ġdecimal": 9239,
      "obile": 9240,
      "irector": 9241,
      "Ġbloom": 9242,
      "Ġmodest": 9243,
      "Ġmodify": 9244,
      "Ġremark": 9245,
      "creen": 9246,
      "hess": 9247,
[...]
